FANN_FLO_2.1
num_layers=3
learning_rate=0.700000
connection_rate=1.000000
network_type=0
learning_momentum=0.000000
training_algorithm=2
train_error_function=1
train_stop_function=0
cascade_output_change_fraction=0.010000
quickprop_decay=-0.000100
quickprop_mu=1.750000
rprop_increase_factor=1.200000
rprop_decrease_factor=0.500000
rprop_delta_min=0.000000
rprop_delta_max=50.000000
rprop_delta_zero=0.100000
cascade_output_stagnation_epochs=12
cascade_candidate_change_fraction=0.010000
cascade_candidate_stagnation_epochs=12
cascade_max_out_epochs=150
cascade_min_out_epochs=50
cascade_max_cand_epochs=150
cascade_min_cand_epochs=50
cascade_num_candidate_groups=2
bit_fail_limit=3.49999994039535522461e-01
cascade_candidate_limit=1.00000000000000000000e+03
cascade_weight_multiplier=4.00000005960464477539e-01
cascade_activation_functions_count=10
cascade_activation_functions=3 5 7 8 10 11 14 15 16 17 
cascade_activation_steepnesses_count=4
cascade_activation_steepnesses=2.50000000000000000000e-01 5.00000000000000000000e-01 7.50000000000000000000e-01 1.00000000000000000000e+00 
layer_sizes=51 51 2 
scale_included=0
neurons (num_inputs, activation_function, activation_steepness)=(0, 0, 0.00000000000000000000e+00) (0, 0, 0.00000000000000000000e+00) (0, 0, 0.00000000000000000000e+00) (0, 0, 0.00000000000000000000e+00) (0, 0, 0.00000000000000000000e+00) (0, 0, 0.00000000000000000000e+00) (0, 0, 0.00000000000000000000e+00) (0, 0, 0.00000000000000000000e+00) (0, 0, 0.00000000000000000000e+00) (0, 0, 0.00000000000000000000e+00) (0, 0, 0.00000000000000000000e+00) (0, 0, 0.00000000000000000000e+00) (0, 0, 0.00000000000000000000e+00) (0, 0, 0.00000000000000000000e+00) (0, 0, 0.00000000000000000000e+00) (0, 0, 0.00000000000000000000e+00) (0, 0, 0.00000000000000000000e+00) (0, 0, 0.00000000000000000000e+00) (0, 0, 0.00000000000000000000e+00) (0, 0, 0.00000000000000000000e+00) (0, 0, 0.00000000000000000000e+00) (0, 0, 0.00000000000000000000e+00) (0, 0, 0.00000000000000000000e+00) (0, 0, 0.00000000000000000000e+00) (0, 0, 0.00000000000000000000e+00) (0, 0, 0.00000000000000000000e+00) (0, 0, 0.00000000000000000000e+00) (0, 0, 0.00000000000000000000e+00) (0, 0, 0.00000000000000000000e+00) (0, 0, 0.00000000000000000000e+00) (0, 0, 0.00000000000000000000e+00) (0, 0, 0.00000000000000000000e+00) (0, 0, 0.00000000000000000000e+00) (0, 0, 0.00000000000000000000e+00) (0, 0, 0.00000000000000000000e+00) (0, 0, 0.00000000000000000000e+00) (0, 0, 0.00000000000000000000e+00) (0, 0, 0.00000000000000000000e+00) (0, 0, 0.00000000000000000000e+00) (0, 0, 0.00000000000000000000e+00) (0, 0, 0.00000000000000000000e+00) (0, 0, 0.00000000000000000000e+00) (0, 0, 0.00000000000000000000e+00) (0, 0, 0.00000000000000000000e+00) (0, 0, 0.00000000000000000000e+00) (0, 0, 0.00000000000000000000e+00) (0, 0, 0.00000000000000000000e+00) (0, 0, 0.00000000000000000000e+00) (0, 0, 0.00000000000000000000e+00) (0, 0, 0.00000000000000000000e+00) (0, 0, 0.00000000000000000000e+00) (51, 5, 5.00000000000000000000e-01) (51, 5, 5.00000000000000000000e-01) (51, 5, 5.00000000000000000000e-01) (51, 5, 5.00000000000000000000e-01) (51, 5, 5.00000000000000000000e-01) (51, 5, 5.00000000000000000000e-01) (51, 5, 5.00000000000000000000e-01) (51, 5, 5.00000000000000000000e-01) (51, 5, 5.00000000000000000000e-01) (51, 5, 5.00000000000000000000e-01) (51, 5, 5.00000000000000000000e-01) (51, 5, 5.00000000000000000000e-01) (51, 5, 5.00000000000000000000e-01) (51, 5, 5.00000000000000000000e-01) (51, 5, 5.00000000000000000000e-01) (51, 5, 5.00000000000000000000e-01) (51, 5, 5.00000000000000000000e-01) (51, 5, 5.00000000000000000000e-01) (51, 5, 5.00000000000000000000e-01) (51, 5, 5.00000000000000000000e-01) (51, 5, 5.00000000000000000000e-01) (51, 5, 5.00000000000000000000e-01) (51, 5, 5.00000000000000000000e-01) (51, 5, 5.00000000000000000000e-01) (51, 5, 5.00000000000000000000e-01) (51, 5, 5.00000000000000000000e-01) (51, 5, 5.00000000000000000000e-01) (51, 5, 5.00000000000000000000e-01) (51, 5, 5.00000000000000000000e-01) (51, 5, 5.00000000000000000000e-01) (51, 5, 5.00000000000000000000e-01) (51, 5, 5.00000000000000000000e-01) (51, 5, 5.00000000000000000000e-01) (51, 5, 5.00000000000000000000e-01) (51, 5, 5.00000000000000000000e-01) (51, 5, 5.00000000000000000000e-01) (51, 5, 5.00000000000000000000e-01) (51, 5, 5.00000000000000000000e-01) (51, 5, 5.00000000000000000000e-01) (51, 5, 5.00000000000000000000e-01) (51, 5, 5.00000000000000000000e-01) (51, 5, 5.00000000000000000000e-01) (51, 5, 5.00000000000000000000e-01) (51, 5, 5.00000000000000000000e-01) (51, 5, 5.00000000000000000000e-01) (51, 5, 5.00000000000000000000e-01) (51, 5, 5.00000000000000000000e-01) (51, 5, 5.00000000000000000000e-01) (51, 5, 5.00000000000000000000e-01) (51, 5, 5.00000000000000000000e-01) (0, 5, 0.00000000000000000000e+00) (51, 5, 5.00000000000000000000e-01) (0, 5, 0.00000000000000000000e+00) 
connections (connected_to_neuron, weight)=(0, -1.00600147247314453125e+00) (1, -2.06883907318115234375e-01) (2, -3.00313091278076171875e+00) (3, 7.60450172424316406250e+00) (4, -1.44382846355438232422e+00) (5, -6.85147285461425781250e-01) (6, 2.22991275787353515625e+00) (7, 5.98271667957305908203e-01) (8, 3.47594714164733886719e+00) (9, 4.16921806335449218750e+00) (10, -1.10614530742168426514e-01) (11, 3.35513544082641601562e+00) (12, -3.12594938278198242188e+00) (13, 1.39685347676277160645e-02) (14, 4.21812206506729125977e-01) (15, 7.69502520561218261719e-02) (16, -1.05718418955802917480e-01) (17, 2.63818621635437011719e+00) (18, 4.01044219732284545898e-01) (19, 1.02076900005340576172e+00) (20, 5.93718707561492919922e-01) (21, 1.09354698657989501953e+00) (22, 4.34335088729858398438e+00) (23, -2.37324610352516174316e-01) (24, 2.11636185646057128906e+00) (25, -1.37641704082489013672e+00) (26, 4.75732594728469848633e-01) (27, -3.27347069978713989258e-01) (28, -3.15148138999938964844e+00) (29, 4.97069388628005981445e-01) (30, -1.40500986576080322266e+00) (31, -3.95306062698364257812e+00) (32, 6.49906992912292480469e-01) (33, -2.68300831317901611328e-01) (34, 4.56779384613037109375e+00) (35, 5.46827949583530426025e-02) (36, 1.95161557197570800781e+00) (37, 2.68531847000122070312e+00) (38, -4.13426208496093750000e+00) (39, 1.72601306438446044922e+00) (40, 2.45936203002929687500e+00) (41, -1.23884665966033935547e+00) (42, 1.89627707004547119141e+00) (43, 3.84506654739379882812e+00) (44, 8.44024062156677246094e-01) (45, -2.14811134338378906250e+00) (46, -2.32775902748107910156e+00) (47, -9.97462689876556396484e-01) (48, -3.18250870704650878906e+00) (49, 4.67620074748992919922e-01) (50, -1.91796913743019104004e-01) (0, 4.17729520797729492188e+00) (1, 5.97340427339076995850e-02) (2, 1.23914718627929687500e+00) (3, 8.60757648944854736328e-01) (4, 1.90757298469543457031e+00) (5, 3.45035731792449951172e-01) (6, 8.60644638538360595703e-01) (7, 2.09410285949707031250e+00) (8, -6.91671818494796752930e-02) (9, -9.98909294605255126953e-01) (10, 3.41742306947708129883e-01) (11, 2.80473017692565917969e+00) (12, 3.38719272613525390625e+00) (13, 8.90806198120117187500e-01) (14, 1.90101861953735351562e+00) (15, 3.72688859701156616211e-01) (16, 5.78718781471252441406e-01) (17, 1.64727628231048583984e+00) (18, 3.58733355998992919922e-01) (19, 5.42793035507202148438e-01) (20, 6.18634112179279327393e-02) (21, -1.50227117538452148438e+00) (22, 6.99501574039459228516e-01) (23, 9.38632667064666748047e-01) (24, -1.05979883670806884766e+00) (25, 1.45729839801788330078e+00) (26, -2.99225002527236938477e-02) (27, 2.09177684783935546875e+00) (28, -3.63047385215759277344e+00) (29, 3.39248143136501312256e-02) (30, 2.96778750419616699219e+00) (31, -1.66978275775909423828e+00) (32, -9.43510341644287109375e+00) (33, 5.07123768329620361328e-02) (34, -4.44610261917114257812e+00) (35, 5.50107419490814208984e-01) (36, 4.69348847866058349609e-01) (37, 1.55045405030250549316e-01) (38, 1.98872971534729003906e+00) (39, 4.77208316326141357422e-01) (40, 2.88838863372802734375e-01) (41, -1.94960319995880126953e+00) (42, 3.77600812911987304688e+00) (43, -1.54160439968109130859e+00) (44, 4.36135947704315185547e-01) (45, 2.03035652637481689453e-01) (46, 8.07599276304244995117e-02) (47, 9.22447621822357177734e-01) (48, 1.19636785984039306641e+00) (49, 3.32972455024719238281e+00) (50, 3.94023209810256958008e-01) (0, -1.35787093639373779297e+00) (1, 4.05492261052131652832e-02) (2, 1.14980363845825195312e+00) (3, 8.00123512744903564453e-01) (4, 1.79661619663238525391e+00) (5, -1.72797113656997680664e-01) (6, 1.36462926864624023438e+00) (7, 2.13563680648803710938e+00) (8, -8.23656618595123291016e-01) (9, 3.11323761940002441406e-01) (10, 5.53357183933258056641e-01) (11, 2.76248478889465332031e+00) (12, -9.50622916221618652344e-01) (13, 4.30810838937759399414e-01) (14, 6.07069492340087890625e-01) (15, 3.51646035909652709961e-01) (16, 4.10134941339492797852e-01) (17, -7.38857412338256835938e+00) (18, 3.03228676319122314453e-01) (19, -1.65776443481445312500e+00) (20, 1.68667793273925781250e-01) (21, 2.79546356201171875000e+00) (22, 6.00896418094635009766e-01) (23, 7.20587134361267089844e-01) (24, -1.99126139283180236816e-01) (25, 7.16291248798370361328e-01) (26, 8.57457220554351806641e-01) (27, 5.44571757316589355469e-01) (28, 8.19254016876220703125e+00) (29, 5.27774393558502197266e-02) (30, 7.69823603332042694092e-03) (31, -4.28515052795410156250e+00) (32, -1.33572787046432495117e-01) (33, 3.74695301055908203125e+00) (34, 4.90588426589965820312e-01) (35, 6.94976374506950378418e-02) (36, 5.07084548473358154297e-01) (37, 3.88346600532531738281e+00) (38, 4.66231763362884521484e-01) (39, -1.01345382630825042725e-01) (40, 3.36939096450805664062e-01) (41, 5.04644103348255157471e-02) (42, 1.09588325023651123047e+00) (43, 1.70850217342376708984e-01) (44, 5.19596815109252929688e-01) (45, -3.43397647142410278320e-01) (46, 9.58542674779891967773e-02) (47, 1.03012108802795410156e+00) (48, -9.93653964996337890625e+00) (49, 9.33374404907226562500e-01) (50, 4.28507804870605468750e-01) (0, -1.88626337051391601562e+00) (1, -1.53499403968453407288e-02) (2, 6.40580892562866210938e-01) (3, 3.55626612901687622070e-01) (4, -1.68745815753936767578e-01) (5, -1.23317742347717285156e+00) (6, 1.16302862167358398438e+01) (7, 2.15054535865783691406e+00) (8, -1.09264682978391647339e-02) (9, 1.07474756240844726562e+00) (10, 2.02830052375793457031e+00) (11, 2.87171840667724609375e+00) (12, -2.04886460304260253906e+00) (13, -1.19349539279937744141e+00) (14, 8.42598140239715576172e-01) (15, 9.67979848384857177734e-01) (16, -2.69668722152709960938e+00) (17, -2.97212600708007812500e+00) (18, 3.22391837835311889648e-01) (19, 3.74764889478683471680e-01) (20, 2.33164334297180175781e+00) (21, 1.80160665512084960938e+00) (22, 8.03371429443359375000e-01) (23, 6.42669022083282470703e-01) (24, -1.16175755858421325684e-01) (25, 2.19901382923126220703e-01) (26, 4.13431978225708007812e+00) (27, 1.62090742588043212891e+00) (28, 9.53650355339050292969e-01) (29, 1.35031983256340026855e-01) (30, 1.39238297939300537109e+00) (31, -1.90625941753387451172e+00) (32, -1.39722347259521484375e-01) (33, 2.98721241950988769531e+00) (34, 1.09419536590576171875e+00) (35, -9.08502817153930664062e-01) (36, 4.18733924627304077148e-01) (37, -7.78267383575439453125e+00) (38, 4.32820111513137817383e-01) (39, -3.10724601149559020996e-02) (40, 4.19437468051910400391e-01) (41, 1.46097227931022644043e-01) (42, -1.12317693233489990234e+00) (43, 2.63005304336547851562e+00) (44, 2.36001014709472656250e+00) (45, -1.80801844596862792969e+00) (46, 6.17126798629760742188e+00) (47, 4.22916173934936523438e+00) (48, -6.24554347991943359375e+00) (49, 2.83485829830169677734e-01) (50, 4.10881012678146362305e-01) (0, -8.23829472064971923828e-01) (1, 1.01264762878417968750e+00) (2, 1.25378406047821044922e+00) (3, 1.73383012413978576660e-01) (4, 4.81050789356231689453e-01) (5, 3.84669780731201171875e-01) (6, -4.89851236343383789062e-02) (7, 7.55573689937591552734e-01) (8, 6.44801139831542968750e-01) (9, 7.66752898693084716797e-01) (10, 2.38605618476867675781e-01) (11, 1.28639400005340576172e+00) (12, -3.23413372039794921875e+00) (13, 4.48575824499130249023e-01) (14, -1.27716928720474243164e-01) (15, 8.92335847020149230957e-02) (16, 5.98662316799163818359e-01) (17, 7.61768639087677001953e-01) (18, 3.17487776279449462891e-01) (19, 2.22636952996253967285e-01) (20, 1.78934359550476074219e+00) (21, 3.06766271591186523438e-01) (22, -2.00098109245300292969e+00) (23, 1.58494502305984497070e-01) (24, -5.59909760951995849609e-01) (25, 6.04986786842346191406e-01) (26, 2.81570374965667724609e-01) (27, 2.67529344558715820312e+00) (28, 5.51830673217773437500e+00) (29, 2.99250125885009765625e-01) (30, 2.78238862752914428711e-01) (31, 3.20214986801147460938e+00) (32, 3.70060235261917114258e-01) (33, -3.60163658857345581055e-01) (34, -2.86588042974472045898e-01) (35, 4.55268800258636474609e-01) (36, 3.82172822952270507812e-01) (37, 1.31414175033569335938e+00) (38, 5.26543498039245605469e-01) (39, 2.73114174604415893555e-01) (40, -1.72395199537277221680e-01) (41, 6.58933162689208984375e-01) (42, -4.46163034439086914062e+00) (43, 3.35407584905624389648e-01) (44, 8.97107899188995361328e-01) (45, 4.75216329097747802734e-01) (46, 7.24801838397979736328e-01) (47, 1.33855020999908447266e+00) (48, 7.43791401386260986328e-01) (49, -4.55231428146362304688e+00) (50, 4.77073252201080322266e-01) (0, 3.41603970527648925781e+00) (1, 6.93406522274017333984e-01) (2, -4.14700955152511596680e-02) (3, -2.96468764543533325195e-01) (4, 1.14261102676391601562e+00) (5, -1.46628427505493164062e+00) (6, 5.73649764060974121094e-01) (7, -3.18577110767364501953e-01) (8, 2.48901307582855224609e-01) (9, 1.23071527481079101562e+00) (10, 1.14991724491119384766e+00) (11, -4.99708354473114013672e-01) (12, -6.11432254314422607422e-01) (13, -7.44942128658294677734e-01) (14, 5.37700831890106201172e-01) (15, -9.70402777194976806641e-01) (16, 5.45222818851470947266e-01) (17, -4.39895719289779663086e-01) (18, 4.61534053087234497070e-01) (19, 2.85234034061431884766e-01) (20, -1.31633644923567771912e-03) (21, 5.16419231891632080078e-01) (22, 3.64438891410827636719e-01) (23, -1.00809469819068908691e-01) (24, 3.77709579467773437500e+00) (25, 1.40028178691864013672e+00) (26, -8.33721533417701721191e-02) (27, -2.59155297279357910156e+00) (28, 2.85257005691528320312e+00) (29, 4.52207386493682861328e-01) (30, -1.30416595935821533203e+00) (31, -3.05114054679870605469e+00) (32, -5.04554688930511474609e-01) (33, 1.76120388507843017578e+00) (34, 1.23996627330780029297e+00) (35, 3.14622581005096435547e-01) (36, -5.01448929309844970703e-01) (37, 5.09023427963256835938e-01) (38, 7.19731271266937255859e-01) (39, -1.41729080677032470703e+00) (40, 2.84675568342208862305e-01) (41, 6.42297923564910888672e-01) (42, 2.01078033447265625000e+00) (43, 2.51375943422317504883e-01) (44, 4.80735152959823608398e-01) (45, 7.37925648689270019531e-01) (46, 2.11660712957382202148e-01) (47, 5.21054208278656005859e-01) (48, -1.03727245330810546875e+00) (49, 5.21934366226196289062e+00) (50, 4.49491411447525024414e-01) (0, -7.36803054809570312500e-01) (1, 8.15433204174041748047e-01) (2, 1.98011517524719238281e+00) (3, -1.45941823720932006836e-01) (4, 6.66420221328735351562e-01) (5, -3.37257504463195800781e-01) (6, 7.17079102993011474609e-01) (7, -1.14949330687522888184e-01) (8, 6.80100500583648681641e-01) (9, -5.58382511138916015625e+00) (10, 4.08958643674850463867e-01) (11, -2.22953629493713378906e+00) (12, 1.83331203460693359375e+00) (13, 1.76538378000259399414e-02) (14, 6.92770385742187500000e+00) (15, -2.12831363081932067871e-01) (16, 5.39678215980529785156e-01) (17, 1.41439723968505859375e+00) (18, 4.16258364915847778320e-01) (19, -1.10669672489166259766e+00) (20, -9.80851292610168457031e-01) (21, 4.78169113397598266602e-01) (22, 3.12139302492141723633e-01) (23, -1.80055484175682067871e-01) (24, 2.99058437347412109375e+00) (25, 8.64865839481353759766e-01) (26, -4.25169169902801513672e-01) (27, 4.34721320867538452148e-01) (28, 3.61117768287658691406e+00) (29, 2.15835869312286376953e-01) (30, 5.52221298217773437500e-01) (31, 3.91742968559265136719e+00) (32, 1.80529192090034484863e-01) (33, 6.95070803165435791016e-01) (34, 6.48085355758666992188e-01) (35, 2.88568884134292602539e-01) (36, 4.37160611152648925781e-01) (37, 2.27788424491882324219e+00) (38, 4.81390863656997680664e-01) (39, 7.79432803392410278320e-02) (40, -1.41694664955139160156e-01) (41, 5.07969439029693603516e-01) (42, 4.04695987701416015625e-01) (43, -7.89627194404602050781e-01) (44, 1.84185230731964111328e+00) (45, 6.71462535858154296875e-01) (46, 2.23849558830261230469e+00) (47, 3.94001811742782592773e-01) (48, 7.81818851828575134277e-02) (49, 3.53458809852600097656e+00) (50, 3.55992615222930908203e-01) (0, 4.29099130630493164062e+00) (1, 7.53927767276763916016e-01) (2, 9.35526788234710693359e-02) (3, 6.40390539169311523438e+00) (4, 2.59157466888427734375e+00) (5, -6.36316156387329101562e+00) (6, 1.18084537982940673828e+00) (7, -4.54909849166870117188e+00) (8, 1.16726326942443847656e+00) (9, 5.11456727981567382812e+00) (10, 1.83680325746536254883e-01) (11, 2.00759482383728027344e+00) (12, 2.66016912460327148438e+00) (13, 1.16397905349731445312e+01) (14, -4.79009628295898437500e+00) (15, 8.47806259989738464355e-02) (16, 9.04581602662801742554e-03) (17, 9.30223822593688964844e-01) (18, -1.54393672943115234375e-01) (19, 9.02604386210441589355e-02) (20, -1.01262308657169342041e-01) (21, 7.14306116104125976562e-01) (22, 7.76633083820343017578e-01) (23, 3.30569434165954589844e+00) (24, 2.62304472923278808594e+00) (25, -7.46765971183776855469e-01) (26, 3.42715054750442504883e-01) (27, 1.73363804817199707031e-01) (28, 2.56028580665588378906e+00) (29, 1.54212975502014160156e+00) (30, -4.92842271924018859863e-02) (31, -6.20647192001342773438e+00) (32, -3.62214851379394531250e+00) (33, 1.27014920115470886230e-01) (34, -7.81205654144287109375e-01) (35, 1.32035212591290473938e-02) (36, 1.41586931422352790833e-02) (37, -1.42277646064758300781e+00) (38, 1.07803158462047576904e-01) (39, -1.97213840484619140625e+00) (40, 1.50334131717681884766e+00) (41, -7.26044084876775741577e-03) (42, 7.07006931304931640625e+00) (43, 3.75190162658691406250e+00) (44, 5.45541524887084960938e-01) (45, 4.28287655115127563477e-01) (46, 6.34098863601684570312e+00) (47, -6.72865033149719238281e-01) (48, 1.23067784309387207031e+00) (49, -5.78820323944091796875e+00) (50, 1.59918397665023803711e-01) (0, -2.40819239616394042969e+00) (1, 1.42252147197723388672e-02) (2, 2.08685326576232910156e+00) (3, 7.32470273971557617188e-01) (4, 6.72729194164276123047e-01) (5, 3.24077606201171875000e-01) (6, 7.67910003662109375000e-01) (7, 2.20317530632019042969e+00) (8, 1.22237548232078552246e-01) (9, 4.34541511535644531250e+00) (10, 8.86304914951324462891e-01) (11, -1.66261744499206542969e+00) (12, -1.41319138929247856140e-02) (13, 1.74582266807556152344e+00) (14, -2.90321016311645507812e+00) (15, 5.61047315597534179688e-01) (16, 3.79216462373733520508e-01) (17, 8.00566291809082031250e+00) (18, 3.91334712505340576172e-01) (19, 3.77001434564590454102e-01) (20, 2.58692771196365356445e-01) (21, 2.91643834114074707031e+00) (22, 7.38480448722839355469e-01) (23, 8.38892161846160888672e-01) (24, -5.60610008239746093750e+00) (25, 7.69887641072273254395e-02) (26, 2.81651794910430908203e-01) (27, 7.12416291236877441406e-01) (28, 3.76060724258422851562e+00) (29, 1.56575627624988555908e-02) (30, 2.10717225074768066406e+00) (31, 4.74712705612182617188e+00) (32, -1.25377535820007324219e-01) (33, 6.60966753959655761719e-01) (34, -1.24606788158416748047e+00) (35, 4.63311582803726196289e-01) (36, 4.69435214996337890625e-01) (37, 4.18197959661483764648e-01) (38, 8.71747136116027832031e-02) (39, -1.18110597133636474609e-01) (40, 2.45347306132316589355e-01) (41, -8.33495259284973144531e-02) (42, -5.37564468383789062500e+00) (43, -9.40257489681243896484e-01) (44, 6.05286121368408203125e-01) (45, 8.04562494158744812012e-02) (46, -9.89557862281799316406e-01) (47, 6.77054500579833984375e+00) (48, 2.42203488945960998535e-01) (49, 1.64771480560302734375e+01) (50, 5.17292559146881103516e-01) (0, 1.04146776199340820312e+01) (1, 3.37288454174995422363e-02) (2, 9.93640601634979248047e-01) (3, 6.03892862796783447266e-01) (4, 1.47780907154083251953e+00) (5, -7.21686542034149169922e-01) (6, 2.75288581848144531250e+01) (7, 5.52858543395996093750e+00) (8, 5.15523366630077362061e-02) (9, 1.04716157913208007812e+01) (10, 4.38937395811080932617e-01) (11, -2.77707982063293457031e+00) (12, 4.69136810302734375000e+00) (13, 3.35312068462371826172e-01) (14, 2.24230930209159851074e-01) (15, 8.02789509296417236328e-01) (16, 4.55041080713272094727e-02) (17, 4.98026371002197265625e+00) (18, 2.85324722528457641602e-01) (19, 3.04702192544937133789e-01) (20, 1.77407130599021911621e-01) (21, 8.75612854957580566406e-01) (22, 7.82874524593353271484e-01) (23, 1.35763525962829589844e+00) (24, -8.94947707653045654297e-01) (25, -9.01206955313682556152e-02) (26, -1.91512033343315124512e-01) (27, -1.13829001784324645996e-01) (28, -1.14412088394165039062e+01) (29, 8.86115193367004394531e-01) (30, 1.79391241073608398438e+00) (31, -1.11274349689483642578e+00) (32, 1.22082635760307312012e-01) (33, 3.80280077457427978516e-01) (34, -3.33112812042236328125e+00) (35, 7.99203336238861083984e-01) (36, 1.29417926073074340820e-01) (37, 8.15142250061035156250e+00) (38, 1.87540322542190551758e-01) (39, 1.62156730890274047852e-01) (40, -1.79353937506675720215e-01) (41, 1.08821123838424682617e-01) (42, -1.18647968769073486328e+00) (43, 7.49912500381469726562e+00) (44, 7.42316246032714843750e-01) (45, -3.09667736291885375977e-01) (46, 3.63625735044479370117e-01) (47, -8.91798555850982666016e-01) (48, -5.46166467666625976562e+00) (49, 6.62001419067382812500e+00) (50, 5.01172602176666259766e-01) (0, 3.44903081655502319336e-01) (1, -3.52827811241149902344e+00) (2, 1.61590156555175781250e+01) (3, 8.90470892190933227539e-02) (4, 1.34319758415222167969e+00) (5, -9.77444458007812500000e+00) (6, -3.34363031387329101562e+00) (7, -3.21890878677368164062e+00) (8, -3.60916495323181152344e+00) (9, -4.45833587646484375000e+00) (10, -2.14758753776550292969e-01) (11, -1.96699333190917968750e+00) (12, -2.93874382972717285156e+00) (13, 2.85906839370727539062e+00) (14, -2.35348320007324218750e+00) (15, 3.41273307800292968750e-01) (16, -2.21845769882202148438e+00) (17, -2.62958765029907226562e+00) (18, -2.38075375556945800781e+00) (19, -1.00885593891143798828e+00) (20, -6.36549901962280273438e+00) (21, 2.18302935361862182617e-01) (22, 1.33454847335815429688e+00) (23, -1.01604789495468139648e-01) (24, -1.93561203777790069580e-02) (25, -1.03824987411499023438e+01) (26, 2.08738112449645996094e+00) (27, 6.12980842590332031250e+00) (28, 5.46140813827514648438e+00) (29, 3.87864327430725097656e+00) (30, -1.03877484798431396484e+00) (31, 3.11466526985168457031e+00) (32, -1.65913772583007812500e+00) (33, 1.07942414283752441406e+00) (34, 8.29932785034179687500e+00) (35, -2.57370114326477050781e+00) (36, 4.34055149555206298828e-01) (37, 6.12874150276184082031e-01) (38, 3.17600774765014648438e+00) (39, 8.23985412716865539551e-02) (40, 1.15604076385498046875e+01) (41, 5.58871030807495117188e-01) (42, -2.85439515113830566406e+00) (43, 3.76599937677383422852e-01) (44, 5.19151449203491210938e+00) (45, 3.65125536918640136719e-01) (46, 2.24503803253173828125e+00) (47, 3.56060981750488281250e-01) (48, -6.83828115463256835938e+00) (49, -1.32332353591918945312e+01) (50, -2.56778430938720703125e+00) (0, 2.83199834823608398438e+00) (1, -7.89914667606353759766e-01) (2, -1.27837494015693664551e-01) (3, -3.09408754110336303711e-01) (4, 6.76133275032043457031e-01) (5, -3.93069833517074584961e-01) (6, 5.24136304855346679688e-01) (7, -7.07539962604641914368e-03) (8, -2.00540706515312194824e-01) (9, 2.39786839485168457031e+00) (10, 5.19634425640106201172e-01) (11, -2.02419066429138183594e+00) (12, -6.59289693832397460938e+00) (13, 6.30767494440078735352e-02) (14, -3.88580965995788574219e+00) (15, 4.44658458232879638672e-01) (16, 3.17123174667358398438e-01) (17, 6.42053699493408203125e+00) (18, 3.63601088523864746094e-01) (19, -1.33887875080108642578e+00) (20, -2.95317006111145019531e+00) (21, -1.30679154396057128906e+00) (22, 1.95594176650047302246e-01) (23, -8.01391839981079101562e-01) (24, -1.49009132385253906250e+00) (25, -1.40732908248901367188e+00) (26, 6.53436407446861267090e-02) (27, 4.65402305126190185547e-01) (28, -4.34531681239604949951e-02) (29, 7.59222567081451416016e-01) (30, 9.75938700139522552490e-03) (31, 7.31821680068969726562e+00) (32, -6.82437270879745483398e-02) (33, 4.82031434774398803711e-01) (34, -7.23210155963897705078e-01) (35, -1.46785414218902587891e+00) (36, 4.11475330591201782227e-01) (37, 5.27093231678009033203e-01) (38, 2.12097787857055664062e+00) (39, 2.07686811685562133789e-01) (40, 1.16340744495391845703e+00) (41, 6.34139537811279296875e-01) (42, 2.54870802164077758789e-01) (43, -1.06779607012867927551e-02) (44, 5.74392199516296386719e-01) (45, 7.01020896434783935547e-01) (46, 2.52407383918762207031e+00) (47, 1.59230518341064453125e+00) (48, -1.66714012622833251953e+00) (49, 2.06391072273254394531e+00) (50, 5.34527182579040527344e-01) (0, -5.31775379180908203125e+00) (1, 1.14007878303527832031e+00) (2, 8.14019203186035156250e-01) (3, 1.95304796099662780762e-01) (4, 4.34960412979125976562e+00) (5, -7.59658479690551757812e+00) (6, 4.38264638185501098633e-01) (7, -2.90010762214660644531e+00) (8, 1.64080247282981872559e-01) (9, 1.14064729213714599609e+00) (10, 1.89013528823852539062e+00) (11, 2.75368285179138183594e+00) (12, 4.69859933853149414062e+00) (13, -5.45979022979736328125e-01) (14, -1.98052370548248291016e+00) (15, 3.16357821226119995117e-01) (16, 5.33030450344085693359e-01) (17, -1.43316686153411865234e-01) (18, -2.32843995094299316406e+00) (19, -5.42915344238281250000e+00) (20, 2.25777387619018554688e+00) (21, 1.26991200447082519531e+00) (22, 1.70097959041595458984e+00) (23, 4.74950999021530151367e-01) (24, -3.65095853805541992188e-01) (25, 1.01125752925872802734e+00) (26, -2.42076307535171508789e-01) (27, 4.93367999792098999023e-01) (28, 4.34714651107788085938e+00) (29, 4.46053922176361083984e-01) (30, 1.16732025146484375000e+00) (31, 2.51460981369018554688e+00) (32, 1.44320782274007797241e-02) (33, 1.65388122200965881348e-01) (34, -1.79410123825073242188e+00) (35, 2.73987948894500732422e-01) (36, 2.89366275072097778320e-01) (37, 1.22517488896846771240e-01) (38, 4.36593413352966308594e-01) (39, -1.90981197357177734375e+00) (40, -4.56454344093799591064e-02) (41, 4.51421231031417846680e-01) (42, -1.15971446037292480469e+00) (43, -8.92777442932128906250e-02) (44, 6.38249337673187255859e-01) (45, 7.21936047077178955078e-01) (46, -5.76499986648559570312e+00) (47, 1.51722216606140136719e+00) (48, 5.85013675689697265625e+00) (49, -1.27178680896759033203e+00) (50, 3.17405879497528076172e-01) (0, 7.09490871429443359375e+00) (1, 3.10553330928087234497e-02) (2, 6.23397171497344970703e-01) (3, 4.80730533599853515625e-01) (4, 6.05191802978515625000e+00) (5, 1.53604829311370849609e+00) (6, 1.21926069259643554688e+00) (7, 2.11953043937683105469e+00) (8, 1.00801251828670501709e-02) (9, 1.83398854732513427734e+00) (10, 3.98727655410766601562e-01) (11, -3.07288599014282226562e+00) (12, -1.68771892786026000977e-01) (13, 6.50856161117553710938e+00) (14, 3.72646450996398925781e+00) (15, 5.50795912742614746094e-01) (16, 3.16347450017929077148e-01) (17, 8.75170707702636718750e+00) (18, 3.77096593379974365234e-01) (19, -9.77923929691314697266e-01) (20, -2.58668231964111328125e+00) (21, 5.30998945236206054688e-01) (22, 8.52083563804626464844e-01) (23, 8.57018530368804931641e-01) (24, 1.02622451782226562500e+01) (25, -2.75520563125610351562e-01) (26, 7.75060057640075683594e-01) (27, 5.11035025119781494141e-01) (28, 3.76926112174987792969e+00) (29, 2.17732484452426433563e-03) (30, -3.15786767005920410156e+00) (31, -3.02552947998046875000e+01) (32, -3.21569025516510009766e-01) (33, 4.65482234954833984375e-01) (34, 7.67151594161987304688e-01) (35, 3.49556207656860351562e-01) (36, 5.37580430507659912109e-01) (37, -2.39641475677490234375e+00) (38, 4.11998569965362548828e-01) (39, -4.41367439925670623779e-02) (40, 1.78386330604553222656e-01) (41, -2.36677769571542739868e-02) (42, -1.42138552665710449219e+00) (43, 1.81161332130432128906e+00) (44, 5.12924015522003173828e-01) (45, 7.16996267437934875488e-02) (46, 4.19801920652389526367e-01) (47, 4.73965764045715332031e-01) (48, -4.85624074935913085938e-01) (49, 5.01901984214782714844e-01) (50, 4.25711095333099365234e-01) (0, 4.59178149700164794922e-01) (1, 5.35400509834289550781e-01) (2, -9.00744497776031494141e-02) (3, -1.62957742810249328613e-01) (4, -9.82401743531227111816e-02) (5, 8.15980255603790283203e-01) (6, 8.88595357537269592285e-02) (7, 4.46993142366409301758e-01) (8, 5.51117956638336181641e-01) (9, 4.98763948678970336914e-01) (10, -2.96212397515773773193e-02) (11, 4.64571313932538032532e-03) (12, 4.09495025873184204102e-01) (13, 1.62377223372459411621e-01) (14, 5.19240975379943847656e-01) (15, -2.42596976459026336670e-02) (16, -2.20381151884794235229e-02) (17, -3.91036838293075561523e-01) (18, -2.58384216576814651489e-02) (19, 7.38233933225274085999e-03) (20, 3.86050045490264892578e-01) (21, -5.15844583511352539062e-01) (22, -1.35135322809219360352e-01) (23, -1.83071970939636230469e-01) (24, 5.85940591990947723389e-02) (25, 5.55194556713104248047e-01) (26, 3.65154832601547241211e-01) (27, -8.41472949832677841187e-03) (28, -5.24905323982238769531e-02) (29, 8.33611547946929931641e-01) (30, 1.41933098435401916504e-01) (31, 4.45265799760818481445e-01) (32, 7.08221495151519775391e-01) (33, 1.28247156739234924316e-01) (34, 7.50891327857971191406e-01) (35, 5.17463684082031250000e-02) (36, -8.40311124920845031738e-02) (37, 6.22661411762237548828e-01) (38, -7.26305246353149414062e-02) (39, 4.45621877908706665039e-01) (40, 2.01890155673027038574e-01) (41, 2.10693478584289550781e-02) (42, 4.63139176368713378906e-01) (43, -1.21351972222328186035e-01) (44, -1.62054859101772308350e-02) (45, 8.91052260994911193848e-02) (46, 3.23895752429962158203e-01) (47, -1.72093063592910766602e-01) (48, 4.31494742631912231445e-01) (49, 3.50819289684295654297e-01) (50, -1.54233336448669433594e-01) (0, 1.83201503753662109375e+00) (1, 4.38998985290527343750e+00) (2, 1.86686143279075622559e-01) (3, 6.79514646530151367188e-01) (4, 7.02737140655517578125e+00) (5, 1.17696690559387207031e+00) (6, 6.16106700897216796875e+00) (7, -3.50348234176635742188e+00) (8, 1.64915287494659423828e+00) (9, -2.80768088996410369873e-02) (10, 4.63436901569366455078e-01) (11, -3.11091810464859008789e-01) (12, -1.64048540592193603516e+00) (13, 2.41019070148468017578e-01) (14, 6.63859903812408447266e-01) (15, -1.79575455188751220703e+00) (16, 5.34086883068084716797e-01) (17, -1.75881516933441162109e+00) (18, -3.14478993415832519531e-01) (19, -5.10750949382781982422e-01) (20, 8.15196558833122253418e-02) (21, 3.05294537544250488281e+00) (22, 3.60928535461425781250e-01) (23, -1.06926947832107543945e-01) (24, -4.13607597351074218750e+00) (25, -8.15605521202087402344e-01) (26, -1.05570368468761444092e-01) (27, -1.38613188266754150391e+00) (28, 4.98233747482299804688e+00) (29, 4.59247112274169921875e-01) (30, -8.09856176376342773438e-01) (31, -2.35043573379516601562e+00) (32, -1.51974785327911376953e+00) (33, -3.07981669902801513672e-01) (34, 2.03475639224052429199e-01) (35, 2.76553249359130859375e+00) (36, 3.43332737684249877930e-01) (37, 2.33507680892944335938e+00) (38, 4.10143911838531494141e-01) (39, -2.89435744285583496094e+00) (40, 2.11271882057189941406e+00) (41, -1.08466851711273193359e+00) (42, -1.53925931453704833984e+00) (43, 1.87178170680999755859e+00) (44, 5.74043035507202148438e-01) (45, 1.90726923942565917969e+00) (46, 1.72671759128570556641e+00) (47, 3.27293324470520019531e+00) (48, 2.07839751243591308594e+00) (49, -9.46381092071533203125e-01) (50, 4.22980427742004394531e-01) (0, 3.50717663764953613281e+00) (1, 2.99649382941424846649e-03) (2, 3.12100768089294433594e-01) (3, -3.15794438123703002930e-01) (4, -3.16497898101806640625e+00) (5, -3.09534341096878051758e-01) (6, -2.11284160614013671875e-02) (7, 1.23432397842407226562e+00) (8, -1.00312113761901855469e+00) (9, -6.15420866012573242188e+00) (10, 1.38576519489288330078e+00) (11, -2.42620205879211425781e+00) (12, 2.03992366790771484375e+00) (13, -5.09468889236450195312e+00) (14, -8.45250785350799560547e-02) (15, 4.14339840412139892578e-01) (16, 4.56395959854125976562e+00) (17, 7.52750277519226074219e-01) (18, 2.09669375419616699219e+00) (19, 2.24102425575256347656e+00) (20, 7.60031342506408691406e-01) (21, 4.16229993104934692383e-01) (22, -1.61107137799263000488e-01) (23, -3.19099426269531250000e-01) (24, 1.37454479932785034180e-01) (25, 4.72278642654418945312e+00) (26, 2.65585160255432128906e+00) (27, -5.95669925212860107422e-01) (28, 6.79771542549133300781e-01) (29, -2.79825353622436523438e+00) (30, -4.00147646665573120117e-01) (31, 3.19153189659118652344e-01) (32, 5.11706876754760742188e+00) (33, 1.86450660228729248047e+00) (34, -3.94669055938720703125e-01) (35, 1.18752252310514450073e-02) (36, -8.84917974472045898438e-01) (37, -4.24747514724731445312e+00) (38, 5.09258091449737548828e-01) (39, 5.09663772583007812500e+00) (40, -5.97714185714721679688e-01) (41, 5.08661389350891113281e-01) (42, -1.50210165977478027344e+00) (43, 1.06641066074371337891e+00) (44, -1.04704070091247558594e+00) (45, -1.31634593009948730469e+00) (46, -3.13463282585144042969e+00) (47, 5.05460679531097412109e-01) (48, 1.58194029331207275391e+00) (49, 2.81169366836547851562e+00) (50, 3.40534210205078125000e-01) (0, 3.81647914648056030273e-01) (1, 3.72367620468139648438e-01) (2, -2.87713468074798583984e-01) (3, -3.28509181737899780273e-01) (4, -2.65743937343358993530e-02) (5, 5.09625494480133056641e-01) (6, 2.26358085870742797852e-01) (7, 4.80611741542816162109e-01) (8, 4.87899094820022583008e-01) (9, 5.62877118587493896484e-01) (10, 5.97700439393520355225e-02) (11, -4.69866991043090820312e-01) (12, 8.76426398754119873047e-01) (13, 4.26967114210128784180e-01) (14, 5.55107235908508300781e-01) (15, -4.46637272834777832031e-02) (16, 8.54990780353546142578e-02) (17, 4.70054209232330322266e-01) (18, 1.99825614690780639648e-02) (19, -1.14441297948360443115e-01) (20, 3.14741373062133789062e-01) (21, -2.45882168412208557129e-01) (22, -6.52364045381546020508e-02) (23, -4.03552979230880737305e-01) (24, 2.05444887280464172363e-01) (25, 4.32978332042694091797e-01) (26, 4.63032305240631103516e-01) (27, 1.72552093863487243652e-01) (28, 1.61212921142578125000e-01) (29, 4.85716491937637329102e-01) (30, 1.61349326372146606445e-01) (31, -1.17357611656188964844e+00) (32, 7.55841970443725585938e-01) (33, 2.70139425992965698242e-01) (34, 4.10826593637466430664e-01) (35, -5.08276894688606262207e-02) (36, -1.21489420533180236816e-01) (37, 8.72939586639404296875e-01) (38, 6.47515580058097839355e-02) (39, 6.08640849590301513672e-01) (40, 1.52556508779525756836e-01) (41, 1.11673213541507720947e-02) (42, 4.64942723512649536133e-01) (43, -1.69511791318655014038e-02) (44, -6.68162629008293151855e-02) (45, 1.64985001087188720703e-01) (46, 4.16641741991043090820e-01) (47, 7.86790549755096435547e-02) (48, -8.09516292065382003784e-03) (49, 5.91516971588134765625e-01) (50, -8.63653048872947692871e-02) (0, -1.15643763542175292969e+00) (1, 1.12643127441406250000e+01) (2, 3.86368155479431152344e-01) (3, 2.94960141181945800781e+00) (4, -1.97769951820373535156e+00) (5, -4.18733477592468261719e-01) (6, -2.76306557655334472656e+00) (7, -1.71489447355270385742e-01) (8, 5.38529777526855468750e+00) (9, 1.02301383018493652344e+00) (10, -2.57764965295791625977e-01) (11, -4.23713970184326171875e+00) (12, 1.11664762496948242188e+01) (13, 1.27284326553344726562e+01) (14, 4.99931669235229492188e+00) (15, -4.55649793148040771484e-02) (16, -5.88431596755981445312e-01) (17, -3.46087932586669921875e+00) (18, -3.28246027231216430664e-01) (19, -5.87176568806171417236e-02) (20, 6.51724529266357421875e+00) (21, -2.90238308906555175781e+00) (22, 1.99538230895996093750e-01) (23, 1.92021942138671875000e+00) (24, -6.32578909397125244141e-01) (25, -1.20764541625976562500e+00) (26, 3.78796726465225219727e-01) (27, -9.52289581298828125000e-01) (28, -9.11629009246826171875e+00) (29, 4.38938766717910766602e-01) (30, 1.92604672908782958984e+00) (31, 5.93898868560791015625e+00) (32, -5.31528806686401367188e+00) (33, 7.27320432662963867188e+00) (34, 2.12535023689270019531e+00) (35, 5.29007291793823242188e+00) (36, 7.84103572368621826172e-01) (37, -2.03403457999229431152e-02) (38, -5.30905902385711669922e-01) (39, -4.96662139892578125000e+00) (40, 2.42345499992370605469e+00) (41, 1.61950409412384033203e-01) (42, 1.59082841873168945312e+00) (43, 1.44560229778289794922e+00) (44, 3.69932222366333007812e+00) (45, -2.81229391694068908691e-02) (46, 1.78165125846862792969e+00) (47, -3.59179282188415527344e+00) (48, -4.38264560699462890625e+00) (49, 1.07794249057769775391e+00) (50, 7.36150071024894714355e-02) (0, 3.79726022481918334961e-01) (1, 5.51868796348571777344e-01) (2, -1.40080600976943969727e-01) (3, -2.10262596607208251953e-01) (4, 2.36717416555620729923e-04) (5, 9.54380512237548828125e-01) (6, 2.49313265085220336914e-01) (7, 4.89684253931045532227e-01) (8, 4.38374668359756469727e-01) (9, 4.34344619512557983398e-01) (10, -2.76971887797117233276e-03) (11, 7.38077387213706970215e-02) (12, 1.03925633430480957031e+00) (13, 2.19479322433471679688e-01) (14, 5.03037273883819580078e-01) (15, -2.02203504741191864014e-02) (16, 6.42615184187889099121e-02) (17, -5.14676690101623535156e-01) (18, -1.09816333279013633728e-02) (19, -8.45869258046150207520e-02) (20, 2.13861629366874694824e-01) (21, -1.95087209343910217285e-01) (22, -1.35065704584121704102e-01) (23, -8.86555761098861694336e-02) (24, 3.08737158775329589844e-01) (25, 5.27249753475189208984e-01) (26, 5.36044239997863769531e-01) (27, 3.85180599987506866455e-02) (28, -2.18991935253143310547e-01) (29, 7.44181275367736816406e-01) (30, 1.94533377885818481445e-01) (31, -1.54915541410446166992e-01) (32, 6.70729815959930419922e-01) (33, 6.81161656975746154785e-02) (34, -1.55437868088483810425e-02) (35, 7.47793242335319519043e-02) (36, -9.70510393381118774414e-02) (37, 5.69088935852050781250e-01) (38, 3.66634987294673919678e-02) (39, 5.82563936710357666016e-01) (40, 3.30763816833496093750e-01) (41, 1.34056761860847473145e-01) (42, 3.82860302925109863281e-01) (43, -1.16802759468555450439e-01) (44, 5.56686483323574066162e-02) (45, -6.42257034778594970703e-02) (46, 6.14045143127441406250e-01) (47, 1.83627307415008544922e-02) (48, 2.05906718969345092773e-01) (49, 7.15771794319152832031e-01) (50, -1.39473244547843933105e-01) (0, 4.53504943847656250000e+00) (1, 4.10401731729507446289e-01) (2, 3.99250656366348266602e-01) (3, 1.00962197780609130859e+00) (4, 1.73712229728698730469e+00) (5, 2.14876793324947357178e-02) (6, 2.42139101028442382812e-01) (7, 1.89259931445121765137e-01) (8, 2.96892881393432617188e-01) (9, 1.30056047439575195312e+00) (10, 2.07811832427978515625e-01) (11, 7.74326503276824951172e-01) (12, -3.30686521530151367188e+00) (13, 5.09386956691741943359e-01) (14, 5.09953022003173828125e-01) (15, 2.32937321066856384277e-01) (16, 2.06252947449684143066e-01) (17, 7.37428307533264160156e-01) (18, 8.48713442683219909668e-02) (19, 3.04516673088073730469e-01) (20, 5.14921188354492187500e-01) (21, 3.52223813533782958984e-01) (22, 4.03581678867340087891e-01) (23, 8.67027223110198974609e-01) (24, 1.77171802520751953125e+00) (25, 6.82761222124099731445e-02) (26, 4.05619561672210693359e-01) (27, 2.58129298686981201172e-01) (28, 1.19596230983734130859e+00) (29, -4.72974836826324462891e-01) (30, 1.09561562538146972656e-01) (31, 2.18965268135070800781e+00) (32, 3.03908556699752807617e-01) (33, 1.54104799032211303711e-01) (34, 5.89165270328521728516e-01) (35, 2.33423396944999694824e-01) (36, 3.12809258699417114258e-01) (37, 4.46675181388854980469e-01) (38, 2.26060226559638977051e-01) (39, 1.24753423035144805908e-01) (40, 1.61287021636962890625e+00) (41, 5.76491355895996093750e-02) (42, 8.10088589787483215332e-02) (43, 2.93415129184722900391e-01) (44, 3.71995925903320312500e-01) (45, 8.77509042620658874512e-02) (46, 3.83909583091735839844e-01) (47, 2.18838393688201904297e-01) (48, 3.51570211350917816162e-02) (49, 2.80489504337310791016e-01) (50, 2.22578942775726318359e-01) (0, 4.62374687194824218750e-01) (1, 3.89010787010192871094e-01) (2, 2.61109828948974609375e-01) (3, 1.25181210041046142578e+00) (4, -9.26821529865264892578e-02) (5, 4.21805810928344726562e+00) (6, -7.06814408302307128906e-01) (7, 4.69800323247909545898e-01) (8, 3.53177219629287719727e-01) (9, 6.03445339202880859375e+00) (10, -8.66754725575447082520e-03) (11, 1.30058273673057556152e-01) (12, 2.13127732276916503906e+00) (13, 2.62119621038436889648e-02) (14, -1.32927095890045166016e+00) (15, -2.34764084219932556152e-01) (16, 2.82840132713317871094e-01) (17, -2.42346048355102539062e+00) (18, 1.31837919354438781738e-01) (19, -8.92817601561546325684e-02) (20, -2.82835125923156738281e-01) (21, -7.42326444014906883240e-03) (22, -7.30739608407020568848e-02) (23, -1.43604399636387825012e-02) (24, 5.23161602020263671875e+00) (25, 1.56919884681701660156e+00) (26, -1.69001460075378417969e+00) (27, 2.16859877109527587891e-01) (28, -1.32915604114532470703e+00) (29, 8.26612174510955810547e-01) (30, -5.33164739608764648438e-01) (31, 1.70201456546783447266e+00) (32, 4.65492218732833862305e-01) (33, 1.01903498172760009766e+00) (34, -1.25936925411224365234e+00) (35, 2.29260253906250000000e+00) (36, -4.76517304778099060059e-02) (37, 6.37089157104492187500e+00) (38, -4.96531546115875244141e-01) (39, 6.72121286392211914062e-01) (40, -2.33357802033424377441e-01) (41, -2.57245097309350967407e-02) (42, 2.67470979690551757812e+00) (43, -1.45930612087249755859e+00) (44, -3.89121389389038085938e+00) (45, 8.24810266494750976562e-02) (46, -4.59402985870838165283e-02) (47, -5.70996880531311035156e-01) (48, -1.77032577991485595703e+00) (49, 2.41184949874877929688e+00) (50, -7.96820893883705139160e-02) (0, 4.50797289609909057617e-01) (1, 3.42693418264389038086e-01) (2, 4.98657017946243286133e-01) (3, 8.16176652908325195312e-01) (4, 1.52006685733795166016e+00) (5, 3.12741637229919433594e-01) (6, 2.17311888933181762695e-01) (7, 2.32038825750350952148e-01) (8, 3.39075177907943725586e-01) (9, 3.03008928894996643066e-02) (10, 1.72392323613166809082e-01) (11, 6.85242474079132080078e-01) (12, 8.20582266896963119507e-03) (13, 3.56695413589477539062e-01) (14, 5.43489098548889160156e-01) (15, 1.63590669631958007812e-01) (16, 3.11804980039596557617e-01) (17, 2.69728809595108032227e-01) (18, 1.99421659111976623535e-01) (19, 3.57924491167068481445e-01) (20, 4.42774355411529541016e-01) (21, 4.51378911733627319336e-01) (22, 4.36729162931442260742e-01) (23, 8.59987318515777587891e-01) (24, 5.75577139854431152344e-01) (25, 6.77730515599250793457e-03) (26, 2.68187999725341796875e-01) (27, 2.55490064620971679688e-01) (28, -6.88358008861541748047e-01) (29, -3.44249248504638671875e-01) (30, 5.76726114377379417419e-03) (31, 3.62786382436752319336e-01) (32, 1.66372463107109069824e-01) (33, 8.11029132455587387085e-03) (34, 4.84098732471466064453e-01) (35, 3.07571202516555786133e-01) (36, 3.29010218381881713867e-01) (37, 1.61467283964157104492e-01) (38, 1.74322247505187988281e-01) (39, 1.65394410490989685059e-01) (40, 5.61691224575042724609e-01) (41, 1.05853937566280364990e-01) (42, 2.84180253744125366211e-01) (43, 4.77705806493759155273e-01) (44, 2.65351176261901855469e-01) (45, 7.81145915389060974121e-02) (46, 2.09131807088851928711e-01) (47, 3.60112726688385009766e-01) (48, -1.08929835259914398193e-01) (49, 4.81009453535079956055e-01) (50, 3.59379589557647705078e-01) (0, 3.63630354404449462891e-01) (1, 3.72751682996749877930e-01) (2, -1.43436938524246215820e-01) (3, -3.42735536396503448486e-02) (4, -2.45807524770498275757e-02) (5, 1.09118497371673583984e+00) (6, 2.70229488611221313477e-01) (7, 4.14018899202346801758e-01) (8, 4.78890568017959594727e-01) (9, 1.29834961891174316406e+00) (10, -4.57267500460147857666e-02) (11, -5.39408111944794654846e-03) (12, 1.09475898742675781250e+00) (13, 2.99537867307662963867e-01) (14, 7.01497614383697509766e-01) (15, -1.01599149405956268311e-01) (16, -3.36153246462345123291e-02) (17, 1.31363570690155029297e-01) (18, 3.24363796971738338470e-03) (19, -2.24091982090612873435e-05) (20, 1.76577299833297729492e-01) (21, -1.39720275998115539551e-01) (22, -6.50616660714149475098e-02) (23, 6.58506229519844055176e-02) (24, 2.98793941736221313477e-01) (25, 5.18731355667114257812e-01) (26, 5.15744268894195556641e-01) (27, 1.27179205417633056641e-01) (28, -1.33862257003784179688e+00) (29, 8.81277561187744140625e-01) (30, 2.95593023300170898438e-01) (31, -5.39855003356933593750e-01) (32, 6.37691378593444824219e-01) (33, 1.52297794818878173828e-01) (34, -7.94685259461402893066e-02) (35, 1.05209229514002799988e-02) (36, -1.66130170226097106934e-01) (37, 4.72044050693511962891e-01) (38, 6.56811445951461791992e-02) (39, 5.41716694831848144531e-01) (40, 2.82085925340652465820e-01) (41, 1.60275354981422424316e-01) (42, 2.01486751437187194824e-01) (43, -1.90922498703002929688e-01) (44, -7.91054591536521911621e-02) (45, -8.84382519870996475220e-03) (46, 3.56371968984603881836e-01) (47, 1.63153186440467834473e-02) (48, 3.86558562517166137695e-01) (49, 1.01300156116485595703e+00) (50, -9.28633883595466613770e-02) (0, -1.82454395294189453125e+00) (1, 3.34893733263015747070e-01) (2, 1.04567518234252929688e+01) (3, 2.01346278190612792969e+00) (4, 2.18884408473968505859e-01) (5, -1.11695563793182373047e+00) (6, -1.31818532943725585938e+00) (7, 4.90947157144546508789e-01) (8, 5.01333773136138916016e-01) (9, -3.18246793746948242188e+00) (10, -4.48116399347782135010e-02) (11, 1.52044954299926757812e+01) (12, -6.29163217544555664062e+00) (13, 6.03392457962036132812e+00) (14, 6.74175500869750976562e-01) (15, 1.04815669357776641846e-01) (16, -4.93736118078231811523e-02) (17, 1.69056739807128906250e+01) (18, -4.58074510097503662109e-02) (19, -2.68691003322601318359e-01) (20, -9.31322669982910156250e+00) (21, -2.17042708396911621094e+00) (22, -3.95429693162441253662e-02) (23, 2.17022585868835449219e+00) (24, 1.90605676174163818359e+00) (25, 1.03555701673030853271e-01) (26, 1.73131453990936279297e+00) (27, 1.60746705532073974609e+00) (28, 3.12103223800659179688e+00) (29, 1.39891934394836425781e+00) (30, 8.17225337028503417969e-01) (31, 4.78194475173950195312e+00) (32, 2.10281074047088623047e-01) (33, 7.81379938125610351562e-01) (34, 6.87946796417236328125e-01) (35, -4.87662792205810546875e+00) (36, -2.68488116562366485596e-02) (37, 2.42010378837585449219e+00) (38, -1.11908471584320068359e+00) (39, 4.63117748498916625977e-01) (40, 7.87043392658233642578e-01) (41, -2.55311541259288787842e-02) (42, -3.82733988761901855469e+00) (43, 9.01043224334716796875e+00) (44, -4.56463515758514404297e-01) (45, 8.01783502101898193359e-02) (46, -6.93627119064331054688e+00) (47, -1.38926804065704345703e+00) (48, -1.02567934989929199219e+00) (49, 7.31504344940185546875e+00) (50, 1.13843970000743865967e-01) (0, 3.70413517951965332031e+00) (1, 9.79725182056427001953e-01) (2, -1.94180369377136230469e-01) (3, -2.88887524604797363281e+00) (4, 5.90825267136096954346e-02) (5, 1.73937201499938964844e-01) (6, 3.62659931182861328125e-01) (7, 1.94498077034950256348e-01) (8, 9.84571397304534912109e-01) (9, -1.63112020492553710938e+00) (10, 4.66203838586807250977e-01) (11, -2.35898089408874511719e+00) (12, 2.03284367918968200684e-01) (13, 2.85087585449218750000e-01) (14, -7.02994728088378906250e+00) (15, 1.98618128895759582520e-01) (16, 5.97044706344604492188e-01) (17, 1.95555901527404785156e+00) (18, 6.12485468387603759766e-01) (19, 3.18788379430770874023e-01) (20, 4.07684564590454101562e-01) (21, -3.80170559883117675781e+00) (22, -3.90047788619995117188e-01) (23, -7.51298069953918457031e-02) (24, -1.01541147232055664062e+01) (25, 4.83101010322570800781e-01) (26, 1.84018686413764953613e-01) (27, 3.73701274394989013672e-01) (28, 2.88869476318359375000e+00) (29, 5.05318224430084228516e-01) (30, -1.31262016296386718750e+00) (31, -4.19020950794219970703e-01) (32, 7.21803009510040283203e-02) (33, 3.99087101221084594727e-01) (34, -2.44073405861854553223e-01) (35, 3.36114287376403808594e-01) (36, 4.14085626602172851562e-01) (37, 9.15632069110870361328e-01) (38, 1.04600059986114501953e+00) (39, 5.47402799129486083984e-01) (40, 1.86059212684631347656e+00) (41, 6.35445356369018554688e-01) (42, -6.36373937129974365234e-01) (43, 5.08104467391967773438e+00) (44, 2.63840556144714355469e-01) (45, 2.89561241865158081055e-01) (46, -1.45135688781738281250e+00) (47, 5.04468441009521484375e-01) (48, -6.71659529209136962891e-01) (49, -7.80278861522674560547e-01) (50, 4.98459249734878540039e-01) (0, 3.78339260816574096680e-01) (1, 3.03366303443908691406e-01) (2, 4.27415609359741210938e-01) (3, 8.92288267612457275391e-01) (4, 1.75213980674743652344e+00) (5, 2.16142594814300537109e-01) (6, 1.91953837871551513672e-01) (7, 1.97918161749839782715e-01) (8, 2.73675501346588134766e-01) (9, 1.71826854348182678223e-01) (10, 3.11184972524642944336e-01) (11, 7.80666708946228027344e-01) (12, 9.96207594871520996094e-02) (13, 3.31835895776748657227e-01) (14, 5.98034977912902832031e-01) (15, 1.72690600156784057617e-01) (16, 2.82290846109390258789e-01) (17, 5.98311662673950195312e-01) (18, 2.29406863451004028320e-01) (19, 3.43936145305633544922e-01) (20, 4.16134208440780639648e-01) (21, 4.53982383012771606445e-01) (22, 5.71507632732391357422e-01) (23, 6.97058796882629394531e-01) (24, 5.36992549896240234375e-01) (25, -6.13151714205741882324e-02) (26, 3.81488829851150512695e-01) (27, 2.66905188560485839844e-01) (28, -2.22845578193664550781e+00) (29, -3.23604702949523925781e-01) (30, 6.23311847448348999023e-02) (31, -7.02731609344482421875e-01) (32, 1.42808943986892700195e-01) (33, 6.27307826653122901917e-03) (34, 3.88196885585784912109e-01) (35, 2.16470867395401000977e-01) (36, 2.21300333738327026367e-01) (37, 2.15627923607826232910e-01) (38, 2.73506879806518554688e-01) (39, 1.98962807655334472656e-01) (40, 5.06784141063690185547e-01) (41, 1.79098963737487792969e-01) (42, 2.55736142396926879883e-01) (43, 5.17311871051788330078e-01) (44, 2.58206516504287719727e-01) (45, 1.97113692760467529297e-01) (46, 4.58435490727424621582e-02) (47, 4.94021266698837280273e-01) (48, -2.62492179870605468750e-01) (49, 5.51817417144775390625e-01) (50, 3.02377492189407348633e-01) (0, -6.20768547058105468750e+00) (1, 1.67331427335739135742e-01) (2, 1.32902002334594726562e+00) (3, -4.60932064056396484375e+00) (4, -1.25343580245971679688e+01) (5, 1.50687551498413085938e+00) (6, -2.61442393064498901367e-01) (7, 1.77465581893920898438e+00) (8, -2.58410024642944335938e+00) (9, -4.85381221771240234375e+00) (10, 4.37274634838104248047e-01) (11, -9.45696067810058593750e+00) (12, -1.46033442020416259766e+00) (13, -1.92460002899169921875e+01) (14, -3.11867237091064453125e+00) (15, 8.38667452335357666016e-01) (16, -2.31960082054138183594e+00) (17, -1.76851153373718261719e+00) (18, 2.55341321229934692383e-01) (19, 4.37200158834457397461e-01) (20, 2.83407330513000488281e-01) (21, 2.43552660942077636719e+00) (22, 8.48465347290039062500e+00) (23, -3.48370504379272460938e+00) (24, -4.66667318344116210938e+00) (25, 6.25397062301635742188e+00) (26, 4.88945579528808593750e+00) (27, -7.29543343186378479004e-02) (28, -3.20661020278930664062e+00) (29, -2.27622890472412109375e+00) (30, -3.15182995796203613281e+00) (31, -1.52630672454833984375e+01) (32, -8.93751204013824462891e-01) (33, -7.92945206165313720703e-01) (34, -3.11896729469299316406e+00) (35, 4.31397020816802978516e-01) (36, 9.52800571918487548828e-01) (37, 3.98967057466506958008e-01) (38, 1.96015328168869018555e-01) (39, 4.07424116134643554688e+00) (40, 3.14010429382324218750e+00) (41, 3.38321030139923095703e-01) (42, -1.54125356674194335938e+01) (43, 8.20701980590820312500e+00) (44, 2.30285382270812988281e+00) (45, -7.60005712509155273438e-01) (46, 2.61052155494689941406e+00) (47, -5.19270777702331542969e-01) (48, -1.41947612166404724121e-01) (49, -3.42256999015808105469e+00) (50, 5.99640488624572753906e-01) (0, 1.03388381004333496094e+00) (1, 1.36055266857147216797e+00) (2, 2.94901371002197265625e+00) (3, -9.70290228724479675293e-02) (4, 7.36621692776679992676e-02) (5, 1.83149009943008422852e-01) (6, 2.22343727946281433105e-01) (7, 4.51988488435745239258e-01) (8, 1.77150356769561767578e+00) (9, -3.42265462875366210938e+00) (10, 4.46116447448730468750e-01) (11, -5.15724182128906250000e+00) (12, -1.61645722389221191406e+00) (13, 1.66169688105583190918e-01) (14, 4.71000719070434570312e+00) (15, 9.90801528096199035645e-02) (16, 5.70141196250915527344e-01) (17, -2.11460971832275390625e+00) (18, 4.25222575664520263672e-01) (19, 2.71932423114776611328e-01) (20, 2.80061900615692138672e-01) (21, 2.93245196342468261719e+00) (22, -5.78349411487579345703e-01) (23, 9.65901687741279602051e-02) (24, -2.40596866607666015625e+00) (25, 4.34954613447189331055e-01) (26, 8.13245698809623718262e-02) (27, 5.01389861106872558594e-01) (28, -2.51283788681030273438e+00) (29, 1.30635723471641540527e-01) (30, 4.08738970756530761719e-01) (31, -1.09419333934783935547e+00) (32, 8.74231278896331787109e-01) (33, -9.63547468185424804688e-01) (34, -1.32077779769897460938e+01) (35, 1.11255216598510742188e+00) (36, 3.06430310010910034180e-01) (37, 1.78923141956329345703e+00) (38, 6.27105116844177246094e-01) (39, 3.12855422496795654297e-01) (40, -2.01965856552124023438e+00) (41, -3.83522629737854003906e-01) (42, -3.25435709953308105469e+00) (43, 3.60872697830200195312e+00) (44, 3.50635081529617309570e-01) (45, 5.51643252372741699219e-01) (46, 2.57232451438903808594e+00) (47, 1.00350749492645263672e+00) (48, -3.22586154937744140625e+00) (49, -7.56948566436767578125e+00) (50, 3.23135167360305786133e-01) (0, -2.93655753135681152344e+00) (1, 9.33790743350982666016e-01) (2, -3.14885586500167846680e-01) (3, -2.65097677707672119141e-01) (4, 4.77064639329910278320e-01) (5, -1.89846158027648925781e+00) (6, -5.98350167274475097656e-01) (7, -2.23122984170913696289e-01) (8, -2.14915418624877929688e+00) (9, 2.07417106628417968750e+00) (10, 5.68983376026153564453e-01) (11, 2.50906538963317871094e+00) (12, -2.39868569374084472656e+00) (13, -8.37331473827362060547e-01) (14, -3.42074966430664062500e+00) (15, 4.89563316106796264648e-01) (16, 3.91508102416992187500e-01) (17, 1.34858512878417968750e+00) (18, -1.71550929546356201172e-01) (19, -1.44941222667694091797e+00) (20, 3.45761597156524658203e-01) (21, 1.43492245674133300781e+00) (22, 1.00242650508880615234e+00) (23, 6.21538543701171875000e+00) (24, 4.52126693725585937500e+00) (25, -1.51035630702972412109e+00) (26, -2.06512585282325744629e-02) (27, 1.38582244515419006348e-01) (28, -2.92392563819885253906e+00) (29, 5.33620500564575195312e+00) (30, 1.89914047718048095703e+00) (31, -9.29634952545166015625e+00) (32, -8.47705173492431640625e+00) (33, 3.94687557220458984375e+00) (34, 5.52097845077514648438e+00) (35, -3.68118792772293090820e-01) (36, -2.23394775390625000000e+00) (37, 2.14772796630859375000e+00) (38, 8.25313389301300048828e-01) (39, -1.56470489501953125000e+00) (40, -2.88120508193969726562e+00) (41, 1.94399929046630859375e+00) (42, -4.76774549484252929688e+00) (43, 2.03750038146972656250e+00) (44, 4.40965265035629272461e-01) (45, 9.07349228858947753906e-01) (46, 2.64225316047668457031e+00) (47, -2.41868197917938232422e-01) (48, -2.34750032424926757812e+00) (49, 4.31307464838027954102e-01) (50, 4.28025186061859130859e-01) (0, -1.90326154232025146484e-01) (1, 5.21883547306060791016e-01) (2, -6.59185588359832763672e-01) (3, -1.24489523470401763916e-01) (4, -8.10023397207260131836e-02) (5, 6.83334231376647949219e-01) (6, 4.78284925222396850586e-01) (7, 5.41599929332733154297e-01) (8, 3.52493077516555786133e-01) (9, -1.79228588938713073730e-01) (10, 8.58895033597946166992e-02) (11, 1.02801293134689331055e-01) (12, 1.82232171297073364258e-01) (13, 4.18917655944824218750e-01) (14, 2.26436686515808105469e+00) (15, 2.00644824653863906860e-02) (16, -3.27332243323326110840e-02) (17, -2.79038518667221069336e-01) (18, -6.43698349595069885254e-02) (19, -1.12927503883838653564e-01) (20, 4.39101427793502807617e-01) (21, -1.07213713228702545166e-01) (22, 4.43770252168178558350e-02) (23, 1.02594166994094848633e-01) (24, 8.53495717048645019531e-01) (25, 4.82380598783493041992e-01) (26, 5.37449419498443603516e-01) (27, 1.88240855932235717773e-02) (28, -4.88412767648696899414e-01) (29, 7.30395197868347167969e-01) (30, 1.55765905976295471191e-01) (31, -5.05997300148010253906e-01) (32, 8.94459068775177001953e-01) (33, 2.20126044005155563354e-02) (34, -2.41704378277063369751e-02) (35, -1.35222643613815307617e-01) (36, -1.42504097893834114075e-02) (37, 4.64862942695617675781e-01) (38, 5.68274362012743949890e-03) (39, 5.89375674724578857422e-01) (40, 2.03466355800628662109e-01) (41, 4.96192313730716705322e-02) (42, 3.81732076406478881836e-01) (43, -5.26874139904975891113e-02) (44, 3.04070170968770980835e-02) (45, -1.28718525171279907227e-01) (46, 3.07047158479690551758e-01) (47, -8.97400230169296264648e-02) (48, -7.13276505470275878906e-01) (49, 3.89159291982650756836e-01) (50, -1.09417691826820373535e-01) (0, 5.59975266456604003906e-01) (1, 5.45192539691925048828e-01) (2, -1.97740316390991210938e-01) (3, -5.36240674555301666260e-02) (4, -3.25350649654865264893e-02) (5, 5.60175716876983642578e-01) (6, 9.17195007205009460449e-02) (7, 5.74716389179229736328e-01) (8, 5.48907756805419921875e-01) (9, 3.76159161329269409180e-01) (10, -8.09817761182785034180e-02) (11, 1.74670904874801635742e-01) (12, 5.57320117950439453125e-01) (13, 1.52319654822349548340e-01) (14, 1.03790605068206787109e+00) (15, -9.12997424602508544922e-02) (16, -6.60851746797561645508e-02) (17, 1.93719603121280670166e-02) (18, 1.23957218602299690247e-02) (19, 2.57215928286314010620e-02) (20, 2.73300975561141967773e-01) (21, -8.73146131634712219238e-02) (22, 3.24715524911880493164e-02) (23, 9.99089702963829040527e-02) (24, 1.58382635563611984253e-02) (25, 3.80276441574096679688e-01) (26, 3.52336376905441284180e-01) (27, 4.41900640726089477539e-02) (28, -3.71293038129806518555e-01) (29, 7.77077078819274902344e-01) (30, 3.06186079978942871094e-01) (31, 3.52869659662246704102e-01) (32, 6.89180791378021240234e-01) (33, 1.00768849253654479980e-01) (34, 7.42557466030120849609e-01) (35, 6.59884139895439147949e-02) (36, -1.35626316070556640625e-01) (37, 5.44224917888641357422e-01) (38, 1.01391978561878204346e-01) (39, 5.60661435127258300781e-01) (40, 2.33501002192497253418e-01) (41, 1.43249273300170898438e-01) (42, 5.01416027545928955078e-01) (43, -3.57109457254409790039e-02) (44, -1.19845591485500335693e-01) (45, -6.57673254609107971191e-02) (46, 3.25464904308319091797e-01) (47, -1.15659952163696289062e-01) (48, 3.34814518690109252930e-01) (49, 4.34377610683441162109e-01) (50, -1.15655764937400817871e-01) (0, -5.33911752700805664062e+00) (1, -7.22954702377319335938e+00) (2, 2.60009813308715820312e+00) (3, 6.29301071166992187500e-01) (4, 6.99263215065002441406e-01) (5, -4.25277501344680786133e-01) (6, 2.23995232582092285156e+00) (7, 4.00524228811264038086e-01) (8, 2.62288898229598999023e-01) (9, 4.94838148355484008789e-01) (10, 3.31441968679428100586e-01) (11, -1.49876260757446289062e+00) (12, -4.02804374694824218750e+00) (13, 2.11355686187744140625e-01) (14, 2.45668673515319824219e+00) (15, 3.89710336923599243164e-01) (16, 3.87171089649200439453e-01) (17, 4.00535017251968383789e-01) (18, 5.00542461872100830078e-01) (19, 5.79316616058349609375e-01) (20, 6.28502273559570312500e+00) (21, -5.17290973663330078125e+00) (22, 8.69898986816406250000e+00) (23, 7.06948399543762207031e-01) (24, -7.82478284835815429688e+00) (25, -1.72779858112335205078e+00) (26, 1.68362662196159362793e-01) (27, -2.78087401390075683594e+00) (28, 1.63400697708129882812e+00) (29, 4.54246103763580322266e-01) (30, -9.72943115234375000000e+00) (31, -6.04568433761596679688e+00) (32, 9.46087360382080078125e-01) (33, 1.80823028087615966797e+00) (34, 8.52466523647308349609e-01) (35, 4.90717917680740356445e-01) (36, 9.29457545280456542969e-01) (37, 2.18688464164733886719e+00) (38, 3.65983873605728149414e-01) (39, 1.03186750411987304688e+00) (40, -6.34636580944061279297e-01) (41, -2.35670924186706542969e-01) (42, -2.52084088325500488281e+00) (43, -1.15051734447479248047e+00) (44, 4.36917454004287719727e-01) (45, -2.23870620131492614746e-01) (46, -5.82028341293334960938e+00) (47, 9.98912870883941650391e-01) (48, 7.99775981903076171875e+00) (49, -7.15821385383605957031e-01) (50, 3.95610362291336059570e-01) (0, 2.14924097061157226562e+00) (1, 8.77185389399528503418e-02) (2, 4.85241800546646118164e-01) (3, 1.00100016593933105469e+00) (4, 1.70430076122283935547e+00) (5, 4.52832840383052825928e-02) (6, 1.78191646933555603027e-01) (7, 2.77941793203353881836e-01) (8, 2.38976046442985534668e-01) (9, 8.74558091163635253906e-02) (10, 2.97178685665130615234e-01) (11, 1.44185531139373779297e+00) (12, -6.12857866287231445312e+00) (13, 4.25142139196395874023e-01) (14, 5.10785400867462158203e-01) (15, 2.96741187572479248047e-01) (16, 1.06083311140537261963e-01) (17, 2.22694292664527893066e-01) (18, 2.75196403264999389648e-01) (19, 2.70042538642883300781e-01) (20, 5.25631844997406005859e-01) (21, 6.83420300483703613281e-02) (22, 5.07028400897979736328e-01) (23, 5.77224850654602050781e-01) (24, 2.21391320228576660156e+00) (25, 1.60905718803405761719e-01) (26, 3.88446182012557983398e-01) (27, 1.76324054598808288574e-01) (28, 2.73435115814208984375e+00) (29, 1.11663401126861572266e-01) (30, 8.64215418696403503418e-02) (31, 6.30945634841918945312e+00) (32, 3.37120592594146728516e-01) (33, -4.44932989776134490967e-02) (34, 3.91136932373046875000e+00) (35, 3.12973707914352416992e-01) (36, 3.80621045827865600586e-01) (37, 2.92331099510192871094e-01) (38, -1.92839905619621276855e-01) (39, 2.15692415833473205566e-01) (40, 3.28102850914001464844e+00) (41, -2.34880559146404266357e-02) (42, -1.67218840122222900391e+00) (43, 5.08724153041839599609e-01) (44, 3.36816161870956420898e-01) (45, -3.04963160306215286255e-02) (46, 1.72790721058845520020e-01) (47, -5.47512054443359375000e-01) (48, -8.78751128911972045898e-02) (49, -1.26610291004180908203e+00) (50, 2.97580599784851074219e-01) (0, -8.14612150192260742188e-01) (1, 1.19402922689914703369e-01) (2, 1.19900310039520263672e+00) (3, -1.13505147397518157959e-01) (4, -7.65014365315437316895e-02) (5, 5.35190773010253906250e+00) (6, 7.03006982803344726562e-02) (7, 5.76127111911773681641e-01) (8, 4.35979932546615600586e-01) (9, -2.19587311148643493652e-01) (10, -9.45226624608039855957e-02) (11, -4.85695511102676391602e-01) (12, 2.74473643302917480469e+00) (13, 1.48218134418129920959e-02) (14, 4.67936843633651733398e-01) (15, -6.31670892238616943359e-01) (16, 1.01154536008834838867e-01) (17, -2.82266950607299804688e+00) (18, 3.80898118019104003906e-02) (19, -1.47349268198013305664e-01) (20, 2.08574485778808593750e+00) (21, -5.22975111007690429688e+00) (22, -1.05243949219584465027e-02) (23, 1.37376887723803520203e-02) (24, 1.45779561996459960938e+00) (25, -1.69343674182891845703e+00) (26, 1.51708245277404785156e-01) (27, -9.61332619190216064453e-02) (28, 1.60039198398590087891e+00) (29, 8.58649730682373046875e-01) (30, -7.13270843029022216797e-01) (31, 2.66261768341064453125e+00) (32, 6.58691525459289550781e-01) (33, 3.10764312744140625000e-01) (34, 3.14963865280151367188e+00) (35, 1.94172695279121398926e-01) (36, 8.22810754179954528809e-02) (37, 3.35856175422668457031e+00) (38, 4.30225402116775512695e-01) (39, 3.52333426475524902344e-01) (40, -4.30724859237670898438e+00) (41, -5.52572607994079589844e-02) (42, 5.10484313964843750000e+00) (43, 1.65461039543151855469e+00) (44, -2.33826369047164916992e-01) (45, 6.70967251062393188477e-02) (46, 2.83906549215316772461e-01) (47, -2.53294396400451660156e+00) (48, 6.06705093383789062500e+00) (49, 7.67682433128356933594e-01) (50, -8.81140306591987609863e-02) (0, 8.34646034240722656250e+00) (1, 1.78695291280746459961e-01) (2, 5.51879703998565673828e-01) (3, -3.66701388359069824219e+00) (4, 5.11476278305053710938e-01) (5, -2.14590620994567871094e+00) (6, 1.31621563434600830078e+00) (7, 3.82665872573852539062e+00) (8, 9.06330719590187072754e-02) (9, -7.10035800933837890625e+00) (10, 2.89775133132934570312e-01) (11, -6.97739347815513610840e-02) (12, -1.17762780189514160156e+00) (13, 2.44296014308929443359e-01) (14, 2.05791854858398437500e+00) (15, 4.75540667772293090820e-01) (16, 6.08478412032127380371e-02) (17, 3.17246854305267333984e-01) (18, 4.00967836380004882812e-01) (19, 1.25412270426750183105e-01) (20, 3.80087709426879882812e+00) (21, -1.62011075019836425781e+00) (22, 3.53129506111145019531e+00) (23, 1.21246266365051269531e+00) (24, 7.80124485492706298828e-01) (25, -1.38463592529296875000e+00) (26, -2.00503766536712646484e-01) (27, -1.05614173412322998047e+00) (28, 8.80356693267822265625e+00) (29, 4.46303263306617736816e-02) (30, 1.92280322313308715820e-01) (31, -1.37217390537261962891e+00) (32, -1.26643911004066467285e-01) (33, -7.98311352729797363281e-01) (34, 1.10004350543022155762e-01) (35, 1.01714992523193359375e+00) (36, 4.48357963562011718750e+00) (37, 4.59023666381835937500e+00) (38, 4.00066912174224853516e-01) (39, 1.77981033921241760254e-02) (40, 5.12180887162685394287e-02) (41, -2.50947251915931701660e-02) (42, 3.83780527114868164062e+00) (43, 5.92428255081176757812e+00) (44, 2.13479089736938476562e+00) (45, -1.84491574764251708984e-02) (46, 2.77495473623275756836e-01) (47, -3.08069014549255371094e+00) (48, -1.71900415420532226562e+00) (49, 4.39237308502197265625e+00) (50, 4.86155420541763305664e-01) (0, -8.56826722621917724609e-01) (1, 7.31665715575218200684e-02) (2, 8.23685705661773681641e-01) (3, 6.79534256458282470703e-01) (4, 2.67013001441955566406e+00) (5, 2.27990388870239257812e-01) (6, 8.23762357234954833984e-01) (7, 2.37868213653564453125e+00) (8, 2.52162188291549682617e-01) (9, 1.02676427364349365234e+00) (10, 4.47211086750030517578e-01) (11, 3.87154579162597656250e-01) (12, -9.20699882507324218750e+00) (13, 2.44855359196662902832e-01) (14, 3.83318710327148437500e+00) (15, 4.99946415424346923828e-01) (16, 4.02089357376098632812e-01) (17, 6.23354291915893554688e+00) (18, 3.13715279102325439453e-01) (19, 4.84652638435363769531e-01) (20, 3.02626997232437133789e-01) (21, 1.92802205681800842285e-01) (22, 3.65039634704589843750e+00) (23, 1.25201988220214843750e+00) (24, -5.91012334823608398438e+00) (25, -7.40831792354583740234e-02) (26, 2.49284371733665466309e-01) (27, 4.71454143524169921875e-01) (28, 2.81893515586853027344e+00) (29, 7.66701921820640563965e-02) (30, 2.33250498771667480469e-01) (31, 4.89614486694335937500e+00) (32, -3.29001620411872863770e-02) (33, 1.70646107196807861328e+00) (34, -1.56476795673370361328e-01) (35, 3.21721315383911132812e-01) (36, 4.76558327674865722656e-01) (37, -1.38415724039077758789e-01) (38, 5.33781535923480987549e-02) (39, -1.44974410533905029297e-01) (40, -3.05761694908142089844e-01) (41, -9.48732271790504455566e-02) (42, -1.31638455390930175781e+00) (43, 4.82201397418975830078e-01) (44, 3.36155295372009277344e-01) (45, -2.94508010149002075195e-01) (46, 4.81798388063907623291e-02) (47, 7.69886553287506103516e-01) (48, -8.03289473056793212891e-01) (49, 8.45810127258300781250e+00) (50, 4.89626765251159667969e-01) (0, 5.31855046749114990234e-01) (1, 1.59236657619476318359e+00) (2, 4.27236318588256835938e+00) (3, 6.36940479278564453125e-01) (4, 3.06311368942260742188e-01) (5, 2.02805146574974060059e-01) (6, 1.28333163261413574219e+00) (7, 2.79774546623229980469e+00) (8, 9.71926003694534301758e-02) (9, -6.47226524353027343750e+00) (10, 4.60942983627319335938e-01) (11, 7.10204541683197021484e-01) (12, -1.34922671318054199219e+00) (13, 4.48753714561462402344e-01) (14, 1.44565141201019287109e+00) (15, 4.81194585561752319336e-01) (16, 3.24645638465881347656e-01) (17, 5.80239248275756835938e+00) (18, 3.44131976366043090820e-01) (19, 4.90857452154159545898e-01) (20, 7.39923059940338134766e-01) (21, 4.78866726160049438477e-01) (22, 3.89116430282592773438e+00) (23, 1.49372339248657226562e+00) (24, -4.29208660125732421875e+00) (25, 9.94175076484680175781e-02) (26, 1.51556038856506347656e+00) (27, -9.92394760251045227051e-02) (28, 6.18878889083862304688e+00) (29, 3.24022102355957031250e+00) (30, -4.74845290184020996094e-01) (31, -6.13032770156860351562e+00) (32, -4.56566244363784790039e-01) (33, 2.06278228759765625000e+00) (34, 5.59427201747894287109e-01) (35, 4.33710485696792602539e-01) (36, 7.55846798419952392578e-01) (37, -1.20891653001308441162e-01) (38, 4.18056517839431762695e-01) (39, -1.90672308206558227539e-01) (40, -7.81956577301025390625e+00) (41, -7.01093614101409912109e-01) (42, -3.65433812141418457031e+00) (43, 5.45085728168487548828e-01) (44, 4.97448742389678955078e-01) (45, -1.66213095188140869141e-01) (46, 5.23096990585327148438e+00) (47, 4.01362806558609008789e-01) (48, -1.00064069032669067383e-01) (49, 4.49931716918945312500e+00) (50, 3.76633346080780029297e-01) (0, 5.95833897590637207031e-01) (1, 5.49544453620910644531e-01) (2, -1.36589944362640380859e-01) (3, -1.35520055890083312988e-01) (4, -1.34381771087646484375e-01) (5, 5.02022504806518554688e-01) (6, 1.19387336075305938721e-01) (7, 4.44492936134338378906e-01) (8, 5.39549589157104492188e-01) (9, 4.06912833452224731445e-01) (10, -7.26121291518211364746e-02) (11, 1.04663662612438201904e-01) (12, 7.14453637599945068359e-01) (13, 1.96898356080055236816e-01) (14, 1.03026044368743896484e+00) (15, -6.25349283218383789062e-02) (16, -1.28003405407071113586e-02) (17, -3.73386703431606292725e-02) (18, -1.03116042912006378174e-01) (19, -5.53944520652294158936e-02) (20, 2.12256729602813720703e-01) (21, -1.78468137979507446289e-01) (22, -4.68596108257770538330e-02) (23, -2.60417237877845764160e-02) (24, -4.03425693511962890625e-02) (25, 3.68938773870468139648e-01) (26, 4.66420888900756835938e-01) (27, -6.57659766147844493389e-05) (28, -2.63926446437835693359e-01) (29, 8.35297822952270507812e-01) (30, 2.35944747924804687500e-01) (31, 4.66455757617950439453e-01) (32, 7.48607575893402099609e-01) (33, 8.04763361811637878418e-02) (34, 8.14804077148437500000e-01) (35, 6.91128941252827644348e-03) (36, -3.88347916305065155029e-02) (37, 5.78008532524108886719e-01) (38, 1.34075999259948730469e-01) (39, 4.59761202335357666016e-01) (40, 1.32119745016098022461e-01) (41, -2.17497674748301506042e-03) (42, 5.34954428672790527344e-01) (43, 1.02119386196136474609e-01) (44, -9.08928588032722473145e-02) (45, 1.62745863199234008789e-02) (46, 2.69423574209213256836e-01) (47, -9.15555059909820556641e-02) (48, 3.72842967510223388672e-01) (49, 3.17999571561813354492e-01) (50, -1.35956972837448120117e-01) (0, 1.77070260047912597656e-01) (1, 5.63179314136505126953e-01) (2, 7.10740745067596435547e-01) (3, 1.61370348930358886719e+00) (4, 1.15385890007019042969e+00) (5, 2.10826143622398376465e-01) (6, -4.90126281976699829102e-01) (7, -5.41371047496795654297e-01) (8, 4.48696225881576538086e-01) (9, 2.17411804199218750000e+00) (10, 1.26050502061843872070e-01) (11, -4.48754817247390747070e-01) (12, 1.40173995494842529297e+00) (13, 1.15214991569519042969e+00) (14, 1.91935372352600097656e+00) (15, 2.06050738692283630371e-01) (16, -3.80870103836059570312e-01) (17, -4.96834516525268554688e+00) (18, -2.86399424076080322266e-01) (19, 4.43036183714866638184e-02) (20, 3.03758203983306884766e-01) (21, 2.35475689172744750977e-01) (22, 8.17788720130920410156e-01) (23, 2.41463136672973632812e+00) (24, 2.22662568092346191406e+00) (25, -4.79729950428009033203e-01) (26, 3.92919480800628662109e-01) (27, 1.63367480039596557617e-01) (28, 4.08519268035888671875e+00) (29, 2.55574524402618408203e-01) (30, -2.16010808944702148438e-02) (31, 1.20805835723876953125e+00) (32, -2.19349682331085205078e-01) (33, 3.49460512399673461914e-01) (34, 6.90284967422485351562e-01) (35, -3.21339756250381469727e-01) (36, 1.52497500181198120117e-01) (37, 3.96806859970092773438e+00) (38, -5.63623160123825073242e-02) (39, -1.54314488172531127930e-01) (40, 1.02865183353424072266e+00) (41, 6.49640196934342384338e-03) (42, 1.33569419384002685547e+00) (43, 1.01341402530670166016e+00) (44, 5.94163894653320312500e-01) (45, -8.03280532360076904297e-01) (46, 5.40267050266265869141e-01) (47, 1.73255905508995056152e-01) (48, -1.42664089798927307129e-01) (49, 1.25193560123443603516e+00) (50, 1.78680062294006347656e-01) (0, -7.60516262054443359375e+00) (1, 4.63008373975753784180e-01) (2, 5.69663107395172119141e-01) (3, 8.52412164211273193359e-01) (4, 1.85289740562438964844e-01) (5, 6.90317690372467041016e-01) (6, 2.05175757408142089844e-01) (7, -2.53780543804168701172e-01) (8, 3.19502502679824829102e-01) (9, -3.33390974998474121094e+00) (10, 1.69257029891014099121e-01) (11, -5.77254176139831542969e-01) (12, 4.51760673522949218750e+00) (13, 8.66853654384613037109e-01) (14, 6.10580861568450927734e-01) (15, 8.72844681143760681152e-02) (16, -8.27268064022064208984e-02) (17, 2.17468068003654479980e-01) (18, -2.18474585562944412231e-03) (19, 1.50944560766220092773e-01) (20, 7.33485102653503417969e-01) (21, 1.43738579750061035156e+00) (22, 3.65062803030014038086e-01) (23, 1.35535645484924316406e+00) (24, -3.66166353225708007812e-01) (25, -1.14028501510620117188e+00) (26, 4.64680463075637817383e-01) (27, 1.11202657222747802734e-01) (28, 5.83669376373291015625e+00) (29, 3.44424307346343994141e-01) (30, -1.17221269756555557251e-02) (31, -8.57472324371337890625e+00) (32, -2.25801169872283935547e-01) (33, 6.74220249056816101074e-02) (34, 9.23754119873046875000e+00) (35, -2.12304040789604187012e-01) (36, -6.05636611580848693848e-02) (37, 3.53192061185836791992e-01) (38, -1.54950892925262451172e+00) (39, -4.58311945199966430664e-01) (40, 4.11460304260253906250e+00) (41, 1.13724581897258758545e-01) (42, 2.46422752737998962402e-01) (43, 8.99864959716796875000e+00) (44, 8.64684879779815673828e-02) (45, 9.75509211421012878418e-02) (46, 3.32755994796752929688e+00) (47, -4.83162194490432739258e-01) (48, -5.17952203750610351562e-01) (49, 1.66199684143066406250e+00) (50, 9.92563515901565551758e-02) (0, 3.51889878511428833008e-01) (1, 9.86303508281707763672e-01) (2, 1.13671287894248962402e-01) (3, 1.21011383831501007080e-01) (4, 3.97474281489849090576e-02) (5, 3.38186830282211303711e-01) (6, -3.46977682784199714661e-03) (7, 9.11181867122650146484e-02) (8, 8.11762928962707519531e-01) (9, 1.03604691103100776672e-02) (10, 2.56906837224960327148e-01) (11, 9.08433124423027038574e-02) (12, 2.99119710922241210938e-01) (13, 2.52195447683334350586e-01) (14, -3.72429117560386657715e-02) (15, -2.93969720602035522461e-01) (16, 6.16179883480072021484e-01) (17, 2.01985335350036621094e+00) (18, 4.60278064012527465820e-01) (19, 1.61553189158439636230e-01) (20, 4.44150179624557495117e-01) (21, 3.47425669431686401367e-01) (22, -1.57545971870422363281e+00) (23, 2.38091573119163513184e-01) (24, -1.06474079191684722900e-01) (25, 6.72152042388916015625e-01) (26, 2.53938138484954833984e-01) (27, 2.62736737728118896484e-01) (28, 4.92424678802490234375e+00) (29, 6.73030793666839599609e-01) (30, 3.63789737224578857422e-01) (31, 1.17811501026153564453e+00) (32, 9.88181769847869873047e-01) (33, 3.88722449541091918945e-01) (34, 3.40303778648376464844e-02) (35, 3.61691564321517944336e-01) (36, 2.56698995828628540039e-01) (37, 6.07537388801574707031e-01) (38, 3.33872377872467041016e-01) (39, 2.56663262844085693359e-01) (40, 1.17902062833309173584e-01) (41, 5.73441863059997558594e-01) (42, 2.20987424254417419434e-01) (43, -1.20471201837062835693e-01) (44, 3.23222130537033081055e-01) (45, 3.64799857139587402344e-01) (46, 3.12064617872238159180e-01) (47, 4.10423099994659423828e-01) (48, 3.52810114622116088867e-01) (49, -3.94416183233261108398e-01) (50, 3.85911941528320312500e-01) (0, 4.22907292842864990234e-01) (1, 6.08605504035949707031e-01) (2, 1.28869906067848205566e-01) (3, 9.59273055195808410645e-02) (4, -1.86970844864845275879e-01) (5, 6.15599334239959716797e-01) (6, 1.27477347850799560547e-01) (7, 3.52254837751388549805e-01) (8, 1.41422525048255920410e-01) (9, 5.53994774818420410156e-01) (10, 3.01131516695022583008e-01) (11, 5.95437467098236083984e-01) (12, 2.44175136089324951172e-01) (13, 6.05262517929077148438e-01) (14, 1.81441053748130798340e-01) (15, 3.43443512916564941406e-01) (16, 2.93429404497146606445e-01) (17, 3.18034315109252929688e+00) (18, 2.17215448617935180664e-01) (19, 3.16453486680984497070e-01) (20, 3.71849715709686279297e-01) (21, 2.17695608735084533691e-01) (22, 1.17749005556106567383e-01) (23, 1.62994861602783203125e-01) (24, 1.51886492967605590820e-01) (25, 3.07503521442413330078e-01) (26, 2.72088736295700073242e-01) (27, 3.41301441192626953125e-01) (28, 1.90191006660461425781e+00) (29, 6.19345605373382568359e-01) (30, 1.39653190970420837402e-01) (31, -2.87949872016906738281e+00) (32, 4.44727510213851928711e-01) (33, 4.03145521879196166992e-01) (34, 2.26998940110206604004e-01) (35, 1.82260259985923767090e-01) (36, 1.28470107913017272949e-01) (37, 2.46983557939529418945e-01) (38, 2.71085500717163085938e-01) (39, 2.04337835311889648438e-01) (40, 1.94426253437995910645e-01) (41, 2.46354237198829650879e-01) (42, 2.08331644535064697266e-01) (43, 1.27367496490478515625e-01) (44, 2.70121872425079345703e-01) (45, 1.27523764967918395996e-01) (46, 1.06071329116821289062e+00) (47, 2.43663206696510314941e-01) (48, -7.03889846801757812500e-01) (49, 5.13298511505126953125e-01) (50, 2.73826152086257934570e-01) (0, -9.99439048767089843750e+00) (1, -3.29205542802810668945e-02) (2, 3.26601177453994750977e-01) (3, 8.13129901885986328125e-01) (4, 5.91854989528656005859e-01) (5, 2.24637448787689208984e-01) (6, 7.83075749874114990234e-01) (7, 2.03804898262023925781e+00) (8, 1.00803077220916748047e-01) (9, 1.01582276821136474609e+00) (10, 5.30646920204162597656e-01) (11, -4.66330957412719726562e+00) (12, -1.60081218928098678589e-02) (13, 3.05510282516479492188e-01) (14, 2.63571068644523620605e-02) (15, 4.03822809457778930664e-01) (16, 3.12187731266021728516e-01) (17, -1.78290033340454101562e+00) (18, 4.17929172515869140625e-01) (19, 4.06228244304656982422e-01) (20, 3.49029183387756347656e-01) (21, 4.31049615144729614258e-01) (22, 7.43260025978088378906e-01) (23, 7.50245511531829833984e-01) (24, 3.62783026695251464844e+00) (25, 4.67828251421451568604e-02) (26, 5.00398099422454833984e-01) (27, 3.40931594371795654297e-01) (28, 1.18810546398162841797e+00) (29, 9.23577696084976196289e-02) (30, -1.52885174751281738281e+00) (31, -4.38639354705810546875e+00) (32, 1.32888648658990859985e-02) (33, 5.54172754287719726562e-01) (34, 3.53515654802322387695e-01) (35, 3.20299565792083740234e-01) (36, 4.31483417749404907227e-01) (37, 5.65653860569000244141e-01) (38, 2.41053968667984008789e-01) (39, -7.43728801608085632324e-02) (40, 4.17369782924652099609e-01) (41, -8.66016745567321777344e-02) (42, -2.70674556493759155273e-01) (43, 3.60365033149719238281e-01) (44, 3.88933479785919189453e-01) (45, -3.09334725141525268555e-01) (46, 5.61541020870208740234e-01) (47, 5.80840468406677246094e-01) (48, -1.99984073638916015625e+00) (49, 6.88543653488159179688e+00) (50, 4.57297682762145996094e-01) (0, -3.75462961196899414062e+00) (1, 1.39059305191040039062e+00) (2, 3.91146683692932128906e+00) (3, 5.68223476409912109375e-01) (4, 7.12743878364562988281e-01) (5, 1.93416610360145568848e-01) (6, 1.42092299461364746094e+00) (7, 2.26390051841735839844e+00) (8, -5.15236330032348632812e+00) (9, 2.94701528549194335938e+00) (10, 2.05155396461486816406e+00) (11, -1.36832103133201599121e-01) (12, 5.15680742263793945312e+00) (13, -2.22775474190711975098e-01) (14, -6.46683073043823242188e+00) (15, 3.95408421754837036133e-01) (16, 2.88727462291717529297e-01) (17, -3.32261204719543457031e+00) (18, 4.33117091655731201172e-01) (19, 5.18902838230133056641e-01) (20, -3.40456217527389526367e-01) (21, 6.09499335289001464844e-01) (22, 5.40244400501251220703e-01) (23, -1.78275763988494873047e-01) (24, -2.79821085929870605469e+00) (25, 2.31368398666381835938e+00) (26, 3.81719851493835449219e+00) (27, 3.40191662311553955078e-01) (28, 3.44815111160278320312e+00) (29, -1.56311485916376113892e-02) (30, 3.62493896484375000000e+00) (31, 7.27771162986755371094e-01) (32, 8.79319310188293457031e-01) (33, 2.30891609191894531250e+00) (34, -1.69836509227752685547e+00) (35, 9.16153132915496826172e-01) (36, 4.53002095222473144531e-01) (37, 1.73037528991699218750e+00) (38, 6.32828414440155029297e-01) (39, -7.79054164886474609375e-02) (40, 1.92040979862213134766e+00) (41, 9.35686081647872924805e-02) (42, -1.22644205093383789062e+01) (43, 1.48534059524536132812e+00) (44, 4.64661031961441040039e-01) (45, -2.92287588119506835938e-01) (46, 6.24102258682250976562e+00) (47, 6.55345153808593750000e+00) (48, -4.00462388992309570312e+00) (49, -3.09182333946228027344e+00) (50, 3.76984417438507080078e-01) (0, 8.36826145648956298828e-01) (1, -1.11182498931884765625e+00) (2, 1.11212766170501708984e+00) (3, 6.00656747817993164062e-01) (4, 1.62844467163085937500e+00) (5, 7.26448297500610351562e-01) (6, -4.61043149232864379883e-01) (7, -2.37116885185241699219e+00) (8, 1.83285653591156005859e+00) (9, 6.10211324691772460938e+00) (10, 1.78628444671630859375e-01) (11, 1.20839035511016845703e+00) (12, 3.22543644905090332031e+00) (13, 7.81558513641357421875e-01) (14, 6.24069631099700927734e-01) (15, 1.70073419809341430664e-01) (16, 3.88471627235412597656e+00) (17, -9.19512867927551269531e-01) (18, 4.84740853309631347656e-01) (19, 5.61785340309143066406e-01) (20, 1.83983460068702697754e-01) (21, -1.09286081790924072266e+00) (22, 3.45616221427917480469e-01) (23, 8.55882048606872558594e-01) (24, -2.95610785484313964844e+00) (25, 1.27280786633491516113e-01) (26, -2.78075397014617919922e-01) (27, 5.18953800201416015625e-01) (28, 5.26577159762382507324e-02) (29, 1.98923206329345703125e+00) (30, -6.16248416900634765625e+00) (31, 8.00491714477539062500e+00) (32, 2.38709270954132080078e-01) (33, 3.97970318794250488281e-01) (34, 8.17230403423309326172e-01) (35, -9.15070652961730957031e-01) (36, 4.30062979459762573242e-01) (37, 4.68816548585891723633e-01) (38, 3.35712581872940063477e-01) (39, -1.92454314231872558594e+00) (40, -5.24095964431762695312e+00) (41, -1.33915215730667114258e-01) (42, 3.40399026870727539062e-01) (43, -5.44283628463745117188e+00) (44, -2.42690706253051757812e+00) (45, 1.83700323104858398438e+00) (46, -3.66571164131164550781e+00) (47, -2.67507743835449218750e+00) (48, 7.31863212585449218750e+00) (49, 6.74477720260620117188e+00) (50, 5.14317989349365234375e-01) (0, -1.93129658699035644531e+00) (1, 4.22925114631652832031e-01) (2, 1.95787027478218078613e-01) (3, -2.80896902084350585938e-01) (4, -1.38744270801544189453e+00) (5, -1.19982731342315673828e+00) (6, 5.70702886581420898438e+00) (7, -9.47583913803100585938e-02) (8, 3.76405715942382812500e+00) (9, 1.30550372600555419922e+00) (10, 2.63935625553131103516e-01) (11, 1.86601281166076660156e+00) (12, -6.02890610694885253906e-01) (13, 2.18967580795288085938e+00) (14, -5.65281987190246582031e-01) (15, -2.42241531610488891602e-01) (16, 5.22945523262023925781e-01) (17, -4.62709140777587890625e+00) (18, 6.15698635578155517578e-01) (19, 3.46342116594314575195e-01) (20, 2.24534109234809875488e-01) (21, 5.71390688419342041016e-01) (22, 2.07372516393661499023e-01) (23, -1.04307055473327636719e-01) (24, -2.21098549664020538330e-02) (25, 2.09307298064231872559e-01) (26, -2.32294774055480957031e+00) (27, 5.42582452297210693359e-01) (28, -8.93906295299530029297e-01) (29, 8.43054428696632385254e-02) (30, -1.06071841716766357422e+00) (31, -8.12512338161468505859e-01) (32, 1.86667725443840026855e-01) (33, -4.02979105710983276367e-01) (34, 6.93321526050567626953e-01) (35, 6.10824227333068847656e-01) (36, 4.37403976917266845703e-01) (37, -2.99034357070922851562e+00) (38, 6.07972085475921630859e-01) (39, 1.67985588312149047852e-01) (40, -1.55295535922050476074e-01) (41, 4.15355980396270751953e-01) (42, 3.70701003074645996094e+00) (43, 3.35137701034545898438e+00) (44, 6.48389339447021484375e-01) (45, 7.22949087619781494141e-01) (46, 3.71963739395141601562e+00) (47, 3.82749223709106445312e+00) (48, -2.33804202079772949219e+00) (49, 2.61397457122802734375e+00) (50, 3.18842828273773193359e-01) (0, 2.06377601623535156250e+00) (1, 6.00684843957424163818e-02) (2, 3.25194454193115234375e+00) (3, -5.10543394088745117188e+00) (4, 1.57023346424102783203e+00) (5, -3.89439368247985839844e+00) (6, -8.40002357959747314453e-01) (7, -6.09529554843902587891e-01) (8, 1.71296507120132446289e-01) (9, 1.41675508022308349609e+00) (10, 5.77087700366973876953e-01) (11, 5.37070608139038085938e+00) (12, 3.80282640457153320312e+00) (13, 2.40634608268737792969e+00) (14, -1.52086377143859863281e+00) (15, 5.77981114387512207031e-01) (16, 4.94944095611572265625e-01) (17, 3.24144792556762695312e+00) (18, 3.72355818748474121094e-01) (19, -1.95919740200042724609e+00) (20, -2.12769770622253417969e+00) (21, -1.14076018333435058594e+00) (22, 2.51146697998046875000e+00) (23, -1.35941430926322937012e-01) (24, -3.59612703323364257812e-01) (25, -2.49211207032203674316e-01) (26, 6.86006620526313781738e-02) (27, -1.28961193561553955078e+00) (28, 1.07848107814788818359e+00) (29, 1.17744767665863037109e+00) (30, 4.85451430082321166992e-01) (31, 2.68351888656616210938e+00) (32, -4.97855275869369506836e-01) (33, 3.27244758605957031250e+00) (34, -2.94345569610595703125e+00) (35, -3.07225275039672851562e+00) (36, 4.70485180616378784180e-01) (37, 7.54223823547363281250e-01) (38, 4.67279940843582153320e-01) (39, -1.43930745124816894531e+00) (40, -1.07874727249145507812e+00) (41, 4.30249512195587158203e-01) (42, 3.02634882926940917969e+00) (43, -8.46741259098052978516e-01) (44, 2.55034506320953369141e-01) (45, 2.02803999185562133789e-01) (46, 3.35759973526000976562e+00) (47, -2.38615775108337402344e+00) (48, 2.28238797187805175781e+00) (49, -6.69025421142578125000e-01) (50, 4.76227968931198120117e-01) (0, 4.97843444347381591797e-01) (1, 5.25510013103485107422e-01) (2, -3.27918559312820434570e-01) (3, -1.18263266980648040771e-01) (4, -7.43719115853309631348e-02) (5, 8.00727844238281250000e-01) (6, 2.07292363047599792480e-01) (7, 5.29284179210662841797e-01) (8, 4.59301620721817016602e-01) (9, 5.08931040763854980469e-01) (10, -7.29025527834892272949e-02) (11, 1.35914683341979980469e-01) (12, 5.72782099246978759766e-01) (13, 3.94022405147552490234e-01) (14, 5.15967488288879394531e-01) (15, 5.68510070443153381348e-02) (16, -3.80001179873943328857e-02) (17, -1.30697417259216308594e+00) (18, 1.44634433090686798096e-02) (19, -1.88121095299720764160e-01) (20, 1.92994281649589538574e-01) (21, -9.49492305517196655273e-02) (22, -1.48114487528800964355e-01) (23, 1.90804302692413330078e-02) (24, 6.49092853069305419922e-01) (25, 5.50972998142242431641e-01) (26, 5.15515148639678955078e-01) (27, 1.24096022918820381165e-02) (28, 1.20323233306407928467e-01) (29, 7.21894025802612304688e-01) (30, 3.67755502462387084961e-01) (31, -7.04564630985260009766e-01) (32, 8.66182565689086914062e-01) (33, 1.45682916045188903809e-01) (34, -1.41979932785034179688e-01) (35, -1.26234158873558044434e-01) (36, -9.92039144039154052734e-02) (37, 5.86901068687438964844e-01) (38, 4.28699254989624023438e-02) (39, 4.63275462388992309570e-01) (40, 3.61582070589065551758e-01) (41, 9.55905765295028686523e-02) (42, 3.83562266826629638672e-01) (43, -2.10182424634695053101e-02) (44, -2.55971141159534454346e-02) (45, -1.21707729995250701904e-01) (46, 5.58294773101806640625e-01) (47, -2.58021336048841476440e-03) (48, -2.73259729146957397461e-01) (49, 4.52141970396041870117e-01) (50, -3.15957628190517425537e-02) (0, 1.39781308174133300781e+00) (1, 5.46112477779388427734e-01) (2, 8.12898457050323486328e-01) (3, 1.37810468673706054688e+00) (4, 1.76717698574066162109e+00) (5, 3.72581332921981811523e-01) (6, -1.98329031467437744141e-01) (7, 2.34605386853218078613e-01) (8, 3.55536550283432006836e-01) (9, 8.31416010856628417969e-01) (10, 3.46107482910156250000e-01) (11, 7.42870092391967773438e-01) (12, 6.17339491844177246094e-01) (13, 7.77009665966033935547e-01) (14, 1.20550668239593505859e+00) (15, 1.97220087051391601562e-01) (16, 6.37885406613349914551e-02) (17, 1.99842345714569091797e+00) (18, 3.84158231317996978760e-02) (19, 2.45517328381538391113e-01) (20, -1.17659218609333038330e-01) (21, 2.95166254043579101562e-01) (22, 1.02916610240936279297e+00) (23, 1.61079478263854980469e+00) (24, 1.33903193473815917969e+00) (25, -6.38120830059051513672e-01) (26, 3.96405071020126342773e-01) (27, 3.14968705177307128906e-01) (28, -3.63647365570068359375e+00) (29, 1.84005632996559143066e-01) (30, -1.18560574948787689209e-01) (31, 1.59081006050109863281e+00) (32, -3.43035578727722167969e-01) (33, 2.48539745807647705078e-01) (34, 1.56825661659240722656e+00) (35, -3.46116364002227783203e-01) (36, 2.81715631484985351562e-01) (37, 1.08027970790863037109e+00) (38, 1.10566407442092895508e-01) (39, 2.15365350246429443359e-01) (40, 1.06681704521179199219e+00) (41, -1.44339323043823242188e-01) (42, 7.01444327831268310547e-01) (43, 5.47252833843231201172e-01) (44, 7.21164822578430175781e-01) (45, -9.03721451759338378906e-01) (46, 6.25499606132507324219e-01) (47, 2.43537500500679016113e-01) (48, -8.60322713851928710938e-02) (49, -1.20932631194591522217e-01) (50, 2.27866634726524353027e-01) (51, 7.81421244144439697266e-01) (52, -2.53437131643295288086e-01) (53, -3.00976365804672241211e-01) (54, -4.19274210929870605469e-01) (55, 5.88824629783630371094e-01) (56, 7.31122851371765136719e-01) (57, 5.76462149620056152344e-01) (58, -3.79474341869354248047e-01) (59, -1.62812590599060058594e-01) (60, -2.26676687598228454590e-01) (61, 5.25189936161041259766e-01) (62, 4.89161610603332519531e-01) (63, 6.42336249351501464844e-01) (64, -1.41488716006278991699e-01) (65, 4.85628634691238403320e-01) (66, 6.67669355869293212891e-01) (67, 7.31752455234527587891e-01) (68, 4.74485844373703002930e-01) (69, -5.63754558563232421875e-01) (70, 5.46475827693939208984e-01) (71, -3.64476740360260009766e-01) (72, 5.83142697811126708984e-01) (73, -6.26748561859130859375e-01) (74, 4.69838708639144897461e-01) (75, -1.72318398952484130859e-01) (76, 3.82111638784408569336e-01) (77, -1.68215468525886535645e-01) (78, -3.48048508167266845703e-01) (79, 3.66022676229476928711e-01) (80, 5.82120954990386962891e-01) (81, 4.93108034133911132812e-01) (82, 5.08418977260589599609e-01) (83, -3.13861519098281860352e-01) (84, -3.19581925868988037109e-01) (85, 5.43551146984100341797e-01) (86, -2.89027273654937744141e-01) (87, -1.37110844254493713379e-01) (88, -2.33979836106300354004e-01) (89, 5.43048322200775146484e-01) (90, -7.85233616828918457031e-01) (91, -4.30251777172088623047e-01) (92, -4.65629011392593383789e-01) (93, 2.17911496758460998535e-01) (94, -1.54492929577827453613e-01) (95, -2.96450376510620117188e-01) (96, -4.04201477766036987305e-01) (97, 6.14871084690093994141e-01) (98, 5.84880113601684570312e-01) (99, 5.54916620254516601562e-01) (100, -9.00502502918243408203e-01) (101, -5.78913986682891845703e-02) 
