FANN_FLO_2.1
num_layers=3
learning_rate=0.700000
connection_rate=1.000000
network_type=0
learning_momentum=0.000000
training_algorithm=2
train_error_function=1
train_stop_function=0
cascade_output_change_fraction=0.010000
quickprop_decay=-0.000100
quickprop_mu=1.750000
rprop_increase_factor=1.200000
rprop_decrease_factor=0.500000
rprop_delta_min=0.000000
rprop_delta_max=50.000000
rprop_delta_zero=0.100000
cascade_output_stagnation_epochs=12
cascade_candidate_change_fraction=0.010000
cascade_candidate_stagnation_epochs=12
cascade_max_out_epochs=150
cascade_min_out_epochs=50
cascade_max_cand_epochs=150
cascade_min_cand_epochs=50
cascade_num_candidate_groups=2
bit_fail_limit=3.49999994039535522461e-01
cascade_candidate_limit=1.00000000000000000000e+03
cascade_weight_multiplier=4.00000005960464477539e-01
cascade_activation_functions_count=10
cascade_activation_functions=3 5 7 8 10 11 14 15 16 17 
cascade_activation_steepnesses_count=4
cascade_activation_steepnesses=2.50000000000000000000e-01 5.00000000000000000000e-01 7.50000000000000000000e-01 1.00000000000000000000e+00 
layer_sizes=101 101 2 
scale_included=0
neurons (num_inputs, activation_function, activation_steepness)=(0, 0, 0.00000000000000000000e+00) (0, 0, 0.00000000000000000000e+00) (0, 0, 0.00000000000000000000e+00) (0, 0, 0.00000000000000000000e+00) (0, 0, 0.00000000000000000000e+00) (0, 0, 0.00000000000000000000e+00) (0, 0, 0.00000000000000000000e+00) (0, 0, 0.00000000000000000000e+00) (0, 0, 0.00000000000000000000e+00) (0, 0, 0.00000000000000000000e+00) (0, 0, 0.00000000000000000000e+00) (0, 0, 0.00000000000000000000e+00) (0, 0, 0.00000000000000000000e+00) (0, 0, 0.00000000000000000000e+00) (0, 0, 0.00000000000000000000e+00) (0, 0, 0.00000000000000000000e+00) (0, 0, 0.00000000000000000000e+00) (0, 0, 0.00000000000000000000e+00) (0, 0, 0.00000000000000000000e+00) (0, 0, 0.00000000000000000000e+00) (0, 0, 0.00000000000000000000e+00) (0, 0, 0.00000000000000000000e+00) (0, 0, 0.00000000000000000000e+00) (0, 0, 0.00000000000000000000e+00) (0, 0, 0.00000000000000000000e+00) (0, 0, 0.00000000000000000000e+00) (0, 0, 0.00000000000000000000e+00) (0, 0, 0.00000000000000000000e+00) (0, 0, 0.00000000000000000000e+00) (0, 0, 0.00000000000000000000e+00) (0, 0, 0.00000000000000000000e+00) (0, 0, 0.00000000000000000000e+00) (0, 0, 0.00000000000000000000e+00) (0, 0, 0.00000000000000000000e+00) (0, 0, 0.00000000000000000000e+00) (0, 0, 0.00000000000000000000e+00) (0, 0, 0.00000000000000000000e+00) (0, 0, 0.00000000000000000000e+00) (0, 0, 0.00000000000000000000e+00) (0, 0, 0.00000000000000000000e+00) (0, 0, 0.00000000000000000000e+00) (0, 0, 0.00000000000000000000e+00) (0, 0, 0.00000000000000000000e+00) (0, 0, 0.00000000000000000000e+00) (0, 0, 0.00000000000000000000e+00) (0, 0, 0.00000000000000000000e+00) (0, 0, 0.00000000000000000000e+00) (0, 0, 0.00000000000000000000e+00) (0, 0, 0.00000000000000000000e+00) (0, 0, 0.00000000000000000000e+00) (0, 0, 0.00000000000000000000e+00) (0, 0, 0.00000000000000000000e+00) (0, 0, 0.00000000000000000000e+00) (0, 0, 0.00000000000000000000e+00) (0, 0, 0.00000000000000000000e+00) (0, 0, 0.00000000000000000000e+00) (0, 0, 0.00000000000000000000e+00) (0, 0, 0.00000000000000000000e+00) (0, 0, 0.00000000000000000000e+00) (0, 0, 0.00000000000000000000e+00) (0, 0, 0.00000000000000000000e+00) (0, 0, 0.00000000000000000000e+00) (0, 0, 0.00000000000000000000e+00) (0, 0, 0.00000000000000000000e+00) (0, 0, 0.00000000000000000000e+00) (0, 0, 0.00000000000000000000e+00) (0, 0, 0.00000000000000000000e+00) (0, 0, 0.00000000000000000000e+00) (0, 0, 0.00000000000000000000e+00) (0, 0, 0.00000000000000000000e+00) (0, 0, 0.00000000000000000000e+00) (0, 0, 0.00000000000000000000e+00) (0, 0, 0.00000000000000000000e+00) (0, 0, 0.00000000000000000000e+00) (0, 0, 0.00000000000000000000e+00) (0, 0, 0.00000000000000000000e+00) (0, 0, 0.00000000000000000000e+00) (0, 0, 0.00000000000000000000e+00) (0, 0, 0.00000000000000000000e+00) (0, 0, 0.00000000000000000000e+00) (0, 0, 0.00000000000000000000e+00) (0, 0, 0.00000000000000000000e+00) (0, 0, 0.00000000000000000000e+00) (0, 0, 0.00000000000000000000e+00) (0, 0, 0.00000000000000000000e+00) (0, 0, 0.00000000000000000000e+00) (0, 0, 0.00000000000000000000e+00) (0, 0, 0.00000000000000000000e+00) (0, 0, 0.00000000000000000000e+00) (0, 0, 0.00000000000000000000e+00) (0, 0, 0.00000000000000000000e+00) (0, 0, 0.00000000000000000000e+00) (0, 0, 0.00000000000000000000e+00) (0, 0, 0.00000000000000000000e+00) (0, 0, 0.00000000000000000000e+00) (0, 0, 0.00000000000000000000e+00) (0, 0, 0.00000000000000000000e+00) (0, 0, 0.00000000000000000000e+00) (0, 0, 0.00000000000000000000e+00) (0, 0, 0.00000000000000000000e+00) (0, 0, 0.00000000000000000000e+00) (101, 5, 5.00000000000000000000e-01) (101, 5, 5.00000000000000000000e-01) (101, 5, 5.00000000000000000000e-01) (101, 5, 5.00000000000000000000e-01) (101, 5, 5.00000000000000000000e-01) (101, 5, 5.00000000000000000000e-01) (101, 5, 5.00000000000000000000e-01) (101, 5, 5.00000000000000000000e-01) (101, 5, 5.00000000000000000000e-01) (101, 5, 5.00000000000000000000e-01) (101, 5, 5.00000000000000000000e-01) (101, 5, 5.00000000000000000000e-01) (101, 5, 5.00000000000000000000e-01) (101, 5, 5.00000000000000000000e-01) (101, 5, 5.00000000000000000000e-01) (101, 5, 5.00000000000000000000e-01) (101, 5, 5.00000000000000000000e-01) (101, 5, 5.00000000000000000000e-01) (101, 5, 5.00000000000000000000e-01) (101, 5, 5.00000000000000000000e-01) (101, 5, 5.00000000000000000000e-01) (101, 5, 5.00000000000000000000e-01) (101, 5, 5.00000000000000000000e-01) (101, 5, 5.00000000000000000000e-01) (101, 5, 5.00000000000000000000e-01) (101, 5, 5.00000000000000000000e-01) (101, 5, 5.00000000000000000000e-01) (101, 5, 5.00000000000000000000e-01) (101, 5, 5.00000000000000000000e-01) (101, 5, 5.00000000000000000000e-01) (101, 5, 5.00000000000000000000e-01) (101, 5, 5.00000000000000000000e-01) (101, 5, 5.00000000000000000000e-01) (101, 5, 5.00000000000000000000e-01) (101, 5, 5.00000000000000000000e-01) (101, 5, 5.00000000000000000000e-01) (101, 5, 5.00000000000000000000e-01) (101, 5, 5.00000000000000000000e-01) (101, 5, 5.00000000000000000000e-01) (101, 5, 5.00000000000000000000e-01) (101, 5, 5.00000000000000000000e-01) (101, 5, 5.00000000000000000000e-01) (101, 5, 5.00000000000000000000e-01) (101, 5, 5.00000000000000000000e-01) (101, 5, 5.00000000000000000000e-01) (101, 5, 5.00000000000000000000e-01) (101, 5, 5.00000000000000000000e-01) (101, 5, 5.00000000000000000000e-01) (101, 5, 5.00000000000000000000e-01) (101, 5, 5.00000000000000000000e-01) (101, 5, 5.00000000000000000000e-01) (101, 5, 5.00000000000000000000e-01) (101, 5, 5.00000000000000000000e-01) (101, 5, 5.00000000000000000000e-01) (101, 5, 5.00000000000000000000e-01) (101, 5, 5.00000000000000000000e-01) (101, 5, 5.00000000000000000000e-01) (101, 5, 5.00000000000000000000e-01) (101, 5, 5.00000000000000000000e-01) (101, 5, 5.00000000000000000000e-01) (101, 5, 5.00000000000000000000e-01) (101, 5, 5.00000000000000000000e-01) (101, 5, 5.00000000000000000000e-01) (101, 5, 5.00000000000000000000e-01) (101, 5, 5.00000000000000000000e-01) (101, 5, 5.00000000000000000000e-01) (101, 5, 5.00000000000000000000e-01) (101, 5, 5.00000000000000000000e-01) (101, 5, 5.00000000000000000000e-01) (101, 5, 5.00000000000000000000e-01) (101, 5, 5.00000000000000000000e-01) (101, 5, 5.00000000000000000000e-01) (101, 5, 5.00000000000000000000e-01) (101, 5, 5.00000000000000000000e-01) (101, 5, 5.00000000000000000000e-01) (101, 5, 5.00000000000000000000e-01) (101, 5, 5.00000000000000000000e-01) (101, 5, 5.00000000000000000000e-01) (101, 5, 5.00000000000000000000e-01) (101, 5, 5.00000000000000000000e-01) (101, 5, 5.00000000000000000000e-01) (101, 5, 5.00000000000000000000e-01) (101, 5, 5.00000000000000000000e-01) (101, 5, 5.00000000000000000000e-01) (101, 5, 5.00000000000000000000e-01) (101, 5, 5.00000000000000000000e-01) (101, 5, 5.00000000000000000000e-01) (101, 5, 5.00000000000000000000e-01) (101, 5, 5.00000000000000000000e-01) (101, 5, 5.00000000000000000000e-01) (101, 5, 5.00000000000000000000e-01) (101, 5, 5.00000000000000000000e-01) (101, 5, 5.00000000000000000000e-01) (101, 5, 5.00000000000000000000e-01) (101, 5, 5.00000000000000000000e-01) (101, 5, 5.00000000000000000000e-01) (101, 5, 5.00000000000000000000e-01) (101, 5, 5.00000000000000000000e-01) (101, 5, 5.00000000000000000000e-01) (101, 5, 5.00000000000000000000e-01) (0, 5, 0.00000000000000000000e+00) (101, 5, 5.00000000000000000000e-01) (0, 5, 0.00000000000000000000e+00) 
connections (connected_to_neuron, weight)=(0, 5.41490018367767333984e-01) (1, 1.42775937914848327637e-01) (2, -4.08891141414642333984e-01) (3, 6.17705643177032470703e-01) (4, -9.01273041963577270508e-02) (5, 2.06382110714912414551e-01) (6, 1.04232275485992431641e+00) (7, -9.04401242733001708984e-02) (8, 9.36757087707519531250e-01) (9, -6.07855543494224548340e-02) (10, -1.86505801975727081299e-02) (11, -3.10806035995483398438e-01) (12, 5.22761821746826171875e-01) (13, 5.05119860172271728516e-01) (14, -9.29032742977142333984e-01) (15, -9.31119173765182495117e-02) (16, 2.92520150542259216309e-02) (17, 2.22322866320610046387e-01) (18, -4.09059345722198486328e-01) (19, 8.92136171460151672363e-02) (20, 4.18007671833038330078e-01) (21, -5.38916960358619689941e-02) (22, -8.94171744585037231445e-02) (23, 5.07965683937072753906e-01) (24, 4.04068183898925781250e+00) (25, -2.53766238689422607422e-01) (26, -8.60888481140136718750e-01) (27, 7.88370084762573242188e+00) (28, -1.41072124242782592773e-01) (29, -2.18017292022705078125e+00) (30, 5.45749902725219726562e-01) (31, 8.29582393169403076172e-01) (32, 4.88920778036117553711e-01) (33, -3.93451511859893798828e-01) (34, -3.09165358543395996094e-01) (35, 4.80113118886947631836e-01) (36, -1.28113895654678344727e-01) (37, 5.88128030300140380859e-01) (38, -7.20055580139160156250e+00) (39, 1.89166891574859619141e+00) (40, -4.56586152315139770508e-01) (41, -5.77726364135742187500e-01) (42, 2.59131371974945068359e-01) (43, 3.18311810493469238281e+00) (44, -8.46878588199615478516e-02) (45, -4.69850152730941772461e-01) (46, 3.49188208580017089844e-01) (47, -7.74945691227912902832e-02) (48, 4.08632397651672363281e-01) (49, 6.14163756370544433594e-01) (50, 9.15105521678924560547e-01) (51, 3.15855145454406738281e-01) (52, 1.59372389316558837891e+00) (53, 2.06714481115341186523e-01) (54, 7.36715972423553466797e-01) (55, 5.63540995121002197266e-01) (56, 3.11816811561584472656e+00) (57, -1.29001796245574951172e+00) (58, 2.42774188518524169922e-01) (59, 3.05478781461715698242e-01) (60, -6.55941009521484375000e-01) (61, 1.12257981300354003906e+00) (62, -2.41664424538612365723e-01) (63, 9.97998416423797607422e-01) (64, 2.54276305437088012695e-01) (65, -8.54214876890182495117e-02) (66, -7.84706413745880126953e-01) (67, 3.19791585206985473633e-01) (68, -1.72687560319900512695e-01) (69, 1.24538794159889221191e-01) (70, -1.20840460062026977539e-01) (71, 4.10811328887939453125e+00) (72, -5.57981371879577636719e-01) (73, 3.50970059633255004883e-01) (74, 5.75256764888763427734e-01) (75, 1.34822261333465576172e+00) (76, 3.09785217046737670898e-01) (77, -1.72694647312164306641e+00) (78, 5.81248998641967773438e-01) (79, 4.47125911712646484375e-01) (80, 8.59000205993652343750e-01) (81, -2.25202232599258422852e-01) (82, 5.89534711837768554688e+00) (83, 3.23504567146301269531e-01) (84, 8.34430634975433349609e-01) (85, 1.17018252611160278320e-01) (86, 7.00569093227386474609e-01) (87, -4.25454950332641601562e+00) (88, 5.77940940856933593750e-02) (89, 1.72042950987815856934e-01) (90, -2.10558921098709106445e-01) (91, 5.86698129773139953613e-02) (92, -1.03750169277191162109e+00) (93, 1.36820524930953979492e-01) (94, -2.10900366306304931641e-01) (95, -1.49182215332984924316e-01) (96, 2.96924257278442382812e+00) (97, -7.73213803768157958984e-02) (98, -8.89930054545402526855e-02) (99, 1.03906059265136718750e+00) (100, -4.97170686721801757812e-02) (0, -2.46214413642883300781e+00) (1, -2.82053977251052856445e-01) (2, -4.35632497072219848633e-01) (3, -2.87281203269958496094e+00) (4, 2.06730753183364868164e-01) (5, -3.02487462759017944336e-01) (6, 2.23493790626525878906e+00) (7, -3.81357979774475097656e+00) (8, 2.81485497951507568359e-01) (9, -3.02664113044738769531e+00) (10, 4.42563652992248535156e-01) (11, 3.78272116184234619141e-01) (12, -2.10082661360502243042e-02) (13, -2.04456686973571777344e+00) (14, 3.35475039482116699219e+00) (15, 1.89613819122314453125e-01) (16, 1.48959174752235412598e-01) (17, 4.12105709314346313477e-01) (18, 2.24743664264678955078e-01) (19, 7.98186600208282470703e-01) (20, 8.17771315574645996094e-01) (21, 1.73416242003440856934e-01) (22, 7.49718695878982543945e-02) (23, 1.99159875512123107910e-01) (24, 4.80011940002441406250e+00) (25, 8.85031640529632568359e-01) (26, 1.58349007368087768555e-01) (27, 2.49389719963073730469e+00) (28, 2.93337672948837280273e-01) (29, 1.42058444023132324219e+00) (30, 2.43076026439666748047e-01) (31, 2.40367865562438964844e+00) (32, 1.64813563227653503418e-01) (33, -3.19216638803482055664e-01) (34, 1.05456867218017578125e+01) (35, 7.89977312088012695312e+00) (36, 2.71594911813735961914e-01) (37, 1.93615484237670898438e+00) (38, -1.93890037536621093750e+01) (39, 2.57407456636428833008e-01) (40, 5.79248094558715820312e+00) (41, 2.02336817979812622070e-01) (42, -1.81615555286407470703e+00) (43, -2.30579590797424316406e+00) (44, 2.56728380918502807617e-01) (45, -2.89113610982894897461e-01) (46, 2.21956653594970703125e+01) (47, 3.34762245416641235352e-01) (48, -8.73611271381378173828e-02) (49, 2.45915293693542480469e-01) (50, -1.22355759143829345703e+00) (51, 2.70320177078247070312e-01) (52, 4.43371683359146118164e-01) (53, 8.70429515838623046875e+00) (54, -5.06079864501953125000e+00) (55, 3.28036218881607055664e-01) (56, 3.16433817148208618164e-01) (57, -1.00981426239013671875e+01) (58, 5.29187631607055664062e+00) (59, -1.57084435224533081055e-01) (60, 7.14396655559539794922e-01) (61, -6.24261856079101562500e+00) (62, 8.68513703346252441406e-01) (63, -6.50825276970863342285e-02) (64, -3.11517739295959472656e+00) (65, 2.97865927219390869141e-01) (66, 2.13475942611694335938e-01) (67, 1.56228154897689819336e-01) (68, 2.38556325435638427734e-01) (69, 2.72852391004562377930e-01) (70, 6.88844799995422363281e-01) (71, 2.06645059585571289062e+00) (72, -8.70039045810699462891e-01) (73, 1.59209415316581726074e-01) (74, 3.04796956479549407959e-02) (75, 7.31083750724792480469e-01) (76, 1.60710975527763366699e-01) (77, -2.88426742553710937500e+01) (78, 2.45417788624763488770e-01) (79, 3.66209119558334350586e-01) (80, 5.19336700439453125000e+00) (81, -4.11764115095138549805e-01) (82, -8.82112789154052734375e+00) (83, 8.51492881774902343750e-01) (84, 3.54068603515625000000e+01) (85, 5.50817608833312988281e-01) (86, 2.29655694961547851562e+00) (87, 1.76851539611816406250e+01) (88, 5.43320834636688232422e-01) (89, -1.00972723960876464844e+00) (90, 6.29546225070953369141e-01) (91, 9.60794091224670410156e-01) (92, -1.05566835403442382812e+01) (93, 2.13704675436019897461e-01) (94, 5.04602336883544921875e+00) (95, 6.26923859119415283203e-01) (96, 5.71202278137207031250e+00) (97, 2.78705477714538574219e-01) (98, -9.13314723968505859375e+00) (99, 2.29142024181783199310e-03) (100, 3.08650821447372436523e-01) (0, 1.35612741112709045410e-01) (1, -6.39276504516601562500e-01) (2, -2.97501087188720703125e+00) (3, 1.44930988550186157227e-01) (4, -2.34713411331176757812e+00) (5, -7.66693294048309326172e-01) (6, 1.43955087661743164062e+00) (7, 1.57194375991821289062e+00) (8, 2.97052860260009765625e-02) (9, 4.45325583219528198242e-01) (10, 6.70186102390289306641e-01) (11, 4.20996397733688354492e-01) (12, -4.38805550336837768555e-01) (13, -1.34425312280654907227e-01) (14, 1.77402057647705078125e+01) (15, 1.09711825847625732422e+00) (16, 4.62168514728546142578e-01) (17, 4.92627590894699096680e-01) (18, -4.49470072984695434570e-01) (19, 9.06476736068725585938e-01) (20, 1.33331671357154846191e-01) (21, 4.14129078388214111328e-01) (22, 4.49580997228622436523e-01) (23, -9.00899991393089294434e-02) (24, -8.08361887931823730469e-01) (25, 1.33398905396461486816e-01) (26, -1.28256821632385253906e+00) (27, -1.05297574996948242188e+01) (28, 4.05657321214675903320e-01) (29, 7.37857103347778320312e-01) (30, -4.13715913891792297363e-02) (31, -1.05915665626525878906e+00) (32, -1.40973076224327087402e-01) (33, 1.98881119489669799805e-01) (34, 1.15304660797119140625e+00) (35, -1.21733868122100830078e+00) (36, 6.27941668033599853516e-01) (37, 7.85466730594635009766e-02) (38, -2.49330215156078338623e-02) (39, -2.00992560386657714844e+00) (40, 4.09964084625244140625e+00) (41, 6.42605841159820556641e-01) (42, 4.16362844407558441162e-02) (43, -1.22266855239868164062e+01) (44, 7.72913023829460144043e-02) (45, 4.49103236198425292969e-01) (46, 4.30596113204956054688e+00) (47, 5.41410267353057861328e-01) (48, -2.72296214103698730469e+00) (49, 1.87361568212509155273e-01) (50, 6.49996614456176757812e+00) (51, -4.25930213928222656250e+00) (52, 1.39531672000885009766e-01) (53, -4.85397481918334960938e+00) (54, 2.21957013010978698730e-01) (55, -4.20424270629882812500e+00) (56, 3.96922826766967773438e-01) (57, 1.53341054916381835938e+00) (58, -5.79243946075439453125e+00) (59, -8.58046412467956542969e-02) (60, 8.38879883289337158203e-01) (61, 1.29262495040893554688e+00) (62, 2.57003068923950195312e+00) (63, 4.55845308303833007812e+00) (64, -1.87476888298988342285e-01) (65, 5.11678516864776611328e-01) (66, 3.30210268497467041016e-01) (67, -6.80435821413993835449e-02) (68, 4.84755724668502807617e-01) (69, 6.26846551895141601562e-01) (70, 5.50907373428344726562e-01) (71, -1.45014028549194335938e+01) (72, 3.19401085376739501953e-01) (73, -5.35899400711059570312e-02) (74, -5.47619834542274475098e-02) (75, 2.05494072288274765015e-02) (76, -6.08510198071599006653e-03) (77, -2.75110220909118652344e+00) (78, 8.50158393383026123047e-01) (79, 1.48037493228912353516e-01) (80, 5.14655065536499023438e+00) (81, 5.05017638206481933594e-01) (82, 1.53411507606506347656e+00) (83, -2.92987012863159179688e+00) (84, -7.60694646835327148438e+00) (85, 6.19568288326263427734e-01) (86, -6.46069812774658203125e+00) (87, 1.26545166969299316406e+00) (88, 6.12811565399169921875e-01) (89, 6.40419647097587585449e-02) (90, 2.29666635394096374512e-01) (91, 4.76212352514266967773e-01) (92, 2.81342482566833496094e+00) (93, 2.35267066955566406250e+00) (94, 4.22815680503845214844e-01) (95, 4.60702240467071533203e-01) (96, -6.96031284332275390625e+00) (97, 7.08533406257629394531e-01) (98, 1.10311908721923828125e+01) (99, -4.25523012876510620117e-01) (100, 2.08614930510520935059e-01) (0, -3.17444354295730590820e-02) (1, 8.91779065132141113281e-01) (2, 6.38833403587341308594e-01) (3, -6.82066977024078369141e-02) (4, 5.24859488010406494141e-01) (5, 7.42252290248870849609e-01) (6, 3.05053544044494628906e+00) (7, 6.00386381149291992188e-01) (8, 6.92093893885612487793e-02) (9, 5.42219460010528564453e-01) (10, -3.08852982521057128906e+00) (11, 4.66007590293884277344e-01) (12, 1.86616718769073486328e-01) (13, -1.56225189566612243652e-01) (14, 6.99139738082885742188e+00) (15, 6.41611278057098388672e-01) (16, 5.04705190658569335938e-01) (17, 2.62179076671600341797e-01) (18, 4.57245349884033203125e-01) (19, -2.78807252645492553711e-01) (20, -2.24956512451171875000e-01) (21, 5.66107630729675292969e-01) (22, 4.41613912582397460938e-01) (23, 1.33384168148040771484e-01) (24, -3.68022847175598144531e+00) (25, -1.06173947453498840332e-01) (26, 3.89429628849029541016e-01) (27, 5.85333108901977539062e+00) (28, 2.41738602519035339355e-01) (29, 6.09459221363067626953e-01) (30, -1.76441743969917297363e-01) (31, 1.47382378578186035156e-01) (32, 1.72820761799812316895e-01) (33, -1.13286042213439941406e+00) (34, 5.05773305892944335938e+00) (35, 1.43203186988830566406e+00) (36, 5.10351240634918212891e-01) (37, 3.80924314260482788086e-01) (38, 1.15664720535278320312e+00) (39, 1.33363032341003417969e+00) (40, 5.46921551227569580078e-01) (41, 4.88530218601226806641e-01) (42, 1.22980177402496337891e+00) (43, 3.51441740989685058594e+00) (44, 5.00056147575378417969e-01) (45, 8.11076343059539794922e-01) (46, 2.33966445922851562500e+00) (47, 6.70935630798339843750e-01) (48, 1.85412919521331787109e+00) (49, 2.27342605590820312500e-01) (50, 6.78699553012847900391e-01) (51, -3.25120761990547180176e-02) (52, 4.12725150585174560547e-01) (53, -3.11559945344924926758e-01) (54, 1.14065080881118774414e-01) (55, -4.18668845668435096741e-03) (56, 6.95965886116027832031e-01) (57, 1.60964717864990234375e+01) (58, 5.55174291133880615234e-01) (59, 6.41999721527099609375e-01) (60, 1.72060593962669372559e-01) (61, 3.76270323991775512695e-01) (62, 2.48988962173461914062e+00) (63, 4.17001438140869140625e+00) (64, 8.37509751319885253906e-01) (65, 5.58017790317535400391e-01) (66, 5.05858898162841796875e-01) (67, 4.36847656965255737305e-01) (68, 6.12227320671081542969e-01) (69, 3.14406299591064453125e+00) (70, 5.69637775421142578125e-01) (71, 6.92284870147705078125e+00) (72, 4.11987870931625366211e-01) (73, 5.51115572452545166016e-01) (74, 4.80483353137969970703e-01) (75, -1.36659383773803710938e-01) (76, 4.21047598123550415039e-01) (77, 8.04357910156250000000e+00) (78, 5.52411284297704696655e-03) (79, -6.95373341441154479980e-02) (80, 3.24961423873901367188e+00) (81, 7.99449980258941650391e-01) (82, 2.83257603645324707031e+00) (83, 4.06610190868377685547e-01) (84, -1.29856002330780029297e+00) (85, 5.40802955627441406250e-01) (86, -3.03302675485610961914e-01) (87, 2.32422515749931335449e-01) (88, 1.69814407825469970703e-01) (89, 1.65847614407539367676e-01) (90, 4.60996210575103759766e-01) (91, 2.84224927425384521484e-01) (92, -9.61125195026397705078e-01) (93, 6.73264563083648681641e-01) (94, 3.77353048324584960938e+00) (95, 5.86709558963775634766e-01) (96, 3.40188360214233398438e+00) (97, 3.83066326379776000977e-01) (98, -6.84766960144042968750e+00) (99, 6.97561651468276977539e-02) (100, 4.32700395584106445312e-01) (0, 2.68840432167053222656e-01) (1, 1.13238847255706787109e+00) (2, 4.89179939031600952148e-01) (3, -4.71172258257865905762e-02) (4, 5.63685178756713867188e-01) (5, 1.44000113010406494141e+00) (6, 3.32416623830795288086e-01) (7, 1.31562781333923339844e+00) (8, -1.45301548764109611511e-02) (9, 5.14451146125793457031e-01) (10, 3.73890280723571777344e-01) (11, 3.85696947574615478516e-01) (12, 5.06044887006282806396e-02) (13, 2.05093294382095336914e-01) (14, -1.07195081710815429688e+01) (15, 6.18488848209381103516e-01) (16, 5.14950692653656005859e-01) (17, 4.25246804952621459961e-01) (18, 4.07684296369552612305e-01) (19, -1.24761378765106201172e+00) (20, -2.87811234593391418457e-02) (21, 4.04166042804718017578e-01) (22, 5.58580458164215087891e-01) (23, 9.07321423292160034180e-02) (24, 6.34094933047890663147e-03) (25, -6.06542602181434631348e-02) (26, 5.20347893238067626953e-01) (27, -3.12503290176391601562e+00) (28, 3.51572126150131225586e-01) (29, 5.45947551727294921875e-01) (30, -1.52174338698387145996e-01) (31, 2.27026212960481643677e-02) (32, 2.38948822021484375000e-01) (33, 5.12716710567474365234e-01) (34, 8.70710313320159912109e-01) (35, 1.62298548221588134766e+00) (36, 3.67921262979507446289e-01) (37, 3.35531175136566162109e-01) (38, -2.34678602218627929688e+00) (39, 4.02454324066638946533e-02) (40, -3.77895057201385498047e-01) (41, 6.42902672290802001953e-01) (42, 1.99580445885658264160e-01) (43, -6.94145393371582031250e+00) (44, 5.87731301784515380859e-01) (45, 6.36655151844024658203e-01) (46, 9.23673570156097412109e-01) (47, 5.49844503402709960938e-01) (48, 5.04641473293304443359e-01) (49, 1.31351089477539062500e+00) (50, -2.63038754463195800781e+00) (51, 1.11404113471508026123e-01) (52, 2.84556359052658081055e-01) (53, 5.24357752874493598938e-03) (54, -1.24966822564601898193e-01) (55, 1.02048434317111968994e-01) (56, 4.88352715969085693359e-01) (57, -4.38902497291564941406e-01) (58, -1.14608988165855407715e-01) (59, 1.44201064109802246094e+00) (60, -1.07898637652397155762e-01) (61, 1.18207681179046630859e+00) (62, -5.72109818458557128906e-01) (63, -9.43435609340667724609e-01) (64, 1.43817675113677978516e+00) (65, 4.15630400180816650391e-01) (66, 5.16267418861389160156e-01) (67, 1.23807179927825927734e+00) (68, 5.90803802013397216797e-01) (69, 4.09963309764862060547e-01) (70, 3.80319029092788696289e-01) (71, 2.98872852325439453125e+00) (72, 6.25774085521697998047e-01) (73, 7.54691362380981445312e-01) (74, 8.79015445709228515625e-01) (75, 1.65113389492034912109e+00) (76, 7.05711185932159423828e-01) (77, -3.17405962944030761719e+00) (78, -4.97418176382780075073e-03) (79, -4.02609929442405700684e-02) (80, 8.54333043098449707031e-01) (81, 6.53667688369750976562e-01) (82, 4.42553234100341796875e+00) (83, 1.81052401661872863770e-01) (84, -3.22951936721801757812e+00) (85, 3.02182614803314208984e-01) (86, 1.88592672348022460938e+00) (87, 6.11898489296436309814e-02) (88, -1.95708438754081726074e-01) (89, 5.93143522739410400391e-01) (90, 2.09706410765647888184e-01) (91, 3.05737853050231933594e-01) (92, -3.11095714569091796875e+00) (93, -1.12048462033271789551e-01) (94, -2.19316625595092773438e+00) (95, 4.60851460695266723633e-01) (96, 4.71637368202209472656e-01) (97, 4.47151392698287963867e-01) (98, 6.42144978046417236328e-02) (99, 3.44267845153808593750e-01) (100, 5.85590660572052001953e-01) (0, 8.40055656433105468750e+00) (1, 2.67304301261901855469e+00) (2, 5.12820243835449218750e+00) (3, 1.95747628808021545410e-01) (4, 5.80279827117919921875e-01) (5, -3.30178216099739074707e-02) (6, 3.29522728919982910156e-01) (7, -6.48507118225097656250e-01) (8, 2.26214021444320678711e-01) (9, 5.72575747966766357422e-01) (10, 3.82644474506378173828e-01) (11, 4.81194525957107543945e-01) (12, -1.13249585032463073730e-01) (13, -2.43828427046537399292e-02) (14, -5.92776775360107421875e-01) (15, 4.96314972639083862305e-01) (16, -6.47492632269859313965e-02) (17, 4.19468581676483154297e-01) (18, 3.34460115432739257812e+00) (19, 6.79031550884246826172e-01) (20, 5.58509707450866699219e-01) (21, 5.04303574562072753906e-01) (22, 4.81219261884689331055e-01) (23, -2.32599988579750061035e-01) (24, -4.01262331008911132812e+00) (25, -1.94929704070091247559e-01) (26, 3.96925568580627441406e-01) (27, -1.52115213871002197266e+00) (28, 3.05193662643432617188e-01) (29, 5.29284477233886718750e-01) (30, -1.29150867462158203125e-01) (31, -7.34222054481506347656e-01) (32, -5.53428232669830322266e-01) (33, -9.03342187404632568359e-01) (34, -3.26042962074279785156e+00) (35, -1.09086751937866210938e+00) (36, 5.50791919231414794922e-01) (37, -1.97400197386741638184e-01) (38, 1.11892099380493164062e+01) (39, 4.04410362243652343750e+00) (40, -9.24395322799682617188e-01) (41, -4.40503931045532226562e+00) (42, -1.70032650232315063477e-01) (43, 2.65998578071594238281e+00) (44, 4.30838555097579956055e-01) (45, 7.57212114334106445312e+00) (46, 1.84167492389678955078e+00) (47, 4.80736732482910156250e-01) (48, 3.70741635560989379883e-01) (49, 2.79338812828063964844e+00) (50, -5.73495197296142578125e+00) (51, 5.95333054661750793457e-02) (52, -1.53094136714935302734e+00) (53, -3.35721492767333984375e+00) (54, 1.94791054725646972656e+00) (55, -2.69644188880920410156e+00) (56, 7.54504621028900146484e-01) (57, -1.17120194435119628906e+00) (58, 1.37081546783447265625e+01) (59, -1.45332679152488708496e-01) (60, 8.89879989624023437500e+00) (61, 1.05973505973815917969e+00) (62, 1.94985020160675048828e+00) (63, -4.09481191635131835938e+00) (64, 3.22854407131671905518e-02) (65, 5.03815829753875732422e-01) (66, 3.05125296115875244141e-01) (67, 2.36787486076354980469e+00) (68, 4.53585833311080932617e-01) (69, 1.88100862503051757812e+00) (70, 4.57598775625228881836e-01) (71, -3.66906213760375976562e+00) (72, 5.38541555404663085938e+00) (73, -2.39574179053306579590e-01) (74, -5.79838603734970092773e-02) (75, -3.28550028800964355469e+00) (76, 1.02457396686077117920e-01) (77, 3.19251179695129394531e+00) (78, 1.07081748545169830322e-01) (79, 8.51220414042472839355e-02) (80, -7.52100706100463867188e+00) (81, 1.22879588603973388672e+00) (82, -8.57970428466796875000e+00) (83, 7.58468866348266601562e-01) (84, 4.15540575981140136719e-01) (85, 6.15085601806640625000e-01) (86, -4.60038214921951293945e-01) (87, -9.02877748012542724609e-02) (88, -8.62987190485000610352e-02) (89, -9.69146192073822021484e-01) (90, 1.13205747604370117188e+01) (91, -4.68160182237625122070e-01) (92, 4.37070465087890625000e+00) (93, 5.12558341026306152344e-01) (94, -4.45821672677993774414e-01) (95, 5.15801668167114257812e-01) (96, -6.31356015801429748535e-02) (97, 3.25482308864593505859e-01) (98, 3.23807144165039062500e+00) (99, -1.89173832535743713379e-01) (100, 4.43755865097045898438e-01) (0, 3.40778023004531860352e-01) (1, 1.68788552284240722656e-01) (2, -1.73812165856361389160e-01) (3, -4.29863119125366210938e+00) (4, 2.94089037925004959106e-02) (5, 4.77702021598815917969e-01) (6, 9.89707887172698974609e-01) (7, 9.93542850017547607422e-01) (8, 8.60109329223632812500e-01) (9, -1.87079340219497680664e-01) (10, 1.06249548494815826416e-01) (11, -8.46256613731384277344e-02) (12, 5.13701677322387695312e-01) (13, 4.43883180618286132812e-01) (14, -3.33369672298431396484e-01) (15, -1.68956860899925231934e-01) (16, -1.87916234135627746582e-01) (17, 9.47743132710456848145e-02) (18, -4.46238338947296142578e-01) (19, -1.20575830340385437012e-01) (20, 4.93972271680831909180e-01) (21, -2.66326647251844406128e-02) (22, -1.72285586595535278320e-01) (23, 4.81182336807250976562e-01) (24, 1.02482466027140617371e-02) (25, 6.00192964076995849609e-01) (26, -8.98041009902954101562e-01) (27, -2.96248579025268554688e+00) (28, -1.53888201713562011719e+00) (29, -1.40883064270019531250e+00) (30, 3.35308998823165893555e-01) (31, 5.89153051376342773438e-01) (32, 5.28128266334533691406e-01) (33, 1.88449680805206298828e-01) (34, 1.72746634483337402344e+00) (35, 2.66984105110168457031e-01) (36, -6.74459990113973617554e-03) (37, 5.30653238296508789062e-01) (38, -3.36267971992492675781e+00) (39, 6.45147562026977539062e-01) (40, -4.37416166067123413086e-01) (41, -5.09692877531051635742e-02) (42, 4.28312987089157104492e-01) (43, -8.25499951839447021484e-01) (44, -1.45603179931640625000e-01) (45, -1.62621915340423583984e-01) (46, -2.93449640274047851562e-01) (47, -2.32441380620002746582e-01) (48, -3.65037351846694946289e-01) (49, 4.91501122713088989258e-01) (50, 6.58387279510498046875e+00) (51, 3.73774349689483642578e-01) (52, -2.34186276793479919434e-02) (53, 3.46446573734283447266e-01) (54, -3.05253481864929199219e+00) (55, 5.86260497570037841797e-01) (56, -1.12856996059417724609e+00) (57, 1.15021538734436035156e+00) (58, -5.82884645462036132812e+00) (59, 5.51575958728790283203e-01) (60, -3.43980640172958374023e-02) (61, 1.05978643894195556641e+00) (62, 1.08818578720092773438e+00) (63, -7.90782070159912109375e+00) (64, 1.42329737544059753418e-01) (65, 1.61658748984336853027e-01) (66, -5.14732718467712402344e-01) (67, 5.91004133224487304688e-01) (68, -7.11058855056762695312e-01) (69, 6.15457952022552490234e-01) (70, 1.69184189289808273315e-02) (71, 5.26201105117797851562e+00) (72, 4.47395533323287963867e-01) (73, 5.29911637306213378906e-01) (74, 4.98403787612915039062e-01) (75, 3.08437514305114746094e+00) (76, 5.68860232830047607422e-01) (77, -1.54723078012466430664e-01) (78, 5.49414396286010742188e-01) (79, 5.30126571655273437500e-01) (80, 1.80418834090232849121e-01) (81, 1.48967325687408447266e+00) (82, -1.57366240024566650391e+00) (83, 4.01311635971069335938e-01) (84, -3.05310606956481933594e+00) (85, 4.62345816195011138916e-02) (86, 2.25502800941467285156e+00) (87, -9.10980880260467529297e-01) (88, 6.69807312078773975372e-04) (89, 2.80618071556091308594e-01) (90, -8.97561728954315185547e-01) (91, -8.88515114784240722656e-02) (92, -1.47675609588623046875e+00) (93, 1.10594141483306884766e+00) (94, -3.63606959581375122070e-02) (95, -8.26595630496740341187e-03) (96, 6.30419874191284179688e+00) (97, -8.68288949131965637207e-02) (98, 2.26933097839355468750e+00) (99, 3.51922482252120971680e-01) (100, -1.31880372762680053711e-01) (0, 2.89899659156799316406e+00) (1, 1.87482357025146484375e-01) (2, -1.41282260417938232422e-01) (3, 8.06119740009307861328e-01) (4, 1.64429724216461181641e+00) (5, 7.37550616264343261719e-01) (6, -2.02670645713806152344e+00) (7, 7.81053483486175537109e-01) (8, -5.56074738502502441406e-01) (9, -2.06648007035255432129e-01) (10, 1.23934471607208251953e+00) (11, -1.69377669692039489746e-01) (12, 6.26677811145782470703e-01) (13, 6.68386042118072509766e-01) (14, 2.54021644592285156250e+00) (15, -6.58147856593132019043e-02) (16, 2.19586417078971862793e-02) (17, 1.20296823978424072266e+00) (18, -4.00813639163970947266e-01) (19, -1.13899433612823486328e+00) (20, 4.13456249237060546875e+00) (21, 4.70830239355564117432e-02) (22, -4.09090489149093627930e-01) (23, 4.37574565410614013672e-01) (24, -3.32891631126403808594e+00) (25, -1.42295897006988525391e+00) (26, -1.68983912467956542969e+00) (27, -1.36422324180603027344e+00) (28, -5.15394449234008789062e-01) (29, -1.43836784362792968750e+00) (30, -2.10089492797851562500e+00) (31, 7.09520697593688964844e-01) (32, 4.60250049829483032227e-01) (33, -4.20805335044860839844e-01) (34, 9.68904733657836914062e-01) (35, 3.97844552993774414062e+00) (36, -1.32751211524009704590e-01) (37, 5.13504385948181152344e-01) (38, -1.32750523090362548828e+00) (39, 2.15144664049148559570e-01) (40, 2.39943385124206542969e-01) (41, 3.46767544746398925781e+00) (42, -1.09282338619232177734e+00) (43, 8.05113220214843750000e+00) (44, -3.64639610052108764648e-03) (45, 3.50844454765319824219e+00) (46, 1.07019805908203125000e+00) (47, -8.66588532924652099609e-01) (48, 5.56008458137512207031e-01) (49, -3.01503807306289672852e-01) (50, -9.27950024604797363281e-01) (51, 5.43151915073394775391e-01) (52, -6.07038438320159912109e-02) (53, 2.49009013175964355469e-01) (54, 6.25856399536132812500e-01) (55, 6.61692321300506591797e-01) (56, -6.73994064331054687500e-01) (57, 5.10984039306640625000e+00) (58, 2.28501105308532714844e+00) (59, 5.43765604496002197266e-01) (60, -3.46503090858459472656e+00) (61, 5.59689342975616455078e-01) (62, -5.12076139450073242188e-01) (63, -4.23418331146240234375e+00) (64, 4.19562697410583496094e-01) (65, 3.36871176958084106445e-01) (66, -5.18803417682647705078e-01) (67, 4.56507354974746704102e-01) (68, -3.35943043231964111328e-01) (69, -1.61365404725074768066e-01) (70, -6.57905280590057373047e-01) (71, 5.09928464889526367188e+00) (72, 2.48148918151855468750e+00) (73, 6.00442075729370117188e+00) (74, 4.16510969400405883789e-01) (75, 1.94741022586822509766e+00) (76, 4.02625828981399536133e-01) (77, -3.46128773689270019531e+00) (78, 4.60660099983215332031e-01) (79, 6.36145532131195068359e-01) (80, 1.15145421028137207031e+00) (81, 2.13961791992187500000e+00) (82, -3.21938228607177734375e+00) (83, 3.11365514993667602539e-01) (84, -2.09740900993347167969e+00) (85, -1.36204302310943603516e-01) (86, 5.19397258758544921875e-01) (87, -8.26833009719848632812e-01) (88, 7.68057256937026977539e-02) (89, 3.27934682369232177734e-01) (90, 4.91285657882690429688e+00) (91, -1.18369984626770019531e+00) (92, -5.27629971504211425781e-01) (93, -2.49375367164611816406e+00) (94, -8.99938493967056274414e-03) (95, 1.90019533038139343262e-01) (96, -1.64846014976501464844e+00) (97, -7.64232128858566284180e-02) (98, -1.28052532672882080078e+00) (99, 4.65312331914901733398e-01) (100, -2.01554551720619201660e-01) (0, 1.99177753925323486328e+00) (1, -4.62720066308975219727e-01) (2, -2.87875890731811523438e+00) (3, -1.15267597138881683350e-01) (4, 8.40218353271484375000e+00) (5, -1.74774318933486938477e-01) (6, -1.76199042797088623047e+00) (7, -1.50383675098419189453e+00) (8, 1.18309259414672851562e+00) (9, 4.11930412054061889648e-01) (10, 6.36044740676879882812e-01) (11, 4.19609695672988891602e-01) (12, -1.91231533885002136230e-01) (13, 1.14222317934036254883e-02) (14, 7.27516174316406250000e+00) (15, 4.87891107797622680664e-01) (16, 4.98553574085235595703e-01) (17, 5.55202722549438476562e+00) (18, 2.85396933555603027344e-01) (19, 6.13596081733703613281e-01) (20, -2.76134991645812988281e+00) (21, 3.06012606620788574219e+00) (22, 4.03815805912017822266e-01) (23, -1.09032265841960906982e-01) (24, 2.27688884735107421875e+00) (25, 8.98801311850547790527e-02) (26, 3.13318639993667602539e-01) (27, 1.27621626853942871094e+00) (28, 3.45631331205368041992e-01) (29, 4.32659715414047241211e-01) (30, -2.92608165740966796875e+00) (31, 2.56588719785213470459e-02) (32, -5.56303188204765319824e-02) (33, -1.90468871593475341797e+00) (34, 3.51551008224487304688e+00) (35, -2.69479608535766601562e+00) (36, 2.43962034583091735840e-01) (37, -2.47692823410034179688e-01) (38, -6.03687620162963867188e+00) (39, 5.06187915802001953125e+00) (40, -1.76607966423034667969e+00) (41, 4.83749598264694213867e-01) (42, -5.19421473145484924316e-02) (43, -4.76388645172119140625e+00) (44, 2.79715895652770996094e-01) (45, -8.29731047153472900391e-01) (46, -1.36681520938873291016e+00) (47, 4.50553178787231445312e-01) (48, -1.22045576572418212891e-01) (49, 1.26569378376007080078e+00) (50, 1.10471642017364501953e+00) (51, 4.35404658317565917969e-01) (52, 4.25335317850112915039e-01) (53, -7.25514769554138183594e-01) (54, 4.60614226758480072021e-02) (55, -8.75396803021430969238e-02) (56, 2.29378595948219299316e-01) (57, -3.17279744148254394531e+00) (58, 9.09352123737335205078e-01) (59, 2.66556907445192337036e-02) (60, -8.31401538848876953125e+00) (61, 8.31264331936836242676e-02) (62, -1.38157582283020019531e+00) (63, -5.47809064388275146484e-01) (64, -2.53186281770467758179e-02) (65, 6.00404739379882812500e-01) (66, 4.74411070346832275391e-01) (67, -6.28393217921257019043e-02) (68, 2.41407394409179687500e-01) (69, 4.95758199691772460938e+00) (70, -1.42069780826568603516e+00) (71, -2.04927191138267517090e-01) (72, -2.56830930709838867188e+00) (73, -1.63317099213600158691e-01) (74, 1.36350333690643310547e+00) (75, 8.55671525001525878906e-01) (76, -1.49077966809272766113e-01) (77, -4.21304655075073242188e+00) (78, 1.91790238022804260254e-01) (79, 2.01684546470642089844e+00) (80, -3.01789283752441406250e+00) (81, 3.74641776084899902344e-01) (82, -1.41969785690307617188e+01) (83, 3.16851660609245300293e-02) (84, 3.15895199775695800781e+00) (85, 5.21174669265747070312e-01) (86, 2.13399410247802734375e+00) (87, 2.54247117042541503906e+00) (88, 5.61032831668853759766e-01) (89, 1.01999163627624511719e+00) (90, 2.53214031457901000977e-01) (91, 8.10751795768737792969e-01) (92, 3.09307456016540527344e+00) (93, 1.10131311416625976562e+00) (94, 5.11696755886077880859e-01) (95, 3.84463399648666381836e-01) (96, -9.16616916656494140625e+00) (97, 6.11439049243927001953e-01) (98, 3.61975383758544921875e+00) (99, -1.67004242539405822754e-01) (100, 3.73724073171615600586e-01) (0, 1.32910311222076416016e+00) (1, -4.47242558002471923828e-01) (2, -4.31940704584121704102e-01) (3, 3.66063356399536132812e+00) (4, 5.05122601985931396484e-01) (5, -7.09360063076019287109e-01) (6, 2.21017885208129882812e+00) (7, -1.43289875984191894531e+00) (8, 3.33729791641235351562e+00) (9, 1.32808759808540344238e-01) (10, 8.23549866676330566406e-01) (11, 1.32701963186264038086e-01) (12, 5.79194873571395874023e-02) (13, 4.71667200326919555664e-01) (14, 2.38866400718688964844e+00) (15, 4.67407047748565673828e-01) (16, 3.29637378454208374023e-01) (17, 3.47102671861648559570e-01) (18, 3.52018177509307861328e-01) (19, 1.18663537502288818359e+00) (20, 6.76695644855499267578e-01) (21, 2.54462122917175292969e-01) (22, 1.25767573714256286621e-01) (23, 2.89504736661911010742e-01) (24, 4.75161838531494140625e+00) (25, 2.56288439035415649414e-01) (26, 1.92365705966949462891e-01) (27, 2.64246177673339843750e+00) (28, 2.34828665852546691895e-01) (29, 7.29393884539604187012e-02) (30, 3.75551372766494750977e-01) (31, 4.85759414732456207275e-02) (32, 5.56698143482208251953e-02) (33, -2.08434915542602539062e+00) (34, 1.33075046539306640625e+00) (35, -4.47926700115203857422e-01) (36, 5.11007845401763916016e-01) (37, 5.77679052948951721191e-02) (38, 8.55426311492919921875e-01) (39, -1.49981066584587097168e-01) (40, 1.37353718280792236328e+00) (41, 2.20300197601318359375e-01) (42, -5.07602393627166748047e-02) (43, 5.78070831298828125000e+00) (44, 1.64704829454421997070e-01) (45, -1.25581192970275878906e+00) (46, -6.07187604904174804688e+00) (47, 5.97336851060390472412e-02) (48, 4.65652458369731903076e-02) (49, 1.33857145905494689941e-01) (50, 9.19251918792724609375e+00) (51, 3.44058573246002197266e-01) (52, 1.68876007199287414551e-01) (53, 7.76554524898529052734e-01) (54, 7.33218014240264892578e-01) (55, -1.04098904132843017578e+00) (56, -1.17256569862365722656e+00) (57, 4.35142374038696289062e+00) (58, 3.04448652267456054688e+00) (59, 3.93033102154731750488e-02) (60, 1.28421974182128906250e+00) (61, -8.82748961448669433594e-01) (62, -1.68627572059631347656e+00) (63, 9.46623027324676513672e-01) (64, -3.83529067039489746094e-01) (65, 3.77970635890960693359e-01) (66, 1.47929703816771507263e-02) (67, -4.79487866163253784180e-01) (68, 2.76480466127395629883e-01) (69, 3.95046681165695190430e-01) (70, 7.46736466884613037109e-01) (71, -4.68947219848632812500e+00) (72, -4.12668657302856445312e+00) (73, -9.82534736394882202148e-02) (74, -6.53653517365455627441e-02) (75, 1.27848041057586669922e+00) (76, 1.14422954618930816650e-01) (77, 7.72152662277221679688e+00) (78, 1.56684011220932006836e-01) (79, 1.34696292877197265625e+00) (80, 7.85129606723785400391e-01) (81, -4.01255398988723754883e-01) (82, 9.26359748840332031250e+00) (83, 2.11563658714294433594e+00) (84, 6.61512762308120727539e-02) (85, 7.85212099552154541016e-01) (86, 4.17383480072021484375e+00) (87, -4.82435083389282226562e+00) (88, 9.44521665573120117188e-01) (89, 4.33869987726211547852e-01) (90, 2.95239180326461791992e-01) (91, 8.44624042510986328125e-01) (92, 1.72955954074859619141e+00) (93, 8.32791209220886230469e-01) (94, 4.92873132228851318359e-01) (95, -3.39464426040649414062e-01) (96, -1.30525074005126953125e+01) (97, 6.66384458541870117188e-01) (98, 7.34843611717224121094e-02) (99, -2.29444414377212524414e-01) (100, 4.08784836530685424805e-01) (0, 4.36030507087707519531e-01) (1, 9.27898347377777099609e-01) (2, -5.13666510581970214844e-01) (3, 7.27719485759735107422e-01) (4, -1.55224815011024475098e-01) (5, 5.37572622299194335938e-01) (6, 7.73107230663299560547e-01) (7, -9.12777662277221679688e-01) (8, 5.18670439720153808594e-01) (9, -2.79280170798301696777e-02) (10, 6.58217859268188476562e+00) (11, 3.22331078350543975830e-02) (12, 2.33652070164680480957e-01) (13, 2.14647412300109863281e-01) (14, -6.23824405670166015625e+00) (15, -1.88035562634468078613e-01) (16, -2.50605046749114990234e-02) (17, -5.19117787480354309082e-02) (18, -9.30747687816619873047e-01) (19, 1.05637423694133758545e-01) (20, 2.58465051651000976562e-01) (21, -3.07064938545227050781e+00) (22, 1.49852097034454345703e+00) (23, 2.73527771234512329102e-01) (24, 4.76635980606079101562e+00) (25, 7.13722705841064453125e-01) (26, -5.57867240905761718750e+00) (27, -5.58727836608886718750e+00) (28, -8.20966541767120361328e-01) (29, 2.93286681175231933594e-01) (30, 4.62840408086776733398e-01) (31, 3.51127177476882934570e-01) (32, 3.86397898197174072266e-01) (33, -1.47556765004992485046e-02) (34, 1.42159137725830078125e+01) (35, -5.29440343379974365234e-01) (36, 3.06100010871887207031e-01) (37, 1.55704498291015625000e-01) (38, -2.42385730743408203125e+01) (39, 3.65286558866500854492e-01) (40, -2.64937251806259155273e-01) (41, 1.20364740490913391113e-01) (42, 1.81063339114189147949e-01) (43, -5.99429225921630859375e+00) (44, 1.68595299124717712402e-01) (45, -3.11062559485435485840e-02) (46, -2.69777560234069824219e+00) (47, 4.47217375040054321289e-02) (48, -1.35025942325592041016e+00) (49, 3.04788142442703247070e-01) (50, -1.49409806728363037109e+00) (51, 4.10745412111282348633e-01) (52, 1.26260099932551383972e-02) (53, -3.17407324910163879395e-02) (54, 9.69337165355682373047e-01) (55, 3.21217477321624755859e-01) (56, -2.68227010965347290039e-01) (57, -1.84548473358154296875e+00) (58, -1.24152746200561523438e+01) (59, 5.86232185363769531250e-01) (60, -1.81627824902534484863e-01) (61, 4.43436771631240844727e-01) (62, 5.08913803100585937500e+00) (63, -1.54987659454345703125e+01) (64, 1.97469756007194519043e-01) (65, 8.22904109954833984375e-02) (66, 2.45211392641067504883e-01) (67, 7.31555372476577758789e-02) (68, 6.21652640402317047119e-02) (69, -8.31909030675888061523e-02) (70, -4.21410560607910156250e+00) (71, -1.82211971282958984375e+01) (72, 1.29124209284782409668e-01) (73, 5.66808402538299560547e-01) (74, 2.37390682101249694824e-01) (75, 5.80300569534301757812e+00) (76, 5.08647799491882324219e-01) (77, -6.71973896026611328125e+00) (78, 1.24171113967895507812e+00) (79, 7.25898683071136474609e-01) (80, -8.57752895355224609375e+00) (81, -5.81185221672058105469e-01) (82, 2.43194675445556640625e+01) (83, 4.95966851711273193359e-01) (84, 4.53326797485351562500e+00) (85, 2.67908859252929687500e+00) (86, -1.39744815826416015625e+01) (87, 2.78821349143981933594e-01) (88, 6.10946007072925567627e-02) (89, 7.80420303344726562500e-01) (90, 7.92454195022583007812e+00) (91, -2.84387590363621711731e-03) (92, -1.15365209579467773438e+01) (93, 2.11336612701416015625e+00) (94, 2.29676589369773864746e-01) (95, 3.08412647247314453125e+00) (96, 7.96004819869995117188e+00) (97, -6.33389520645141601562e+00) (98, 1.77841579914093017578e+00) (99, 4.07676130533218383789e-01) (100, 3.25719937682151794434e-02) (0, 9.12283778190612792969e-01) (1, 7.55290269851684570312e-01) (2, -6.65618181228637695312e-01) (3, 5.08090353012084960938e+00) (4, -1.28913387656211853027e-01) (5, 1.66255056858062744141e+00) (6, 1.08795106410980224609e+00) (7, -1.09906077384948730469e+00) (8, 1.07687401771545410156e+00) (9, -1.12687677145004272461e-01) (10, 3.25204992294311523438e+00) (11, 5.64305260777473449707e-02) (12, 3.47772210836410522461e-01) (13, 3.65233004093170166016e-01) (14, 2.17829847335815429688e+00) (15, -4.81773853302001953125e-01) (16, -1.69807896018028259277e-01) (17, -1.19511032104492187500e+01) (18, -9.03095543384552001953e-01) (19, 2.32320591807365417480e-01) (20, -4.26200866699218750000e+00) (21, 1.43296010792255401611e-02) (22, -1.58637985587120056152e-01) (23, 2.94594615697860717773e-01) (24, 5.13590335845947265625e+00) (25, 5.20288586616516113281e-01) (26, -4.80636566877365112305e-01) (27, -8.54880988597869873047e-01) (28, -5.69995403289794921875e-01) (29, -1.94992005825042724609e-01) (30, 1.88270926475524902344e+00) (31, 3.83585512638092041016e-01) (32, 3.42156022787094116211e-01) (33, -4.25741076469421386719e-01) (34, 9.35428142547607421875e+00) (35, -4.32235765457153320312e+00) (36, 4.54488061368465423584e-02) (37, 5.50029873847961425781e-01) (38, -3.50233602523803710938e+00) (39, 7.07536339759826660156e-01) (40, 1.41663408279418945312e+01) (41, 4.67251203954219818115e-02) (42, -1.76027551293373107910e-01) (43, 2.07022762298583984375e+00) (44, 1.11617684364318847656e-01) (45, -1.03170812129974365234e-01) (46, -6.88880872726440429688e+00) (47, -2.17214488983154296875e+00) (48, 1.95857524871826171875e-01) (49, 3.07721942663192749023e-01) (50, -8.71773433685302734375e+00) (51, 5.69581890106201171875e+00) (52, 3.32335615158081054688e+00) (53, -1.22340777888894081116e-02) (54, 3.47949773073196411133e-01) (55, 3.40989410877227783203e-01) (56, -5.73280990123748779297e-01) (57, 9.34361171722412109375e+00) (58, -1.52825820446014404297e+00) (59, 4.97135519981384277344e-01) (60, 6.88064694404602050781e-02) (61, 3.99036467075347900391e-01) (62, 2.52534222602844238281e+00) (63, 1.24852380752563476562e+01) (64, 5.08864521980285644531e-01) (65, -2.38344407081604003906e+00) (66, -2.15629205107688903809e-01) (67, 2.43742153048515319824e-01) (68, -8.24667811393737792969e-02) (69, -1.35151851177215576172e+00) (70, -1.27389887347817420959e-02) (71, -2.18607959747314453125e+01) (72, 8.14219474792480468750e-01) (73, 2.61106461286544799805e-01) (74, 4.01285648345947265625e-01) (75, 3.19881647825241088867e-01) (76, -6.55599164962768554688e+00) (77, -1.29098424911499023438e+01) (78, 3.79217982292175292969e+00) (79, 1.02600562572479248047e+00) (80, -5.86373567581176757812e+00) (81, -2.57842040061950683594e+00) (82, 1.83979854583740234375e+01) (83, 8.45671534538269042969e-01) (84, -4.34449863433837890625e+00) (85, 2.29356288909912109375e-02) (86, 5.79265773296356201172e-01) (87, 2.73754348754882812500e+01) (88, 1.28780677914619445801e-01) (89, 3.80040407180786132812e+00) (90, -1.30281090736389160156e+00) (91, 5.40628843009471893311e-02) (92, -3.94802055358886718750e+01) (93, -4.82358741760253906250e+00) (94, 6.10076040029525756836e-02) (95, 1.13953423500061035156e+00) (96, -2.68232297897338867188e+00) (97, -5.10338842868804931641e-01) (98, 7.86956965923309326172e-01) (99, 4.21049416065216064453e-01) (100, 1.24032847583293914795e-01) (0, 3.67836803197860717773e-02) (1, -3.98703254759311676025e-02) (2, 1.05963087081909179688e+00) (3, -2.52539849281311035156e+00) (4, 6.38480067253112792969e-01) (5, -3.33106458187103271484e-01) (6, 1.01767778396606445312e+00) (7, 4.44112300872802734375e+00) (8, -2.35105529427528381348e-01) (9, 3.45168501138687133789e-01) (10, 3.99540334939956665039e-01) (11, 4.31306391954421997070e-01) (12, -1.99765801429748535156e-01) (13, -1.07669591903686523438e+00) (14, 3.25939393043518066406e+00) (15, 3.58651995658874511719e-01) (16, 5.90228915214538574219e-01) (17, 9.29375410079956054688e-01) (18, 4.12589025497436523438e+00) (19, 9.80068981647491455078e-01) (20, 5.58227784931659698486e-02) (21, 1.43673920631408691406e+00) (22, 4.20480281114578247070e-01) (23, -2.16610683128237724304e-03) (24, -1.85477554798126220703e+00) (25, 1.41357505321502685547e+00) (26, 1.58031666278839111328e+00) (27, 8.69394588470458984375e+00) (28, 5.96224844455718994141e-01) (29, -2.28397130966186523438e-01) (30, -4.33308392763137817383e-01) (31, 2.26763463020324707031e+00) (32, -5.62942624092102050781e-02) (33, 2.58060646057128906250e+00) (34, 5.23078393936157226562e+00) (35, -1.31297081708908081055e-01) (36, 5.41222155094146728516e-01) (37, -1.25513732433319091797e+00) (38, -7.88580083847045898438e+00) (39, -9.09368023276329040527e-02) (40, 1.73646938800811767578e+00) (41, -1.07109904289245605469e+00) (42, 5.63456773757934570312e+00) (43, 7.17054033279418945312e+00) (44, 1.89542710781097412109e-01) (45, 6.12936019897460937500e-01) (46, -3.05618834495544433594e+00) (47, 6.32722318172454833984e-01) (48, -1.91769823431968688965e-01) (49, 6.76337443292140960693e-03) (50, -2.36967277526855468750e+00) (51, 5.78254699707031250000e-01) (52, 5.42910397052764892578e-01) (53, 9.91833686828613281250e-01) (54, 1.25275146961212158203e+00) (55, -1.80882179737091064453e+00) (56, 2.33060479164123535156e-01) (57, -1.68324148654937744141e+00) (58, 1.13958435058593750000e+01) (59, -2.90784895420074462891e-01) (60, 9.07897412776947021484e-01) (61, 7.18465507030487060547e-01) (62, 2.49809935688972473145e-01) (63, -5.82792806625366210938e+00) (64, -1.74960091710090637207e-01) (65, 7.64797925949096679688e-01) (66, 1.63959085941314697266e-01) (67, 1.13708287477493286133e-01) (68, 5.25498032569885253906e-01) (69, 3.64762336015701293945e-01) (70, 4.08781856298446655273e-01) (71, 1.02949130535125732422e+00) (72, 4.78945285081863403320e-01) (73, -2.35274410247802734375e+00) (74, 6.79687261581420898438e-02) (75, 2.31628585606813430786e-02) (76, -1.18540436029434204102e-01) (77, -6.07480430603027343750e+00) (78, -2.83418204635381698608e-02) (79, -6.43988251686096191406e-02) (80, -8.40012264251708984375e+00) (81, 3.74818038940429687500e+00) (82, 8.75897824764251708984e-01) (83, 1.11645255237817764282e-02) (84, -1.66374988555908203125e+01) (85, 6.17142260074615478516e-01) (86, 2.53465819358825683594e+00) (87, 4.69818115234375000000e-01) (88, 4.06668156385421752930e-01) (89, -2.55737638473510742188e+00) (90, 3.73924940824508666992e-01) (91, 6.19987905025482177734e-01) (92, -2.73786854743957519531e+00) (93, 1.43310952186584472656e+00) (94, -3.69405299425125122070e-01) (95, 3.83357644081115722656e-01) (96, -1.66227817535400390625e+00) (97, 5.76215624809265136719e-01) (98, 2.58276581764221191406e-01) (99, -2.86265522241592407227e-01) (100, 1.40276461839675903320e-01) (0, 1.73535013198852539062e+00) (1, 8.01837816834449768066e-02) (2, 8.19351822137832641602e-02) (3, 1.12619090080261230469e+00) (4, 2.85593897104263305664e-01) (5, -1.57032951712608337402e-01) (6, 6.88468992710113525391e-01) (7, -1.51647710800170898438e+00) (8, 5.33872306346893310547e-01) (9, 1.77072390913963317871e-01) (10, 2.22745642066001892090e-01) (11, 1.72224953770637512207e-01) (12, 3.00201047211885452271e-02) (13, 3.34078252315521240234e-01) (14, -5.51581382751464843750e+00) (15, 1.16734959185123443604e-01) (16, 1.16412363946437835693e-01) (17, 3.04158926010131835938e-01) (18, 5.13881385326385498047e-01) (19, 8.66447806358337402344e-01) (20, 3.27809929847717285156e-01) (21, 3.04759413003921508789e-01) (22, 1.38301968574523925781e-01) (23, 1.82351037859916687012e-01) (24, -8.55268955230712890625e+00) (25, 3.24444979429244995117e-01) (26, 2.57934004068374633789e-01) (27, 3.25913929939270019531e+00) (28, 4.41768914461135864258e-01) (29, 2.05376729369163513184e-01) (30, 3.51252466440200805664e-01) (31, 9.55729708075523376465e-02) (32, 1.06557533144950866699e-01) (33, -1.96510985493659973145e-01) (34, 4.21026915311813354492e-01) (35, 2.95137137174606323242e-01) (36, 3.53074997663497924805e-01) (37, 1.11501172184944152832e-01) (38, 7.42350625991821289062e+00) (39, 1.71563491225242614746e-01) (40, 8.11452507972717285156e-01) (41, 2.92726129293441772461e-01) (42, 2.67998307943344116211e-01) (43, -9.49381530284881591797e-01) (44, 2.97926723957061767578e-01) (45, -6.83025598526000976562e-01) (46, -6.40834569931030273438e+00) (47, 1.63420364260673522949e-01) (48, 1.41200482845306396484e-01) (49, 2.95334517955780029297e-01) (50, 6.34604275226593017578e-01) (51, 2.55746692419052124023e-01) (52, 3.51996332406997680664e-01) (53, 3.48742753267288208008e-01) (54, 1.56112945079803466797e+00) (55, 2.27677091956138610840e-01) (56, 6.48119747638702392578e-02) (57, -2.91694939136505126953e-01) (58, 1.14979422092437744141e+00) (59, -7.93138053268194198608e-04) (60, 5.89419186115264892578e-01) (61, 6.11005246639251708984e-01) (62, -6.75139486789703369141e-01) (63, 5.77178287506103515625e+00) (64, -2.42400377988815307617e-01) (65, 3.76504808664321899414e-01) (66, 2.60207206010818481445e-01) (67, 2.04873368144035339355e-01) (68, 2.31994926929473876953e-01) (69, 1.55355826020240783691e-01) (70, 6.70640051364898681641e-01) (71, 2.54969387054443359375e+01) (72, 1.11695125699043273926e-01) (73, 1.16936460137367248535e-01) (74, 6.87821116298437118530e-03) (75, 4.69061523675918579102e-01) (76, 1.75143033266067504883e-01) (77, 9.53401756286621093750e+00) (78, 1.63332343101501464844e-01) (79, 6.61109328269958496094e-01) (80, -2.86340546607971191406e+00) (81, 4.17684316635131835938e-01) (82, -3.91925668716430664062e+00) (83, 1.78277865052223205566e-01) (84, -2.56440937519073486328e-01) (85, 4.57285672426223754883e-01) (86, 2.46427440643310546875e+00) (87, 9.28236389160156250000e+00) (88, 6.06695055961608886719e-01) (89, 2.38493800163269042969e-01) (90, 3.32704514265060424805e-01) (91, 5.23335576057434082031e-01) (92, -1.60719060897827148438e+00) (93, 4.94243860244750976562e-01) (94, 2.96994715929031372070e-01) (95, 2.13559977710247039795e-02) (96, -3.77195978164672851562e+00) (97, 1.98976188898086547852e-01) (98, 8.67410957813262939453e-01) (99, -1.14225879311561584473e-01) (100, 1.54420405626296997070e-01) (0, 2.90676259994506835938e+00) (1, 2.89784759283065795898e-01) (2, 6.60458147525787353516e-01) (3, -7.67817258834838867188e-01) (4, 5.73183059692382812500e-01) (5, -3.07419538497924804688e+00) (6, 2.15258622169494628906e+00) (7, 7.60491132736206054688e+00) (8, -2.09575057029724121094e+00) (9, 2.84895122051239013672e-01) (10, -6.55734121799468994141e-01) (11, 4.73625421524047851562e-01) (12, -2.13078722357749938965e-01) (13, -5.54173946380615234375e-01) (14, -5.35714673995971679688e+00) (15, 4.88699287176132202148e-01) (16, 4.56484675407409667969e-01) (17, 4.03001815080642700195e-01) (18, 9.59503650665283203125e-01) (19, -2.56379872560501098633e-01) (20, 2.31467992067337036133e-01) (21, 4.56562101840972900391e-01) (22, 4.07246947288513183594e-01) (23, -6.91990554332733154297e-02) (24, 5.73573207855224609375e+00) (25, -8.08628499507904052734e-01) (26, -1.47751617431640625000e+00) (27, -1.77179956436157226562e+00) (28, 7.78609633445739746094e-01) (29, 3.63331365585327148438e+00) (30, 2.35668683052062988281e+00) (31, 1.11154866218566894531e+00) (32, -2.34957244247198104858e-02) (33, 3.84585380554199218750e-01) (34, -5.98376929759979248047e-01) (35, 1.50154042243957519531e+00) (36, -2.22306752204895019531e+00) (37, -2.75022149085998535156e+00) (38, 9.34906578063964843750e+00) (39, -4.03279733657836914062e+00) (40, 7.80856728553771972656e-01) (41, 4.12579536437988281250e-01) (42, -6.28765630722045898438e+00) (43, -5.90831100940704345703e-01) (44, -6.29318475723266601562e-01) (45, 1.46622851490974426270e-01) (46, 7.78981208801269531250e-01) (47, 4.39060062170028686523e-01) (48, -2.88806366920471191406e+00) (49, 2.42675638198852539062e+00) (50, -4.37763780355453491211e-02) (51, 1.56246647238731384277e-01) (52, 1.59924829006195068359e+00) (53, 1.17090296745300292969e+00) (54, 4.54000830650329589844e-01) (55, 8.83344635367393493652e-02) (56, -1.69941854476928710938e+00) (57, -1.24822318553924560547e+00) (58, 5.22311544418334960938e+00) (59, 5.84591329097747802734e-01) (60, 3.47547912597656250000e+00) (61, 2.59677976369857788086e-01) (62, -4.07587862014770507812e+00) (63, -4.37202835083007812500e+00) (64, -3.30967932939529418945e-01) (65, 5.93075156211853027344e-01) (66, 3.84680539369583129883e-01) (67, -3.70724201202392578125e-02) (68, 3.76952439546585083008e-01) (69, 3.75680178403854370117e-01) (70, 5.90861856937408447266e-01) (71, -6.31498861312866210938e+00) (72, 4.40513581037521362305e-01) (73, -4.85165342688560485840e-02) (74, -3.46973463892936706543e-02) (75, 8.18353557586669921875e+00) (76, -4.46436405181884765625e+00) (77, 6.11445093154907226562e+00) (78, -2.51761525869369506836e-01) (79, 4.07189801335334777832e-02) (80, 2.60510873794555664062e+00) (81, 5.89247655868530273438e+00) (82, 9.68497097492218017578e-01) (83, 3.64082843065261840820e-01) (84, -7.51757812500000000000e+00) (85, 7.08654284477233886719e-01) (86, 5.85108089447021484375e+00) (87, 2.69223904609680175781e+00) (88, 6.60571992397308349609e-01) (89, -6.84470713138580322266e-01) (90, 1.49382197856903076172e+00) (91, 7.30419635772705078125e-01) (92, -2.19809412956237792969e-01) (93, 7.38292515277862548828e-01) (94, -7.47490584850311279297e-01) (95, 4.13848131895065307617e-01) (96, 8.47146320343017578125e+00) (97, 4.60436701774597167969e-01) (98, 3.67419433593750000000e+00) (99, -7.03082606196403503418e-02) (100, 5.41850209236145019531e-01) (0, -1.49596929550170898438e+00) (1, -1.47243726253509521484e+00) (2, -5.16597986221313476562e-01) (3, -4.44572925567626953125e-01) (4, 3.85579973459243774414e-01) (5, -1.67706623673439025879e-01) (6, -1.10196232795715332031e+00) (7, 5.71335220336914062500e+00) (8, -6.85343742370605468750e+00) (9, 2.57412314414978027344e-01) (10, 1.48708546161651611328e+00) (11, 5.69208264350891113281e-01) (12, -3.43115520477294921875e+00) (13, 6.42757296562194824219e-01) (14, 5.58948516845703125000e+00) (15, 5.18691301345825195312e-01) (16, 4.67544257640838623047e-01) (17, 9.02888536453247070312e-01) (18, -6.22398674488067626953e-01) (19, -8.25049304962158203125e+00) (20, 9.81962680816650390625e-02) (21, 4.49591487646102905273e-01) (22, 4.15980935096740722656e-01) (23, -1.61689922213554382324e-01) (24, -8.84999752044677734375e+00) (25, 1.38533934950828552246e-01) (26, 1.47381380200386047363e-01) (27, -4.95233583450317382812e+00) (28, 1.41667242050170898438e+01) (29, -3.60530757904052734375e+00) (30, -1.06517255306243896484e+00) (31, -1.58607387542724609375e+00) (32, 4.43929098546504974365e-02) (33, 8.10507595539093017578e-01) (34, 3.43912273645401000977e-01) (35, -4.58910167217254638672e-01) (36, 5.36399126052856445312e-01) (37, 8.22017267346382141113e-02) (38, -3.25029897689819335938e+00) (39, -1.25898793339729309082e-01) (40, -1.29002103805541992188e+01) (41, -1.28987181186676025391e+00) (42, 7.96440362930297851562e-01) (43, -1.94296050071716308594e+00) (44, 4.25283640623092651367e-01) (45, 2.69977569580078125000e-01) (46, 4.70750093460083007812e+00) (47, 5.45617341995239257812e-01) (48, -5.78470468521118164062e-01) (49, 4.47455137968063354492e-01) (50, -3.23608970642089843750e+00) (51, -4.69390439987182617188e+00) (52, 3.44447302818298339844e+00) (53, 2.84152120351791381836e-01) (54, 7.49361049383878707886e-03) (55, 3.18572409451007843018e-02) (56, 6.26007258892059326172e-01) (57, -7.59353995323181152344e-01) (58, 1.64753124117851257324e-01) (59, -1.39455869793891906738e-01) (60, -3.24348479509353637695e-01) (61, 1.73741579055786132812e+00) (62, -3.54569172859191894531e+00) (63, -1.82569277286529541016e+00) (64, 1.27282693982124328613e-01) (65, -5.27434702962636947632e-03) (66, -6.58869862556457519531e-01) (67, -4.33350354433059692383e-02) (68, 3.15594077110290527344e-01) (69, 5.81000506877899169922e-01) (70, 6.13436326384544372559e-02) (71, 5.47947120666503906250e+00) (72, 5.68994283676147460938e-01) (73, 7.22683519124984741211e-02) (74, -8.18631127476692199707e-02) (75, 2.65960001945495605469e+00) (76, 4.05327987670898437500e+00) (77, -1.42564570903778076172e+00) (78, 1.16286873817443847656e-01) (79, -3.64505723118782043457e-02) (80, 1.07622134685516357422e+00) (81, -2.02542281150817871094e+00) (82, 3.22628760337829589844e+00) (83, -6.99221420288085937500e+00) (84, 1.08038902282714843750e+00) (85, 4.92881089448928833008e-01) (86, -7.23661065101623535156e-01) (87, -5.56938743591308593750e+00) (88, 5.29020726680755615234e-01) (89, 2.35832720994949340820e-01) (90, -6.02673470973968505859e-01) (91, 6.17847681045532226562e-01) (92, 1.08005833625793457031e+00) (93, -3.80445170402526855469e+00) (94, 1.24679064750671386719e+00) (95, 5.31050264835357666016e-01) (96, 6.04480206966400146484e-01) (97, 6.40199363231658935547e-01) (98, 1.31283915042877197266e+00) (99, 4.62344884872436523438e+00) (100, 3.98196518421173095703e-01) (0, 3.73423546552658081055e-01) (1, 9.31739583611488342285e-02) (2, -3.70324462652206420898e-01) (3, 2.54061913490295410156e+00) (4, 4.55881744623184204102e-01) (5, 8.52501153945922851562e-01) (6, 1.22079360485076904297e+00) (7, 2.88148950785398483276e-02) (8, 4.51475054025650024414e-01) (9, -1.61129817366600036621e-01) (10, 1.59519791603088378906e-01) (11, -1.59691894054412841797e+00) (12, 6.08235180377960205078e-01) (13, 1.73520624637603759766e+00) (14, -2.72348713874816894531e+00) (15, -1.67757794260978698730e-01) (16, -1.21677424758672714233e-02) (17, -1.22870802879333496094e-02) (18, -4.78054732084274291992e-02) (19, -2.11579129099845886230e-02) (20, 1.59473049640655517578e+00) (21, -4.67277551069855690002e-03) (22, -9.58351325243711471558e-03) (23, 4.26391720771789550781e-01) (24, 1.10095345973968505859e+00) (25, 5.10123014450073242188e-01) (26, -1.24144411087036132812e+00) (27, -7.90455245971679687500e+00) (28, -2.71815881133079528809e-02) (29, -1.42288160324096679688e+00) (30, 4.99200262129306793213e-02) (31, 2.35191655158996582031e+00) (32, 4.48191195726394653320e-01) (33, 2.24019944667816162109e-01) (34, -3.00372934341430664062e+00) (35, -3.02628660202026367188e+00) (36, 2.08129599690437316895e-01) (37, 4.30859655141830444336e-01) (38, 8.09429359436035156250e+00) (39, 2.64947104454040527344e+00) (40, -9.85430359840393066406e-01) (41, -1.85025423765182495117e-01) (42, -3.43968582153320312500e+00) (43, 9.93893921375274658203e-01) (44, -9.78635847568511962891e-01) (45, 7.79653429985046386719e-01) (46, -1.01168787479400634766e+00) (47, -4.38584834337234497070e-01) (48, 1.70718359947204589844e+00) (49, 1.33233094215393066406e+00) (50, 2.64224314689636230469e+00) (51, 2.70283728837966918945e-01) (52, -3.42896506190299987793e-02) (53, -2.63412690162658691406e+00) (54, -6.46854698657989501953e-01) (55, 1.17224171757698059082e-01) (56, -1.27606570720672607422e+00) (57, -1.10851395130157470703e+00) (58, -3.33298295736312866211e-01) (59, 3.09377461671829223633e-01) (60, -2.73326665163040161133e-01) (61, 1.16463434696197509766e+00) (62, 7.18653738498687744141e-01) (63, -9.67718288302421569824e-02) (64, 1.91928789019584655762e-01) (65, -2.04533085227012634277e-01) (66, -7.28637397289276123047e-01) (67, 7.17688620090484619141e-01) (68, 2.86809086799621582031e-01) (69, -5.12817382812500000000e-01) (70, -9.54191327095031738281e-01) (71, 2.44788908958435058594e+00) (72, 1.44975185394287109375e+00) (73, 4.89051967859268188477e-01) (74, 4.40858840942382812500e-01) (75, 1.65387213230133056641e+00) (76, -1.89698278903961181641e-01) (77, -1.86486160755157470703e+00) (78, 5.36886215209960937500e-01) (79, -1.40487873554229736328e+00) (80, -5.75187635421752929688e+00) (81, -6.56277656555175781250e-01) (82, 1.39400160312652587891e+00) (83, 3.71619790792465209961e-01) (84, 2.33357477188110351562e+00) (85, -6.88888579607009887695e-02) (86, 3.72342562675476074219e+00) (87, 1.25071728229522705078e+00) (88, -4.05426293611526489258e-01) (89, 8.87057602405548095703e-01) (90, 7.94366478919982910156e-01) (91, 5.78435398638248443604e-02) (92, -6.60950958728790283203e-01) (93, -4.37323808670043945312e-01) (94, -4.92126655578613281250e+00) (95, 2.11502623558044433594e+00) (96, -4.62882518768310546875e+00) (97, 2.64922380447387695312e-01) (98, -8.17613601684570312500e+00) (99, 4.79706227779388427734e-01) (100, -3.67143094539642333984e-01) (0, 4.10658240318298339844e-01) (1, 4.62557703256607055664e-01) (2, -5.34522943198680877686e-02) (3, 2.89948582649230957031e-01) (4, -4.15453815460205078125e+00) (5, 2.53226459026336669922e-01) (6, 9.93168890476226806641e-01) (7, 1.43238866329193115234e+00) (8, -1.96112489700317382812e+00) (9, -1.33973583579063415527e-01) (10, 3.06306242942810058594e-01) (11, -3.64418029785156250000e-02) (12, 2.59850144386291503906e-01) (13, 5.64238488674163818359e-01) (14, -8.62258815765380859375e+00) (15, -1.32492810487747192383e-01) (16, -1.35641574859619140625e-01) (17, 8.57093524932861328125e+00) (18, -1.54820635914802551270e-01) (19, 3.11614036560058593750e-01) (20, 9.51962292194366455078e-01) (21, -4.16780151426792144775e-02) (22, 3.72143066488206386566e-03) (23, 2.82376378774642944336e-01) (24, 4.87250804901123046875e+00) (25, -7.43602633476257324219e-01) (26, -5.95562398433685302734e-01) (27, 2.88755846023559570312e+00) (28, 9.90106463432312011719e-01) (29, -3.94869446754455566406e-01) (30, -1.98910558223724365234e+00) (31, 3.44931125640869140625e-01) (32, 4.06413823366165161133e-01) (33, 5.69287985563278198242e-02) (34, -1.34166803359985351562e+01) (35, -3.65871405601501464844e+00) (36, 4.17842864990234375000e-01) (37, 1.39292335510253906250e+00) (38, -2.17810106277465820312e+00) (39, 2.06495785713195800781e+00) (40, 5.69145393371582031250e+00) (41, 8.32306444644927978516e-02) (42, 1.65337419509887695312e+00) (43, -8.88462829589843750000e+00) (44, 2.30310693383216857910e-01) (45, -1.98870241641998291016e-01) (46, -1.81401271820068359375e+01) (47, -2.17752838134765625000e+00) (48, -4.80043530464172363281e-01) (49, 5.82030951976776123047e-01) (50, 1.53886318206787109375e+01) (51, 7.06657981872558593750e+00) (52, -2.69928979873657226562e+00) (53, 4.28230333328247070312e+00) (54, 8.07387530803680419922e-01) (55, 6.08579397201538085938e-01) (56, -3.45690160989761352539e-01) (57, -3.86243486404418945312e+00) (58, -1.18977701663970947266e+00) (59, 2.75057792663574218750e-01) (60, 8.15736651420593261719e-02) (61, 9.42491710186004638672e-01) (62, -1.27808630466461181641e+00) (63, -1.75367832183837890625e+01) (64, -3.47744417190551757812e+00) (65, 1.21498502790927886963e-01) (66, -5.66304981708526611328e-01) (67, 5.24896442890167236328e-01) (68, 2.88806557655334472656e-02) (69, -5.08051097393035888672e-01) (70, -9.53428328037261962891e-01) (71, 8.12034988403320312500e+00) (72, 3.49354185163974761963e-02) (73, 3.71422559022903442383e-01) (74, 2.07717105746269226074e-01) (75, 2.77004766464233398438e+00) (76, 3.75909298658370971680e-01) (77, 1.06286849975585937500e+01) (78, 3.73079478740692138672e-01) (79, 4.49803829193115234375e-01) (80, 2.65500593185424804688e+00) (81, -3.07986319065093994141e-01) (82, -1.14555454254150390625e+01) (83, 4.04411911964416503906e-01) (84, 1.18262796401977539062e+01) (85, 1.88313797116279602051e-01) (86, 1.00877017974853515625e+01) (87, 5.88727235794067382812e+00) (88, -1.28060936927795410156e-01) (89, 8.58841657638549804688e-01) (90, 9.92626368999481201172e-01) (91, 2.48717635869979858398e-01) (92, 4.34833955764770507812e+00) (93, 2.00237607955932617188e+00) (94, -2.35850274562835693359e-01) (95, -2.21409702301025390625e+00) (96, 3.92169647216796875000e+01) (97, -1.29616692662239074707e-01) (98, -8.67171573638916015625e+00) (99, 2.26381182670593261719e-01) (100, 3.58230620622634887695e-02) (0, 1.68854624032974243164e-01) (1, 5.40510320663452148438e+00) (2, 1.77972674369812011719e+00) (3, 5.95591902732849121094e-01) (4, 1.99485218524932861328e+00) (5, 5.51389120519161224365e-02) (6, 8.39013814926147460938e-01) (7, 1.28273928165435791016e+00) (8, 4.67621862888336181641e-01) (9, 3.34896326065063476562e-01) (10, 3.01296979188919067383e-01) (11, 2.98790544271469116211e-01) (12, -2.57509559392929077148e-01) (13, 1.41409039497375488281e-01) (14, -1.33980453014373779297e+00) (15, 4.52234476804733276367e-01) (16, 4.19547230005264282227e-01) (17, 8.95029604434967041016e-01) (18, 4.37624901533126831055e-01) (19, 1.82624053955078125000e+00) (20, 4.20799367129802703857e-02) (21, 3.64903122186660766602e-01) (22, 6.08308196067810058594e-01) (23, -2.33763288706541061401e-02) (24, 1.25978958606719970703e+00) (25, 1.31810486316680908203e-01) (26, -1.15456737577915191650e-01) (27, -1.44551169872283935547e+00) (28, -4.73057651519775390625e+00) (29, 4.51265782117843627930e-01) (30, 9.90244448184967041016e-02) (31, 2.08140492439270019531e-01) (32, -2.57396847009658813477e-01) (33, 1.45777201652526855469e+00) (34, -6.02849531173706054688e+00) (35, -4.87643337249755859375e+00) (36, 2.62065351009368896484e-01) (37, 1.44693523645401000977e-01) (38, 1.43508708477020263672e+00) (39, 2.64138031005859375000e+00) (40, 5.78992187976837158203e-01) (41, 4.92598056793212890625e-01) (42, -2.24103823304176330566e-01) (43, -5.78889799118041992188e+00) (44, 2.04899951815605163574e-01) (45, 3.28334271907806396484e-01) (46, -2.44118380546569824219e+00) (47, -3.74307572841644287109e-01) (48, 3.51535677909851074219e+00) (49, -5.78662753105163574219e-02) (50, -1.74702715873718261719e+00) (51, 2.85723757743835449219e+00) (52, -5.60026025772094726562e+00) (53, 6.41413092613220214844e-01) (54, 1.68279087543487548828e+00) (55, -5.30740928649902343750e+00) (56, 2.47371435165405273438e-01) (57, 1.10208797454833984375e+00) (58, -1.12582099437713623047e+00) (59, 1.21816643513739109039e-04) (60, 1.30965292453765869141e+00) (61, 1.08471536636352539062e+00) (62, -9.13636922836303710938e-01) (63, -1.71756279468536376953e+00) (64, -2.98652797937393188477e-01) (65, 4.92440700531005859375e-01) (66, 3.13300818204879760742e-01) (67, -2.03499659895896911621e-01) (68, -2.13990497589111328125e+00) (69, 5.95402717590332031250e-01) (70, 7.34733104705810546875e-01) (71, -3.95467430353164672852e-01) (72, 3.41659694910049438477e-01) (73, -5.28397226333618164062e+00) (74, -1.14680901169776916504e-01) (75, 1.78191030025482177734e+00) (76, -1.18478846549987792969e+00) (77, 2.14157080650329589844e+00) (78, 1.92120999097824096680e-01) (79, 1.85817718505859375000e-01) (80, 1.36213505268096923828e+00) (81, -2.03473138809204101562e+00) (82, -1.74821054935455322266e+00) (83, 7.00599700212478637695e-02) (84, 2.42387962341308593750e+00) (85, 6.22588455677032470703e-01) (86, -2.31073498725891113281e+00) (87, -1.56751549243927001953e+00) (88, 5.95017075538635253906e-01) (89, -6.04673671722412109375e+00) (90, 3.46935558319091796875e+00) (91, 2.97933220863342285156e+00) (92, 4.76472091674804687500e+00) (93, 1.31928598880767822266e+00) (94, 4.22742933034896850586e-01) (95, 3.39400708675384521484e-01) (96, 1.51173055171966552734e-01) (97, -1.95134468376636505127e-02) (98, -3.11739039421081542969e+00) (99, -5.02976274490356445312e+00) (100, 5.50428748130798339844e-01) (0, -9.58429425954818725586e-02) (1, 1.21071279048919677734e+00) (2, 6.40205442905426025391e-01) (3, -1.85029674321413040161e-03) (4, 4.92593854665756225586e-01) (5, 1.43453645706176757812e+00) (6, 3.46949279308319091797e-01) (7, 1.00922095775604248047e+00) (8, -8.80931615829467773438e-02) (9, 5.28526127338409423828e-01) (10, -7.44653269648551940918e-02) (11, 5.36772191524505615234e-01) (12, 2.00197130441665649414e-01) (13, 2.68267896026372909546e-02) (14, 5.00112342834472656250e+00) (15, 6.19499921798706054688e-01) (16, 4.38529759645462036133e-01) (17, 3.90096575021743774414e-01) (18, 4.80956137180328369141e-01) (19, -3.61204177141189575195e-01) (20, -3.74526232481002807617e-02) (21, 4.02610570192337036133e-01) (22, 6.19712650775909423828e-01) (23, -8.46389904618263244629e-02) (24, 3.13317966461181640625e+00) (25, 4.99236257746815681458e-03) (26, 4.02447611093521118164e-01) (27, 6.54701375961303710938e+00) (28, 2.76267766952514648438e-01) (29, 1.15967750549316406250e+00) (30, -9.50192064046859741211e-02) (31, 7.56710097193717956543e-02) (32, 2.10009321570396423340e-01) (33, 4.81097787618637084961e-01) (34, -2.70799016952514648438e+00) (35, 1.49639022350311279297e+00) (36, 4.40573036670684814453e-01) (37, 4.57257568836212158203e-01) (38, -1.84574139118194580078e+00) (39, 5.27953088283538818359e-01) (40, 3.33573794364929199219e+00) (41, 4.85081821680068969727e-01) (42, 5.93478620052337646484e-01) (43, -1.27872133255004882812e+01) (44, 5.08363604545593261719e-01) (45, 6.76619112491607666016e-01) (46, 4.41922724246978759766e-01) (47, 5.79544603824615478516e-01) (48, 4.81709808111190795898e-01) (49, 5.20285725593566894531e-01) (50, 5.47019720077514648438e+00) (51, 5.17994053661823272705e-02) (52, 3.76452922821044921875e-01) (53, -4.91264253854751586914e-01) (54, -3.99518311023712158203e-02) (55, 1.16800658404827117920e-01) (56, 4.90217745304107666016e-01) (57, 1.71778118610382080078e+00) (58, -6.05868399143218994141e-01) (59, 1.56658387184143066406e+00) (60, 8.85529339313507080078e-01) (61, 1.14757657051086425781e+00) (62, -2.67439574003219604492e-01) (63, -1.16924512386322021484e+00) (64, 9.40271914005279541016e-01) (65, 4.34686183929443359375e-01) (66, 5.57829678058624267578e-01) (67, 4.77851688861846923828e-01) (68, 3.86679232120513916016e-01) (69, 5.48382341861724853516e-01) (70, 3.38507711887359619141e-01) (71, -1.10874605178833007812e+01) (72, 6.40510499477386474609e-01) (73, 1.78248718380928039551e-01) (74, 8.73811602592468261719e-01) (75, 1.13740944862365722656e+00) (76, 6.46182477474212646484e-01) (77, -2.88293290138244628906e+00) (78, -6.65692389011383056641e-02) (79, -2.95366793870925903320e-02) (80, 4.92068111896514892578e-01) (81, 7.89834320545196533203e-01) (82, -1.05643529891967773438e+01) (83, 2.92446702718734741211e-01) (84, -1.70991458892822265625e+01) (85, 3.23444575071334838867e-01) (86, -5.19845151901245117188e+00) (87, 4.40269619226455688477e-01) (88, -1.38120010495185852051e-01) (89, 5.05778342485427856445e-02) (90, 4.15353804826736450195e-01) (91, 2.44777232408523559570e-01) (92, -5.27879905700683593750e+00) (93, -2.49837607145309448242e-01) (94, 4.25537139177322387695e-01) (95, 6.47679686546325683594e-01) (96, -9.74889087677001953125e+00) (97, 3.87891799211502075195e-01) (98, 2.54656434059143066406e-01) (99, 6.74284517765045166016e-01) (100, 5.91420292854309082031e-01) (0, 1.36752760410308837891e+00) (1, 2.52216309309005737305e-01) (2, -2.65618383884429931641e-01) (3, -7.71045386791229248047e-01) (4, -2.00340199470520019531e+00) (5, 2.65939354896545410156e-01) (6, 8.39677453041076660156e-01) (7, 1.28968045115470886230e-01) (8, 2.73902416229248046875e-01) (9, -9.18447747826576232910e-02) (10, 2.69800162315368652344e+00) (11, -5.84878861904144287109e-01) (12, 6.05285286903381347656e-01) (13, 7.29839146137237548828e-01) (14, -2.44084477424621582031e+00) (15, -5.31466752290725708008e-02) (16, -6.39008283615112304688e-02) (17, 1.02714769542217254639e-01) (18, -3.52532695978879928589e-03) (19, 1.56741723418235778809e-01) (20, 5.61491608619689941406e-01) (21, -2.03862767666578292847e-02) (22, -1.54753744602203369141e-01) (23, 3.51260662078857421875e-01) (24, 4.35118436813354492188e-01) (25, 4.58670198917388916016e-01) (26, 4.47433853149414062500e+00) (27, 1.12294530868530273438e+00) (28, -1.23633272945880889893e-01) (29, -1.41198229789733886719e+00) (30, 5.00971853733062744141e-01) (31, 1.75872132182121276855e-01) (32, 4.70956981182098388672e-01) (33, -3.24948966503143310547e-01) (34, 4.18668657541275024414e-01) (35, 2.45032429695129394531e+00) (36, -2.55425721406936645508e-02) (37, 4.04224932193756103516e-01) (38, -2.82043409347534179688e+00) (39, -2.04908585548400878906e+00) (40, -1.32782876491546630859e+00) (41, 1.30269780755043029785e-01) (42, -3.30519407987594604492e-01) (43, -1.76356828212738037109e+00) (44, 2.27710723876953125000e+00) (45, -4.35446381568908691406e-01) (46, 3.06161975860595703125e+00) (47, -1.50752887129783630371e-01) (48, 4.20036458969116210938e+00) (49, 7.85566687583923339844e-01) (50, 2.45196342468261718750e+00) (51, 1.18334197998046875000e+00) (52, 2.36336141824722290039e-02) (53, -8.79444956779479980469e-01) (54, 6.79771840572357177734e-01) (55, 4.64247763156890869141e-01) (56, -5.55423736572265625000e-01) (57, -4.21498918533325195312e+00) (58, -3.28609913587570190430e-01) (59, 2.39257529377937316895e-01) (60, -1.51229357719421386719e+00) (61, 9.41461086273193359375e-01) (62, -4.57898259162902832031e-01) (63, 5.07298231124877929688e-01) (64, 3.52430403232574462891e-01) (65, -9.35089364647865295410e-02) (66, -6.81863367557525634766e-01) (67, 5.03715813159942626953e-01) (68, -9.42943245172500610352e-02) (69, -1.15902292728424072266e+00) (70, 2.88713257759809494019e-02) (71, -3.78412485122680664062e+00) (72, 1.77889056503772735596e-02) (73, 4.04481798410415649414e-01) (74, 5.34062027931213378906e-01) (75, 2.09161257743835449219e+00) (76, 5.23385524749755859375e-01) (77, -2.72186541557312011719e+00) (78, 4.02126073837280273438e-01) (79, 5.24526417255401611328e-01) (80, -1.14433717727661132812e+00) (81, -1.38273704051971435547e+00) (82, -4.88485097885131835938e+00) (83, 3.38187724351882934570e-01) (84, 1.21611046791076660156e+00) (85, -6.18044957518577575684e-02) (86, -1.02493214607238769531e+00) (87, -2.50378870964050292969e+00) (88, 8.36922451853752136230e-02) (89, 4.25786066055297851562e+00) (90, 3.31468224525451660156e+00) (91, -8.18076655268669128418e-02) (92, -2.58933830261230468750e+00) (93, 8.82284879684448242188e-01) (94, -7.02933120727539062500e+00) (95, -8.74963849782943725586e-02) (96, -7.91325151920318603516e-01) (97, -4.43054065108299255371e-02) (98, -1.15214698016643524170e-01) (99, 4.83149737119674682617e-01) (100, -7.59948194026947021484e-01) (0, 6.15491747856140136719e-01) (1, 5.14099180698394775391e-01) (2, 5.55092573165893554688e-01) (3, 1.19001224637031555176e-01) (4, 1.12579202651977539062e+00) (5, 4.75100803375244140625e+00) (6, -1.74634397029876708984e-01) (7, 3.00271081924438476562e+00) (8, 4.36564028263092041016e-01) (9, -5.45670613646507263184e-02) (10, 1.01718276739120483398e-01) (11, 9.82350036501884460449e-02) (12, 4.31096047163009643555e-01) (13, 2.94877266883850097656e+00) (14, 1.98977768421173095703e+00) (15, 1.71671390533447265625e-01) (16, -2.27539658546447753906e+00) (17, 1.88940897583961486816e-01) (18, -1.13019153475761413574e-01) (19, -2.09490370750427246094e+00) (20, 4.47941094636917114258e-01) (21, 4.71405051648616790771e-02) (22, 2.09606215357780456543e-01) (23, -9.77367982268333435059e-02) (24, -1.89801901578903198242e-01) (25, 4.99580383300781250000e-01) (26, -2.39127016067504882812e+00) (27, -5.51703929901123046875e+00) (28, -6.13170638680458068848e-02) (29, 1.38363521546125411987e-02) (30, -1.25059833526611328125e+01) (31, 4.62248897552490234375e+00) (32, 3.27557057142257690430e-01) (33, -1.46320450305938720703e+00) (34, 8.80369186401367187500e+00) (35, -4.01493072509765625000e+00) (36, 2.62774497270584106445e-01) (37, 3.58735918998718261719e+00) (38, -1.03418655395507812500e+01) (39, 3.54785054922103881836e-01) (40, 2.26610326766967773438e+00) (41, 1.32802709937095642090e-01) (42, 3.62931221723556518555e-01) (43, -1.68407753109931945801e-01) (44, 3.33074837923049926758e-01) (45, 3.73662352561950683594e-01) (46, -1.68974342346191406250e+01) (47, -3.14399623870849609375e+00) (48, -1.78313064575195312500e+00) (49, 1.99468061327934265137e-01) (50, -9.43761944770812988281e-01) (51, 1.01209144592285156250e+01) (52, 2.57432729005813598633e-01) (53, 5.27607321739196777344e-01) (54, 5.42296946048736572266e-01) (55, 3.44639301300048828125e-01) (56, -4.91969883441925048828e-01) (57, -1.11324281692504882812e+01) (58, 2.25387215614318847656e+00) (59, 6.97497606277465820312e-01) (60, 3.44558835029602050781e-01) (61, -1.23004186153411865234e+00) (62, 1.04177229106426239014e-01) (63, -4.07013940811157226562e+00) (64, -2.64668148010969161987e-02) (65, 5.11991262435913085938e+00) (66, -1.03384591639041900635e-01) (67, 5.03612458705902099609e-01) (68, 3.63874584436416625977e-02) (69, -2.17417478561401367188e+00) (70, 1.17288914043456315994e-03) (71, 1.83086109161376953125e+01) (72, 1.09422135353088378906e+00) (73, 3.89852905273437500000e+00) (74, -2.51361775398254394531e+00) (75, 1.01968135833740234375e+01) (76, 4.07724529504776000977e-01) (77, -2.14691162109375000000e+01) (78, 4.29730623960494995117e-01) (79, 4.02260482311248779297e-01) (80, -8.57803440093994140625e+00) (81, 1.41643714904785156250e+01) (82, -2.24958777427673339844e+00) (83, 5.40301465988159179688e+00) (84, -2.16623764038085937500e+01) (85, 1.28009259700775146484e-01) (86, 4.01036882400512695312e+00) (87, 4.32062578201293945312e+00) (88, 2.41564251482486724854e-02) (89, 6.27432775497436523438e+00) (90, 3.76289606094360351562e-01) (91, 5.28285932540893554688e+00) (92, -4.92436981201171875000e+00) (93, -4.43801768124103546143e-02) (94, -5.99434852600097656250e+00) (95, 1.65615826845169067383e-01) (96, 4.96473360061645507812e+00) (97, 4.92799915373325347900e-02) (98, 6.21093988418579101562e-01) (99, -2.52622902393341064453e-01) (100, 9.07917916774749755859e-02) (0, 4.66152578592300415039e-01) (1, 3.62617325782775878906e+00) (2, -9.22636985778808593750e-02) (3, 7.89889633655548095703e-01) (4, 1.53880715370178222656e-01) (5, -2.42665678262710571289e-01) (6, 4.19875812530517578125e+00) (7, 2.60195922851562500000e+00) (8, 7.04185843467712402344e-01) (9, 2.28229723870754241943e-02) (10, 2.94586628675460815430e-01) (11, 1.17399454116821289062e-01) (12, 2.97394633293151855469e-01) (13, 4.77445185184478759766e-01) (14, 2.03239560127258300781e+00) (15, 8.84683281183242797852e-02) (16, 1.69084936380386352539e-01) (17, 4.06151056289672851562e-01) (18, 7.51212164759635925293e-02) (19, 1.34651088714599609375e+00) (20, 3.81047815084457397461e-01) (21, 1.18878245353698730469e-01) (22, -3.05100455880165100098e-02) (23, 2.64877140522003173828e-01) (24, 1.38827362060546875000e+01) (25, 8.65381002426147460938e-01) (26, -3.76475378870964050293e-02) (27, 1.27043485641479492188e+01) (28, 2.70182579755783081055e-01) (29, -2.41603925824165344238e-02) (30, -4.40576449036598205566e-02) (31, 1.60582050681114196777e-01) (32, 1.45629569888114929199e-01) (33, -2.56832718849182128906e-01) (34, 3.48502349853515625000e+00) (35, 4.23935317993164062500e+00) (36, 1.11504353582859039307e-01) (37, 2.42564246058464050293e-01) (38, 2.53342285156250000000e+01) (39, 1.58970355987548828125e+00) (40, -9.95580777525901794434e-02) (41, 1.64132237434387207031e-01) (42, 4.40020471811294555664e-01) (43, 9.26801741123199462891e-01) (44, 2.70754009485244750977e-01) (45, -6.64135038852691650391e-01) (46, -8.08752155303955078125e+00) (47, 8.16791877150535583496e-02) (48, -4.27084323018789291382e-03) (49, 3.02206575870513916016e-01) (50, 6.98464012145996093750e+00) (51, 3.00094318389892578125e+00) (52, 2.29367166757583618164e-01) (53, 9.33136403560638427734e-01) (54, 5.62460422515869140625e-01) (55, 4.21963989734649658203e-01) (56, -5.81545770168304443359e-01) (57, -5.00597834587097167969e-01) (58, 7.45984971523284912109e-01) (59, -1.70515179634094238281e-01) (60, 1.53209418058395385742e-01) (61, 4.10630881786346435547e-01) (62, 1.65472943335771560669e-02) (63, 1.69222581386566162109e+00) (64, -1.35109150409698486328e+00) (65, 2.29422375559806823730e-01) (66, 1.66088178753852844238e-01) (67, 1.67905882000923156738e-01) (68, 1.57729685306549072266e-01) (69, 1.66636481881141662598e-01) (70, 3.79484474658966064453e-01) (71, 1.71022548675537109375e+01) (72, -4.41863462328910827637e-02) (73, 3.14369708299636840820e-01) (74, -8.45548138022422790527e-02) (75, 1.91818013787269592285e-01) (76, 2.42694392800331115723e-01) (77, -5.90491390228271484375e+00) (78, 7.75448977947235107422e-02) (79, 3.94283354282379150391e-01) (80, -3.18455547094345092773e-01) (81, 1.16005167365074157715e-02) (82, -3.52227091789245605469e+00) (83, 2.25560784339904785156e-01) (84, 1.07765254974365234375e+01) (85, 2.84477472305297851562e-01) (86, 7.74010539054870605469e-01) (87, -7.60483026504516601562e+00) (88, 5.23362219333648681641e-01) (89, 4.25381660461425781250e-01) (90, -4.02343899011611938477e-01) (91, 4.54287588596343994141e-01) (92, 1.55514793395996093750e+01) (93, 3.67460060119628906250e+00) (94, 7.30991810560226440430e-02) (95, -6.31749704480171203613e-02) (96, 1.08238058090209960938e+01) (97, 8.33752676844596862793e-02) (98, 7.16657817363739013672e-01) (99, 3.16922962665557861328e-02) (100, 2.41623610258102416992e-01) (0, -4.87063694000244140625e+00) (1, 2.00623393058776855469e-01) (2, 2.74419456720352172852e-01) (3, 6.37519419193267822266e-01) (4, 8.49902338813990354538e-04) (5, 4.05759990215301513672e-01) (6, -9.49962437152862548828e-03) (7, -4.61021333932876586914e-01) (8, 7.27157711982727050781e-01) (9, -3.62141877412796020508e-02) (10, 2.24678969383239746094e+00) (11, -5.90810328722000122070e-02) (12, 4.91656243801116943359e-01) (13, 2.19945001602172851562e+00) (14, 2.20324897766113281250e+00) (15, -3.70365381240844726562e-01) (16, -1.50419861078262329102e-01) (17, 5.39424598217010498047e-01) (18, -2.22421705722808837891e-01) (19, 1.40399888157844543457e-01) (20, 3.70582669973373413086e-01) (21, -1.24157793819904327393e-01) (22, -5.95398694276809692383e-02) (23, 3.65890622138977050781e-01) (24, -2.45753908157348632812e+00) (25, 6.40607833862304687500e-01) (26, -6.80346190929412841797e-01) (27, 5.16960620880126953125e-01) (28, -3.54842752218246459961e-01) (29, -1.38216543197631835938e+00) (30, 4.52016055583953857422e-01) (31, 3.50363135337829589844e-01) (32, 4.72034752368927001953e-01) (33, -5.99336698651313781738e-02) (34, 8.79957377910614013672e-01) (35, 4.50330317020416259766e-01) (36, -7.90516436100006103516e-02) (37, 5.86083769798278808594e-01) (38, 2.15332937240600585938e+00) (39, 3.95323723554611206055e-01) (40, -1.06940960884094238281e+00) (41, -1.48214325308799743652e-01) (42, 1.87053635716438293457e-01) (43, 2.35001301765441894531e+00) (44, -3.84432584047317504883e-01) (45, -3.12546253204345703125e-01) (46, 4.79821749031543731689e-02) (47, -1.22666008770465850830e-01) (48, 2.68384873867034912109e-01) (49, 5.09698271751403808594e-01) (50, 4.51688766479492187500e+00) (51, 4.60549920797348022461e-01) (52, 1.25673770904541015625e+00) (53, 3.59710335731506347656e-01) (54, 6.25331044197082519531e-01) (55, 4.86557245254516601562e+00) (56, -6.22921407222747802734e-01) (57, 6.32640779018402099609e-01) (58, -2.47434043884277343750e+00) (59, 2.91425943374633789062e-01) (60, -1.00864410400390625000e-01) (61, 2.37870812416076660156e+00) (62, -2.42846107482910156250e+00) (63, -2.25064659118652343750e+00) (64, 2.56316602230072021484e-01) (65, 3.61443638801574707031e+00) (66, -5.67366480827331542969e-01) (67, 3.75122219324111938477e-01) (68, -2.45505198836326599121e-01) (69, -6.70871809124946594238e-02) (70, 3.33853927440941333771e-03) (71, 1.09719216823577880859e+00) (72, 3.51192140579223632812e+00) (73, 4.55917477607727050781e-01) (74, 2.01386839151382446289e-01) (75, 2.53973889350891113281e+00) (76, 6.06493294239044189453e-01) (77, 1.01131105422973632812e+00) (78, 3.16595613956451416016e-01) (79, 5.25685846805572509766e-01) (80, -8.67717146873474121094e-01) (81, -1.00164759159088134766e+00) (82, 5.49247022718191146851e-03) (83, 3.07357646524906158447e-02) (84, 1.36586368083953857422e+00) (85, 8.85811075568199157715e-02) (86, 1.16960144042968750000e+00) (87, -7.55264312028884887695e-02) (88, -1.34556859731674194336e-01) (89, 4.18904982507228851318e-03) (90, 1.43483507633209228516e+00) (91, -3.41991066932678222656e+00) (92, -1.81877779960632324219e+00) (93, -1.44559368491172790527e-01) (94, 4.87170457839965820312e-01) (95, -1.63644671440124511719e-01) (96, 2.95128583908081054688e+00) (97, 1.58056803047657012939e-02) (98, 1.53427854180335998535e-01) (99, 4.39453214406967163086e-01) (100, -3.88550132513046264648e-01) (0, 1.34199273586273193359e+00) (1, -7.42865264415740966797e-01) (2, -1.07270836830139160156e+00) (3, 3.35872840881347656250e+00) (4, 3.63498687744140625000e-01) (5, -6.28134071826934814453e-01) (6, -1.90844035148620605469e+00) (7, -6.21908044815063476562e+00) (8, 2.30777668952941894531e+00) (9, 2.69371598958969116211e-01) (10, 9.76233243942260742188e-01) (11, 3.54910075664520263672e-01) (12, -1.60074383020401000977e-01) (13, 1.02313891053199768066e-01) (14, 3.97730946540832519531e+00) (15, 4.61700081825256347656e-01) (16, 1.77554041147232055664e-01) (17, -1.26240223646163940430e-01) (18, 2.59931802749633789062e-01) (19, 7.31201708316802978516e-01) (20, 9.22359943389892578125e-01) (21, 4.03800129890441894531e-01) (22, 7.88538530468940734863e-02) (23, 2.52115219831466674805e-01) (24, 6.88905858993530273438e+00) (25, 1.27201032638549804688e+00) (26, -9.91252064704895019531e-02) (27, 3.12852334976196289062e+00) (28, 3.50890666246414184570e-01) (29, 8.95394980907440185547e-02) (30, 2.20999151468276977539e-01) (31, 1.75154313445091247559e-01) (32, 2.88017205893993377686e-02) (33, -6.63500130176544189453e-01) (34, -1.39722132682800292969e+00) (35, -2.50035941600799560547e-01) (36, 3.93136680126190185547e-01) (37, 1.13684004172682762146e-02) (38, -3.54200291633605957031e+00) (39, -5.19765555858612060547e-01) (40, 1.13561296463012695312e+00) (41, 1.01104879379272460938e+00) (42, 4.78415489196777343750e-02) (43, 2.97420287132263183594e+00) (44, 2.36693173646926879883e-01) (45, -4.23806571960449218750e+00) (46, -3.50741410255432128906e+00) (47, 2.94430077075958251953e-01) (48, -1.39860451221466064453e+00) (49, -1.19701214134693145752e-02) (50, 5.49220943450927734375e+00) (51, 3.04227530956268310547e-01) (52, 8.19083809852600097656e-01) (53, 3.73098880052566528320e-01) (54, 1.47069311141967773438e+00) (55, -2.42952838540077209473e-01) (56, -7.16137111186981201172e-01) (57, -8.94043028354644775391e-01) (58, 1.54097568988800048828e+00) (59, -2.31545552611351013184e-01) (60, 9.58340346813201904297e-01) (61, -2.54512524604797363281e+00) (62, -7.15750408172607421875e+00) (63, 2.15062260627746582031e+00) (64, -8.13406944274902343750e-01) (65, 7.19773888587951660156e-01) (66, 1.96409910917282104492e-01) (67, -1.24057397246360778809e-01) (68, 2.57208585739135742188e-01) (69, 4.61785823106765747070e-01) (70, 7.62447118759155273438e-01) (71, 4.16077947616577148438e+00) (72, -8.00377249717712402344e-01) (73, 6.77565410733222961426e-02) (74, -5.54565340280532836914e-02) (75, 5.14327049255371093750e-01) (76, -1.44716858863830566406e-01) (77, 1.36609876155853271484e+00) (78, 2.62723714113235473633e-01) (79, 1.35262167453765869141e+00) (80, -2.28070998191833496094e+00) (81, 6.80167675018310546875e-02) (82, -8.67081955075263977051e-02) (83, 2.06713870167732238770e-01) (84, -1.89076042175292968750e+00) (85, 8.46594393253326416016e-01) (86, 6.78442430496215820312e+00) (87, -2.50803661346435546875e+00) (88, 1.26730096340179443359e+00) (89, 2.85764664411544799805e-01) (90, -9.17679011821746826172e-01) (91, 8.50928425788879394531e-01) (92, -2.21415591239929199219e+00) (93, 9.63069021701812744141e-01) (94, 8.08548986911773681641e-01) (95, -1.60305604338645935059e-01) (96, 4.30046463012695312500e+00) (97, 6.36141419410705566406e-01) (98, 5.82503223419189453125e+00) (99, -7.52796083688735961914e-02) (100, 2.87633568048477172852e-01) (0, 2.40760660171508789062e+00) (1, 4.51489639282226562500e+00) (2, -1.01543915271759033203e+00) (3, 3.53774040937423706055e-01) (4, 9.29672002792358398438e-01) (5, -1.80840656161308288574e-01) (6, 2.65324503183364868164e-01) (7, 2.16426029801368713379e-01) (8, -3.42634868621826171875e+00) (9, 2.40701377391815185547e-01) (10, -2.98973035812377929688e+00) (11, -1.45677769184112548828e+00) (12, 2.07925736904144287109e-02) (13, -2.07722067832946777344e+00) (14, 5.33507013320922851562e+00) (15, 4.54450994729995727539e-01) (16, 4.22745794057846069336e-01) (17, 6.69461309909820556641e-01) (18, 2.41424942016601562500e+00) (19, 6.36755406856536865234e-01) (20, -6.74966394901275634766e-01) (21, 4.95795518159866333008e-01) (22, 4.24924492835998535156e-01) (23, -6.32917741313576698303e-03) (24, 4.90939712524414062500e+00) (25, -1.57847940921783447266e-01) (26, -3.00792157649993896484e-01) (27, -1.16984927654266357422e+00) (28, 3.65723967552185058594e-01) (29, 5.28152346611022949219e-01) (30, 5.20373773574829101562e+00) (31, 2.09860682487487792969e+00) (32, -7.33169987797737121582e-02) (33, 6.74880170822143554688e+00) (34, 3.20442628860473632812e+00) (35, -3.40857720375061035156e+00) (36, 1.42520293593406677246e-01) (37, -1.29122030735015869141e+00) (38, 6.42845869064331054688e+00) (39, -1.62322254180908203125e+01) (40, -4.42894548177719116211e-01) (41, 3.26104640960693359375e-01) (42, 6.25209748744964599609e-01) (43, 7.76148676872253417969e-01) (44, 3.34508359432220458984e-01) (45, 5.31484317779541015625e+00) (46, -2.81901717185974121094e+00) (47, 3.53958845138549804688e-01) (48, -4.18791592121124267578e-01) (49, -2.12655472755432128906e+00) (50, -5.24472653865814208984e-01) (51, -1.67641267180442810059e-01) (52, 5.48536121845245361328e-01) (53, 1.21854138374328613281e+00) (54, -5.33151865005493164062e-01) (55, -3.43306231498718261719e+00) (56, 6.93912029266357421875e-01) (57, -1.02593116760253906250e+01) (58, -2.00409404933452606201e-02) (59, -2.46136665344238281250e-01) (60, 5.77527403831481933594e-01) (61, -4.24458414316177368164e-01) (62, 1.34227931499481201172e+00) (63, -1.67966747283935546875e+00) (64, 1.72776103019714355469e+00) (65, 5.25835454463958740234e-01) (66, 2.60617822408676147461e-01) (67, -5.55619478225708007812e+00) (68, 5.31574487686157226562e-01) (69, 3.21668535470962524414e-01) (70, 4.83192116022109985352e-01) (71, 3.73880195617675781250e+00) (72, 1.30848243832588195801e-01) (73, -2.00915202498435974121e-01) (74, -5.08939251303672790527e-02) (75, 3.43848109245300292969e-01) (76, 3.93809899687767028809e-02) (77, -4.26662635803222656250e+00) (78, -1.09358608722686767578e-01) (79, 1.38136938214302062988e-01) (80, 1.80883795022964477539e-01) (81, 1.21799719333648681641e+00) (82, -3.49957919120788574219e+00) (83, -3.87410700321197509766e-01) (84, -8.44740509986877441406e-01) (85, 6.48232460021972656250e-01) (86, -8.76140975952148437500e+00) (87, -5.01724386215209960938e+00) (88, 1.11598126590251922607e-01) (89, -7.12066292762756347656e-01) (90, -1.99119961261749267578e+00) (91, 2.14049959182739257812e+00) (92, -5.34458065032958984375e+00) (93, 5.82661986351013183594e-01) (94, 6.15052223205566406250e-01) (95, 1.11293756961822509766e+00) (96, -5.29216289520263671875e+00) (97, 4.55728411674499511719e-01) (98, -1.04200830459594726562e+01) (99, -1.38895735144615173340e-01) (100, 4.79392945766448974609e-01) (0, 7.09111839532852172852e-02) (1, 2.08213672041893005371e-01) (2, -4.68142271041870117188e-01) (3, 6.95881426334381103516e-01) (4, 3.88274528086185455322e-02) (5, 2.90071427822113037109e-01) (6, 9.18463587760925292969e-01) (7, 1.17046046257019042969e+00) (8, 8.43764901161193847656e-01) (9, -1.32176250219345092773e-01) (10, 3.77529501914978027344e-01) (11, -8.80239382386207580566e-02) (12, 6.47429823875427246094e-01) (13, 5.65708935260772705078e-01) (14, -3.47905158996582031250e+00) (15, -2.99013331532478332520e-02) (16, -3.66373658180236816406e-02) (17, -4.27634030580520629883e-01) (18, -5.04754334688186645508e-02) (19, 2.10652992129325866699e-01) (20, 5.99006474018096923828e-01) (21, 1.35605454444885253906e-01) (22, -1.89019322395324707031e-01) (23, 4.99296158552169799805e-01) (24, 1.80479383468627929688e+00) (25, 5.46657204627990722656e-01) (26, 4.62966918945312500000e-01) (27, -2.52861571311950683594e+00) (28, 5.86207509040832519531e-02) (29, -1.41170561313629150391e+00) (30, 4.85287547111511230469e-01) (31, -1.83523803949356079102e-01) (32, 4.18111979961395263672e-01) (33, -1.77315294742584228516e-01) (34, 7.83068656921386718750e-01) (35, 9.18954014778137207031e-01) (36, -3.26553080230951309204e-03) (37, 5.90790748596191406250e-01) (38, 3.32253789901733398438e+00) (39, 4.65364307165145874023e-01) (40, 3.71779948472976684570e-01) (41, -1.73368468880653381348e-01) (42, 4.61214452981948852539e-01) (43, 3.00462746620178222656e+00) (44, -1.90887823700904846191e-01) (45, -4.91857603192329406738e-02) (46, 6.55785083770751953125e-01) (47, -2.02745348215103149414e-02) (48, -1.35905534029006958008e-01) (49, 1.28440213203430175781e+00) (50, 7.11296439170837402344e-01) (51, -2.57380008697509765625e+00) (52, 8.67978110909461975098e-03) (53, 3.97796130180358886719e+00) (54, 5.86892440915107727051e-02) (55, 6.45246267318725585938e-01) (56, -9.27754163742065429688e-01) (57, -4.12205791473388671875e+00) (58, -2.25844070315361022949e-01) (59, 5.44317960739135742188e-02) (60, -3.43653023242950439453e-01) (61, 8.63540709018707275391e-01) (62, 1.89928865432739257812e+00) (63, 1.97319936752319335938e+00) (64, -6.96289492771029472351e-03) (65, -1.58758804202079772949e-01) (66, -6.71980142593383789062e-01) (67, 1.11449229717254638672e+00) (68, 3.50111462175846099854e-02) (69, -7.37579703330993652344e-01) (70, -9.21136960387229919434e-02) (71, 1.73473334312438964844e+00) (72, 1.60838946700096130371e-01) (73, 4.91880863904953002930e-01) (74, 4.90790039300918579102e-01) (75, 6.36027514934539794922e-01) (76, 6.15230500698089599609e-01) (77, 3.41906040906906127930e-01) (78, -1.68832707405090332031e+00) (79, 4.96347576379776000977e-01) (80, 1.49249970912933349609e+00) (81, -1.56379783153533935547e+00) (82, -1.57533454895019531250e+00) (83, 2.84237653017044067383e-01) (84, 3.69997215270996093750e+00) (85, -7.18640536069869995117e-02) (86, -3.08657288551330566406e+00) (87, 1.16069412231445312500e+00) (88, 2.15564742684364318848e-01) (89, 5.77851414680480957031e-01) (90, -1.41118958592414855957e-01) (91, 1.87757208943367004395e-01) (92, -3.86949825286865234375e+00) (93, -7.64985024929046630859e-01) (94, 1.91890890710055828094e-03) (95, 7.38325938582420349121e-02) (96, -2.57234930992126464844e+00) (97, 1.51382992044091224670e-02) (98, 5.87574988603591918945e-02) (99, 5.51678299903869628906e-01) (100, -1.84531509876251220703e-01) (0, -9.73908233642578125000e+00) (1, 3.88398647308349609375e-01) (2, 4.71463859081268310547e-01) (3, 1.76507139205932617188e+00) (4, 4.01351451873779296875e-01) (5, -6.57768994569778442383e-02) (6, 1.02153933048248291016e+00) (7, -5.47499704360961914062e+00) (8, 2.97388291358947753906e+00) (9, 2.11204644292593002319e-02) (10, 6.24225080013275146484e-01) (11, 3.39403003454208374023e-01) (12, -1.77497833967208862305e-01) (13, -9.31330680847167968750e-01) (14, -4.38516408205032348633e-01) (15, 5.51714122295379638672e-01) (16, 4.80896860361099243164e-01) (17, -3.52955484390258789062e+00) (18, 4.47614848613739013672e-01) (19, 9.53761875629425048828e-01) (20, 4.56760197877883911133e-01) (21, 6.13910794258117675781e-01) (22, 4.41153675317764282227e-01) (23, -2.24394779652357101440e-02) (24, 2.93065094947814941406e+00) (25, -7.20124021172523498535e-02) (26, 4.88622844219207763672e-01) (27, 2.62843400239944458008e-01) (28, -4.58088684082031250000e+00) (29, 5.38802099227905273438e+00) (30, -2.19392108917236328125e+00) (31, -3.30580677837133407593e-03) (32, -2.00901567935943603516e-01) (33, 2.21724420785903930664e-01) (34, -4.65690183639526367188e+00) (35, 3.61611151695251464844e+00) (36, 3.27743798494338989258e-01) (37, 3.03078331053256988525e-02) (38, -6.68459129333496093750e+00) (39, -1.25294625759124755859e+00) (40, -7.99368238449096679688e+00) (41, 4.85793411731719970703e-01) (42, 4.34171967208385467529e-02) (43, -5.28296768665313720703e-01) (44, 5.09286940097808837891e-01) (45, 3.24212491512298583984e-01) (46, 6.23085546493530273438e+00) (47, 6.56165897846221923828e-01) (48, 1.66876427829265594482e-02) (49, -2.21950396895408630371e-01) (50, 1.11292874813079833984e+00) (51, 2.32084774971008300781e+00) (52, 4.92606341838836669922e-01) (53, 1.24883246421813964844e+00) (54, 1.59541440010070800781e+00) (55, -1.10556147992610931396e-01) (56, 3.93480807542800903320e-01) (57, -4.54885911941528320312e+00) (58, 1.75783371925354003906e+00) (59, -1.26426562666893005371e-01) (60, 1.02191400527954101562e+00) (61, -5.54122686386108398438e-01) (62, 3.72974723577499389648e-01) (63, 3.38368391990661621094e+00) (64, -1.02255478501319885254e-01) (65, 5.27326703071594238281e-01) (66, 5.89701712131500244141e-01) (67, 1.18688404560089111328e+00) (68, 1.04514002799987792969e-01) (69, 2.36838683485984802246e-01) (70, 8.26939105987548828125e-01) (71, -4.57332563400268554688e+00) (72, -2.45854139328002929688e+00) (73, -3.12113076448440551758e-01) (74, 4.20753322541713714600e-02) (75, -3.96524697542190551758e-01) (76, -2.86950916051864624023e-01) (77, 4.46592712402343750000e+00) (78, -3.18833291530609130859e-02) (79, 5.71353971958160400391e-01) (80, -8.84861373901367187500e+00) (81, -1.30976188182830810547e+00) (82, 4.05921077728271484375e+00) (83, 1.57223746180534362793e-01) (84, 2.64995121955871582031e+00) (85, 5.56823492050170898438e-01) (86, 9.96460556983947753906e-01) (87, -2.81609773635864257812e-01) (88, 7.19905078411102294922e-01) (89, 5.78077852725982666016e-01) (90, 5.45476615428924560547e-01) (91, 5.29384195804595947266e-01) (92, -8.24857771396636962891e-01) (93, 4.78931617736816406250e+00) (94, 4.06245321035385131836e-01) (95, 2.23013684153556823730e-01) (96, -1.62135601043701171875e+00) (97, 4.94918823242187500000e-01) (98, -3.27468681335449218750e+00) (99, 8.57834041118621826172e-01) (100, 3.93306434154510498047e-01) (0, 5.43462455272674560547e-01) (1, -1.85402500629425048828e+00) (2, 1.67206001281738281250e+00) (3, -1.39882922172546386719e+00) (4, -2.69068241119384765625e+00) (5, -3.03523510694503784180e-01) (6, -6.09073758125305175781e-01) (7, 3.98263287544250488281e+00) (8, 3.12616199254989624023e-01) (9, 2.52184003591537475586e-01) (10, -4.92857038974761962891e-01) (11, 5.70739626884460449219e-01) (12, -3.43388319015502929688e-01) (13, -2.05295634269714355469e+00) (14, 9.51132237911224365234e-01) (15, 1.77178427577018737793e-01) (16, -3.31890322268009185791e-02) (17, 1.32144999504089355469e+00) (18, -3.96261024475097656250e+00) (19, -4.32804536819458007812e+00) (20, -5.64159488677978515625e+00) (21, 1.92621803283691406250e+00) (22, 3.28083574771881103516e-01) (23, 1.35619249194860458374e-02) (24, -5.43866968154907226562e+00) (25, -1.05941705703735351562e+01) (26, -1.81092172861099243164e-01) (27, 8.44912528991699218750e+00) (28, 5.06449031829833984375e+00) (29, 2.74452066421508789062e+00) (30, -6.14256238937377929688e+00) (31, -1.14550056457519531250e+01) (32, -2.76950538158416748047e-01) (33, -3.35858631134033203125e+00) (34, -3.84564781188964843750e+00) (35, 5.31044542789459228516e-01) (36, 1.48441922664642333984e+00) (37, 1.16494141519069671631e-01) (38, -1.17114486694335937500e+01) (39, 2.37488842010498046875e+00) (40, 4.80183601379394531250e+00) (41, -9.70299765467643737793e-02) (42, 1.93213075399398803711e-01) (43, 3.16016840934753417969e+00) (44, 3.27548652887344360352e-01) (45, 3.67300540208816528320e-01) (46, 9.55494689941406250000e+00) (47, 1.96770027279853820801e-01) (48, -5.82365846633911132812e+00) (49, 4.09842103719711303711e-01) (50, 5.92394065856933593750e+00) (51, 1.87684949487447738647e-02) (52, 6.72796106338500976562e+00) (53, -9.53509688377380371094e-01) (54, 7.98964351415634155273e-02) (55, 1.96237087249755859375e-01) (56, 2.14394664764404296875e+00) (57, -1.71953952312469482422e+00) (58, -1.42880415916442871094e+00) (59, -1.44726955890655517578e+00) (60, 5.03405869007110595703e-01) (61, 2.84480357170104980469e+00) (62, -6.93548297882080078125e+00) (63, 5.05550575256347656250e+00) (64, -1.63698822259902954102e-01) (65, 4.50792580842971801758e-01) (66, 4.10686098039150238037e-02) (67, 9.76338744163513183594e-01) (68, -1.29065108299255371094e+00) (69, -3.74756395816802978516e-01) (70, -6.50247395038604736328e-01) (71, 6.00574588775634765625e+00) (72, 6.16650199890136718750e+00) (73, -2.92853534221649169922e-01) (74, 2.68882304430007934570e-01) (75, -1.13041901588439941406e+00) (76, -2.03640554100275039673e-02) (77, 2.76523113250732421875e+00) (78, -7.28955725207924842834e-03) (79, 1.38771742582321166992e-01) (80, -1.24343407154083251953e+00) (81, -8.34306049346923828125e+00) (82, 5.95495641231536865234e-01) (83, -5.32920885086059570312e+00) (84, -4.52477645874023437500e+00) (85, 4.73350822925567626953e-01) (86, 1.06004667282104492188e+00) (87, 6.97739601135253906250e+00) (88, 6.28808975219726562500e-01) (89, -2.84022361040115356445e-01) (90, 1.67374444007873535156e+00) (91, -1.74440169334411621094e+00) (92, 2.54130935668945312500e+00) (93, -1.30087837576866149902e-01) (94, -8.31906318664550781250e-01) (95, 6.02132892608642578125e+00) (96, -1.66273152828216552734e+00) (97, 4.23862409591674804688e+00) (98, -6.73427963256835937500e+00) (99, 1.37977123260498046875e+01) (100, 5.15395402908325195312e-01) (0, 1.30598708987236022949e-01) (1, -3.96767973899841308594e+00) (2, 4.52649921178817749023e-01) (3, -9.75415036082267761230e-02) (4, 5.78015387058258056641e-01) (5, 3.94759893417358398438e+00) (6, 3.95862489938735961914e-01) (7, 2.27689325809478759766e-01) (8, 2.56973743438720703125e-01) (9, 1.38085126876831054688e-01) (10, 5.06727159023284912109e-01) (11, 4.33650612831115722656e-01) (12, 5.49086749553680419922e-01) (13, 4.11197394132614135742e-02) (14, 8.13948631286621093750e+00) (15, 5.30260086059570312500e-01) (16, 5.09391903877258300781e-01) (17, 6.91500663757324218750e-01) (18, 3.68453204631805419922e-01) (19, 2.95924425125122070312e-01) (20, 1.45374462008476257324e-01) (21, 4.57609742879867553711e-01) (22, 3.87065500020980834961e-01) (23, 1.25927738845348358154e-02) (24, -2.60439753532409667969e-01) (25, 1.28246083855628967285e-01) (26, 3.43512356281280517578e-01) (27, 2.35107493400573730469e+00) (28, 2.79828071594238281250e-01) (29, 4.27120089530944824219e-01) (30, -4.09373044967651367188e-02) (31, -9.79537442326545715332e-02) (32, 1.55608626082539558411e-02) (33, 1.79973810911178588867e-01) (34, -7.46673107147216796875e+00) (35, -3.90014362335205078125e+00) (36, 5.52964508533477783203e-01) (37, 8.35622325539588928223e-02) (38, 6.48468828201293945312e+00) (39, -1.54444777965545654297e+00) (40, 3.87041878700256347656e+00) (41, 6.01590692996978759766e-01) (42, 8.37443768978118896484e-02) (43, -7.33529186248779296875e+00) (44, 1.77514359354972839355e-01) (45, 3.21444749832153320312e-01) (46, 8.86252045631408691406e-01) (47, 2.82171875238418579102e-01) (48, -2.54243854433298110962e-02) (49, 6.67381763458251953125e-01) (50, 2.79210615158081054688e+00) (51, -8.28002616763114929199e-02) (52, 2.87218004465103149414e-01) (53, 7.52877414226531982422e-01) (54, 4.41662147641181945801e-02) (55, -7.44019603729248046875e+00) (56, 2.09439694881439208984e-01) (57, -3.65264105796813964844e+00) (58, 6.18904195725917816162e-02) (59, 1.01763658225536346436e-01) (60, 8.50530385971069335938e-01) (61, 1.77478551864624023438e-01) (62, -1.57298457622528076172e+00) (63, -1.22732043266296386719e+00) (64, 1.30747735500335693359e-01) (65, 5.39745569229125976562e-01) (66, 4.71879333257675170898e-01) (67, -6.57312795519828796387e-02) (68, 3.06206315755844116211e-01) (69, 1.39894199371337890625e+00) (70, 5.46876251697540283203e-01) (71, 1.28903436660766601562e+00) (72, 4.80407923460006713867e-01) (73, -2.20185127109289169312e-02) (74, 1.83496084064245223999e-02) (75, -4.67869043350219726562e+00) (76, -2.18969985842704772949e-01) (77, 6.52577972412109375000e+00) (78, 1.27781748771667480469e-01) (79, 1.26144573092460632324e-01) (80, 4.84278619289398193359e-01) (81, -1.25700443983078002930e-01) (82, -1.66868896484375000000e+01) (83, 1.45052659511566162109e+00) (84, -2.16410255432128906250e+00) (85, 6.66116595268249511719e-01) (86, 2.47065126895904541016e-01) (87, -7.44088590145111083984e-01) (88, 4.70883935689926147461e-01) (89, -2.16480433940887451172e-01) (90, 8.11134219169616699219e-01) (91, 6.73019587993621826172e-01) (92, 2.28803730010986328125e+00) (93, 6.02853298187255859375e-01) (94, 4.29232627153396606445e-01) (95, 3.87209832668304443359e-01) (96, 4.93841552734375000000e+00) (97, -1.22347104549407958984e+00) (98, 7.72696256637573242188e-01) (99, -1.02634608745574951172e+00) (100, 5.22563094273209571838e-03) (0, 4.17779535055160522461e-01) (1, 3.65064293146133422852e-02) (2, -6.18090201169252395630e-03) (3, -1.50003835558891296387e-01) (4, 2.03942000865936279297e-01) (5, -1.64968192577362060547e-01) (6, 5.66449499130249023438e+00) (7, 2.87924349308013916016e-01) (8, 6.33430361747741699219e-01) (9, 1.26410529017448425293e-01) (10, 2.72886753082275390625e-01) (11, 1.12487047910690307617e-01) (12, 2.30699941515922546387e-01) (13, 4.34763222932815551758e-01) (14, 1.22305145263671875000e+01) (15, 3.55015322566032409668e-02) (16, 7.35524371266365051270e-02) (17, 2.79083281755447387695e-01) (18, 1.60642027854919433594e-01) (19, -5.53677417337894439697e-02) (20, 5.06295800209045410156e-01) (21, 2.46725790202617645264e-02) (22, -1.44869506359100341797e-01) (23, 2.43541151285171508789e-01) (24, 2.17760276794433593750e+00) (25, 5.09761929512023925781e-01) (26, -7.69535958766937255859e-01) (27, -3.81300711631774902344e+00) (28, 1.23285487294197082520e-01) (29, 3.14040035009384155273e-02) (30, 4.52978461980819702148e-01) (31, 2.24722281098365783691e-01) (32, 2.63538300991058349609e-01) (33, -3.83318096399307250977e-01) (34, 8.28409385681152343750e+00) (35, -5.68893480300903320312e+00) (36, 6.55765607953071594238e-02) (37, 1.29741400480270385742e-01) (38, 2.08636684417724609375e+01) (39, 3.35436195135116577148e-01) (40, 1.12845087051391601562e+00) (41, 3.24808843433856964111e-02) (42, 4.18773114681243896484e-01) (43, -1.52090907096862792969e+00) (44, 9.29745472967624664307e-03) (45, -4.02747362852096557617e-01) (46, -1.65563011169433593750e+01) (47, 1.04247108101844787598e-01) (48, 1.73956885933876037598e-01) (49, 4.97247964143753051758e-01) (50, 1.53699851036071777344e+00) (51, 3.52509945631027221680e-01) (52, 2.49114632606506347656e-01) (53, 6.33520245552062988281e-01) (54, 4.63680714368820190430e-01) (55, 2.26731866598129272461e-01) (56, -1.19265234470367431641e+00) (57, -4.03713750839233398438e+00) (58, 2.29257631301879882812e+00) (59, 3.92322801053524017334e-02) (60, 4.08068448305130004883e-01) (61, 8.80973637104034423828e-01) (62, -5.19462823867797851562e-01) (63, -3.25721025466918945312e+00) (64, -3.39129388332366943359e-01) (65, 2.46108382940292358398e-01) (66, -5.46483621001243591309e-02) (67, 1.70234829187393188477e-01) (68, 1.04782972484827041626e-02) (69, -2.38404748961329460144e-03) (70, 4.42272573709487915039e-01) (71, 1.18196475505828857422e+00) (72, -3.09870839118957519531e+00) (73, 2.72062003612518310547e-01) (74, -1.02775819599628448486e-01) (75, -9.64663743972778320312e-01) (76, 3.27201426029205322266e-01) (77, 3.77086544036865234375e+00) (78, 3.73093992471694946289e-01) (79, 4.77742373943328857422e-01) (80, 1.94767999649047851562e+00) (81, 8.07545244693756103516e-01) (82, 3.41527414321899414062e+00) (83, 5.98726153373718261719e-01) (84, -8.55935668945312500000e+00) (85, 3.76062601804733276367e-01) (86, 3.68466258049011230469e+00) (87, -6.02422618865966796875e+00) (88, 5.01052081584930419922e-01) (89, 4.77211505174636840820e-01) (90, 1.41536042094230651855e-01) (91, 3.16290497779846191406e-01) (92, -6.83405876159667968750e+00) (93, -2.68789201974868774414e-01) (94, 2.25638017058372497559e-01) (95, 7.19097480177879333496e-02) (96, -3.68438577651977539062e+00) (97, 1.68998036533594131470e-02) (98, 5.87058961391448974609e-01) (99, -6.72973096370697021484e-02) (100, 1.15711465477943420410e-01) (0, 1.89433827996253967285e-01) (1, 1.47873088717460632324e-01) (2, 6.07767820358276367188e-01) (3, 3.31998914480209350586e-01) (4, 5.16095578670501708984e-01) (5, -2.25584954023361206055e-01) (6, 9.09919738769531250000e-01) (7, -2.47590035200119018555e-01) (8, 2.03225240111351013184e-01) (9, 3.48757237195968627930e-01) (10, 1.34429585933685302734e+00) (11, 6.05518579483032226562e-01) (12, -4.23747348785400390625e+00) (13, 6.84965997934341430664e-02) (14, 3.08972215652465820312e+00) (15, 4.92122143507003784180e-01) (16, 4.62870806455612182617e-01) (17, -1.38128590583801269531e+00) (18, 4.16505634784698486328e-01) (19, 3.64760875701904296875e+00) (20, 1.92161536216735839844e+00) (21, 5.86565971374511718750e-01) (22, 6.50725555419921875000e+00) (23, -1.47193491458892822266e-01) (24, 2.78930091857910156250e+00) (25, -1.15421259403228759766e+00) (26, 3.64887738227844238281e+00) (27, -2.83411049842834472656e+00) (28, 1.74671784043312072754e-01) (29, 2.36159873008728027344e+00) (30, 2.94579379260540008545e-02) (31, 6.63691997528076171875e+00) (32, -5.54155397415161132812e+00) (33, -9.03379619121551513672e-01) (34, 2.59693473577499389648e-01) (35, 1.17731275558471679688e+01) (36, 4.44743394851684570312e-01) (37, 6.00307099521160125732e-02) (38, 1.82555160522460937500e+01) (39, 1.06926865875720977783e-01) (40, -2.42481708526611328125e+00) (41, 5.92725157737731933594e-01) (42, 1.15905389189720153809e-01) (43, -2.32133698463439941406e+00) (44, 4.50950384140014648438e-01) (45, 2.46708631515502929688e-01) (46, -3.81901254877448081970e-03) (47, 6.32183015346527099609e-01) (48, -6.79112821817398071289e-02) (49, -1.02110338211059570312e+00) (50, -2.27878284454345703125e+00) (51, 9.44113805890083312988e-02) (52, 4.81458038091659545898e-01) (53, 6.44439518451690673828e-01) (54, 3.50741171836853027344e+00) (55, 9.21326130628585815430e-03) (56, -3.42302131652832031250e+00) (57, 1.19755268096923828125e+00) (58, 8.09552288055419921875e+00) (59, -1.21136479079723358154e-01) (60, 1.22331607341766357422e+00) (61, -2.17440986633300781250e+00) (62, 1.80039179325103759766e+00) (63, 4.70983409881591796875e+00) (64, -2.43218824267387390137e-01) (65, -1.13023847341537475586e-01) (66, 6.75570964813232421875e-01) (67, 6.48732185363769531250e+00) (68, 4.18806999921798706055e-01) (69, 3.74075818061828613281e+00) (70, -3.19178748130798339844e+00) (71, 5.58957052230834960938e+00) (72, 3.66730868816375732422e-01) (73, 1.67625352740287780762e-01) (74, -1.38599887490272521973e-01) (75, -7.77426213026046752930e-02) (76, -9.65253934264183044434e-02) (77, 2.73171275854110717773e-01) (78, -1.77857697010040283203e-01) (79, 1.01934686303138732910e-01) (80, -3.38382720947265625000e-01) (81, 4.03865486383438110352e-01) (82, -2.60747814178466796875e+00) (83, 9.61015343666076660156e-01) (84, 8.26466083526611328125e+00) (85, 5.91889977455139160156e-01) (86, 1.02161245346069335938e+01) (87, 4.72615957260131835938e-01) (88, 4.71639573574066162109e-01) (89, -2.63101482391357421875e+00) (90, 1.73662209510803222656e+00) (91, 1.93009033799171447754e-01) (92, 5.88241624832153320312e+00) (93, -4.14443683624267578125e+00) (94, 4.65537011623382568359e-01) (95, 3.98804277181625366211e-01) (96, -7.62424516677856445312e+00) (97, 5.40090978145599365234e-01) (98, -2.34951925277709960938e+00) (99, -2.75167465209960937500e-01) (100, 3.24384957551956176758e-01) (0, 1.76704823970794677734e-01) (1, -3.24211150407791137695e-01) (2, -1.89653706550598144531e+00) (3, -5.00740146636962890625e+00) (4, 4.99380499124526977539e-01) (5, 2.31144547462463378906e-01) (6, -4.20770549774169921875e+00) (7, 3.79221129417419433594e+00) (8, 7.35168695449829101562e-01) (9, 5.46408630907535552979e-02) (10, 4.22036916017532348633e-01) (11, 3.92484992742538452148e-01) (12, -4.50415983796119689941e-02) (13, -9.11981487274169921875e+00) (14, -3.25352001190185546875e+00) (15, 3.89696657657623291016e-01) (16, 6.09125137329101562500e-01) (17, 4.92718964815139770508e-01) (18, -4.02088165283203125000e-01) (19, 4.67537522315979003906e-01) (20, 4.43026870489120483398e-01) (21, 6.59866034984588623047e-01) (22, -1.62437587976455688477e-01) (23, -1.23571947216987609863e-01) (24, 2.69535565376281738281e+00) (25, 1.60939022898674011230e-01) (26, -4.53720664978027343750e+00) (27, 3.87461447715759277344e+00) (28, -1.11227250099182128906e+00) (29, -3.65485382080078125000e+00) (30, -1.97731107473373413086e-01) (31, -6.48196414113044738770e-02) (32, 5.50653077661991119385e-02) (33, 4.04696416854858398438e+00) (34, 2.28822797536849975586e-01) (35, 5.64043331146240234375e+00) (36, 9.14965689182281494141e-01) (37, 1.14156372845172882080e-01) (38, -1.62590548396110534668e-01) (39, -3.99774909019470214844e+00) (40, 2.71628856658935546875e+00) (41, -3.79010629653930664062e+00) (42, 2.34293580055236816406e+00) (43, 1.18341588973999023438e+00) (44, 1.07932698726654052734e+00) (45, 1.19129858911037445068e-01) (46, -2.37883591651916503906e+00) (47, -4.59735965728759765625e+00) (48, -3.12286794185638427734e-01) (49, 6.02042376995086669922e-01) (50, -1.20472168922424316406e+00) (51, -1.51152506470680236816e-01) (52, 1.84003233909606933594e+00) (53, 1.11142671108245849609e+00) (54, 1.33318495750427246094e+00) (55, -1.55084931850433349609e+00) (56, 8.79331970214843750000e+00) (57, -3.29230976104736328125e+00) (58, -1.72356510162353515625e+00) (59, -6.81213259696960449219e-01) (60, 4.82406109571456909180e-01) (61, 3.75485372543334960938e+00) (62, 9.36253964900970458984e-02) (63, -2.47273683547973632812e+00) (64, -4.05996143817901611328e-02) (65, 4.93525654077529907227e-01) (66, -4.03569877147674560547e-01) (67, -6.33210390806198120117e-02) (68, -3.41652035713195800781e-02) (69, 4.81934159994125366211e-01) (70, -1.71309560537338256836e-01) (71, -2.11589074134826660156e+00) (72, 3.25624734163284301758e-01) (73, -6.07338696718215942383e-02) (74, 5.14979541301727294922e-01) (75, -3.36914837360382080078e-01) (76, 1.18528050370514392853e-03) (77, 1.74871766567230224609e+00) (78, 1.02007955312728881836e-01) (79, 1.29138338565826416016e+00) (80, 2.98633360862731933594e+00) (81, -5.28807163238525390625e+00) (82, -9.82115566730499267578e-02) (83, -1.39783802032470703125e+01) (84, -3.06595945358276367188e+00) (85, 4.15187269449234008789e-01) (86, -1.76405596733093261719e+00) (87, 1.32084302902221679688e+01) (88, 6.18298411369323730469e-01) (89, 1.67535573244094848633e-01) (90, 4.82899278402328491211e-01) (91, -3.77151012420654296875e+00) (92, 3.78864550590515136719e+00) (93, 5.08849978446960449219e-01) (94, 7.26464271545410156250e-01) (95, 5.42503118515014648438e-01) (96, 1.64354503154754638672e+00) (97, 3.95361590385437011719e+00) (98, 1.40903007984161376953e+00) (99, 4.07529592514038085938e-01) (100, 5.50192892551422119141e-01) (0, 1.29531025886535644531e+00) (1, -2.32489779591560363770e-01) (2, -4.62741777300834655762e-02) (3, 3.59522914886474609375e+00) (4, 2.66065537929534912109e-01) (5, -6.05106830596923828125e-01) (6, 2.53391003608703613281e+00) (7, -7.77999281883239746094e-01) (8, 2.05204486846923828125e+00) (9, 2.39234253764152526855e-01) (10, 7.93640255928039550781e-01) (11, 2.26128101348876953125e-01) (12, 1.35838404297828674316e-01) (13, -1.05993831157684326172e+00) (14, 2.07067656517028808594e+00) (15, 3.58336120843887329102e-01) (16, 3.04074138402938842773e-01) (17, 5.06923079490661621094e-01) (18, 2.50203192234039306641e-01) (19, 1.08420467376708984375e+00) (20, 1.78265058994293212891e+00) (21, 2.02969104051589965820e-01) (22, 5.62357045710086822510e-02) (23, 2.64310479164123535156e-01) (24, -7.58698272705078125000e+00) (25, 3.93227279186248779297e-01) (26, -1.80184555053710937500e+00) (27, 1.17512779235839843750e+01) (28, 3.19339543581008911133e-01) (29, -1.77734822034835815430e-01) (30, 1.87195718288421630859e-01) (31, 8.36927667260169982910e-02) (32, 1.28418564796447753906e-01) (33, -3.55600261688232421875e+00) (34, -4.17705106735229492188e+00) (35, -6.49082243442535400391e-01) (36, 4.50977444648742675781e-01) (37, 8.10615941882133483887e-02) (38, 4.48280334472656250000e+00) (39, 1.87609136104583740234e-01) (40, 6.02741479873657226562e+00) (41, 1.27111345529556274414e-01) (42, 3.82937717437744140625e+00) (43, -1.74745547771453857422e+00) (44, 1.93039521574974060059e-01) (45, -1.82000994682312011719e+00) (46, 5.86449813842773437500e+00) (47, 2.23141506314277648926e-01) (48, 2.77434885501861572266e-01) (49, 1.40743225812911987305e-01) (50, 3.62976479530334472656e+00) (51, 2.90086418390274047852e-01) (52, 4.06522274017333984375e-01) (53, 8.86847257614135742188e-01) (54, 8.77592563629150390625e-01) (55, 4.11982759833335876465e-02) (56, -2.36836647987365722656e+00) (57, 2.75912117958068847656e+00) (58, -6.15768134593963623047e-01) (59, -1.46294862031936645508e-01) (60, 9.16767776012420654297e-01) (61, -8.41101288795471191406e-01) (62, -1.53798687458038330078e+00) (63, 6.45787119865417480469e-01) (64, -2.40682408213615417480e-01) (65, 4.65962678194046020508e-01) (66, -1.20011031627655029297e-01) (67, 3.34572267532348632812e+00) (68, 2.86388427019119262695e-01) (69, 5.79247891902923583984e-01) (70, 4.27085161209106445312e-01) (71, 1.25042676925659179688e+01) (72, -9.60182011127471923828e-01) (73, -2.53227334469556808472e-02) (74, -7.54064619541168212891e-02) (75, 2.68597555160522460938e+00) (76, -3.08616738766431808472e-02) (77, 2.22055745124816894531e+00) (78, 3.57364356517791748047e-01) (79, 3.44570696353912353516e-01) (80, 7.13367748260498046875e+00) (81, -3.10120910406112670898e-01) (82, -1.50158095359802246094e+00) (83, 1.03356890380382537842e-01) (84, -2.68789863586425781250e+00) (85, 7.16946542263031005859e-01) (86, -2.08154797554016113281e+00) (87, -2.94771838188171386719e+00) (88, 8.15678477287292480469e-01) (89, 2.72658854722976684570e-01) (90, -9.93788361549377441406e-01) (91, 9.31953489780426025391e-01) (92, -1.36811399459838867188e+00) (93, 6.42937719821929931641e-01) (94, 1.02719879150390625000e+00) (95, -9.57580447196960449219e-01) (96, 4.56773710250854492188e+00) (97, 1.46726578474044799805e-01) (98, -2.37016320228576660156e+00) (99, 4.39236223697662353516e-01) (100, 2.70922660827636718750e-01) (0, -1.09270416200160980225e-01) (1, 4.31664556264877319336e-01) (2, 4.06433373689651489258e-01) (3, 2.91644960641860961914e-01) (4, 4.53532934188842773438e-02) (5, -2.32758566737174987793e-01) (6, -5.11902928352355957031e-01) (7, 5.27685046195983886719e-01) (8, 1.71241462230682373047e-02) (9, 4.56861853599548339844e-01) (10, -2.39335775375366210938e-01) (11, 4.22192245721817016602e-01) (12, 7.04288482666015625000e-02) (13, -3.69145721197128295898e-01) (14, -2.55974173545837402344e+00) (15, -1.09271802008152008057e-01) (16, 4.14038389921188354492e-01) (17, 4.45354551076889038086e-01) (18, 8.66559743881225585938e-01) (19, 1.56551253795623779297e+00) (20, 3.51755283772945404053e-02) (21, 5.06299555301666259766e-01) (22, -6.43689259886741638184e-02) (23, -1.23690560460090637207e-01) (24, 3.53906106948852539062e+00) (25, -2.48130273818969726562e+00) (26, 2.55015194416046142578e-01) (27, -8.26150655746459960938e-01) (28, 3.74139428138732910156e-01) (29, 1.46454632282257080078e-01) (30, 7.51141667366027832031e-01) (31, 1.30735504627227783203e+00) (32, 4.74343150854110717773e-02) (33, 1.24559819698333740234e-01) (34, -3.11222791671752929688e+00) (35, -4.05637085437774658203e-01) (36, 5.34557223320007324219e-01) (37, -1.98225080966949462891e-01) (38, -4.84656810760498046875e+00) (39, -2.00294211506843566895e-01) (40, 7.50394868850708007812e+00) (41, 3.86595726013183593750e-01) (42, -1.47079667076468467712e-02) (43, -4.10166311264038085938e+00) (44, 4.83567327260971069336e-01) (45, 2.61239433288574218750e+00) (46, 1.49921858310699462891e+00) (47, -1.06172122061252593994e-01) (48, -1.00276894867420196533e-01) (49, -9.35767590999603271484e-02) (50, -9.66031789779663085938e-01) (51, -8.51764380931854248047e-01) (52, 9.86592918634414672852e-02) (53, -4.09132099151611328125e+00) (54, 1.93387493491172790527e-01) (55, -1.36389151215553283691e-01) (56, 3.94559621810913085938e-01) (57, -5.96710300445556640625e+00) (58, -2.56384491920471191406e+00) (59, -1.85135006904602050781e-01) (60, 9.47555720806121826172e-01) (61, 3.46989125013351440430e-01) (62, 2.02984285354614257812e+00) (63, 1.70139765739440917969e+00) (64, -7.30293542146682739258e-02) (65, 7.34283566474914550781e-01) (66, 1.27412736415863037109e-01) (67, -3.22319793701171875000e+00) (68, 6.07235848903656005859e-01) (69, -1.45635142922401428223e-01) (70, -4.56482797861099243164e-01) (71, 4.83386373519897460938e+00) (72, 2.62001842260360717773e-01) (73, 7.18234658241271972656e-01) (74, 3.82032580673694610596e-02) (75, -2.98345899581909179688e+00) (76, 1.93151569366455078125e+00) (77, -7.24833345413208007812e+00) (78, -1.68885707855224609375e-01) (79, 2.98884399235248565674e-02) (80, -3.04038667678833007812e+00) (81, 5.03405809402465820312e+00) (82, -8.75565528869628906250e-01) (83, 1.39573764801025390625e+00) (84, -2.50566661357879638672e-01) (85, 4.62104052305221557617e-01) (86, -9.24121618270874023438e-01) (87, -1.17144954204559326172e+00) (88, 2.86013424396514892578e-01) (89, -1.03686898946762084961e-01) (90, 4.95190709829330444336e-01) (91, -1.33351361751556396484e+00) (92, -3.52181267738342285156e+00) (93, 9.18420433998107910156e-01) (94, 3.42871665954589843750e-01) (95, -7.09254682064056396484e-01) (96, -4.44163513183593750000e+00) (97, 4.02215182781219482422e-01) (98, -4.48851883411407470703e-01) (99, -6.98594152927398681641e-02) (100, 4.45931494235992431641e-01) (0, 2.81505703926086425781e-01) (1, 5.92201757431030273438e+00) (2, 2.01475119590759277344e+00) (3, 4.98342424631118774414e-01) (4, -7.08919107913970947266e-01) (5, 3.87165784835815429688e-01) (6, 6.09526574611663818359e-01) (7, 2.88933491706848144531e+00) (8, 8.95281493663787841797e-01) (9, -1.64915233850479125977e-01) (10, 6.57488703727722167969e-02) (11, -1.05930894613265991211e-01) (12, 4.61242914199829101562e-01) (13, 2.32085371017456054688e+00) (14, -2.67728376388549804688e+00) (15, -8.62120557576417922974e-03) (16, -5.91616407036781311035e-02) (17, 6.79837316274642944336e-02) (18, 5.84522597491741180420e-02) (19, 8.37399363517761230469e-01) (20, 6.03332221508026123047e-01) (21, 2.00397372245788574219e-02) (22, -3.66351306438446044922e-02) (23, 4.17347639799118041992e-01) (24, -5.86409378051757812500e+00) (25, -4.57691788673400878906e-01) (26, 3.28708201646804809570e-01) (27, -3.57194751501083374023e-01) (28, -2.07316540181636810303e-02) (29, -1.22181308269500732422e+00) (30, 4.59537297487258911133e-01) (31, -5.91387391090393066406e-01) (32, 3.56559216976165771484e-01) (33, -7.38456606864929199219e-01) (34, -1.32360553741455078125e+00) (35, -6.17490625381469726562e+00) (36, -1.34898304939270019531e-01) (37, 1.27150845527648925781e+00) (38, 2.34432435035705566406e+00) (39, -7.57456719875335693359e-01) (40, -2.10945463180541992188e+00) (41, -1.68126717209815979004e-01) (42, 3.00045311450958251953e-01) (43, -2.69965004920959472656e+00) (44, -9.58283897489309310913e-03) (45, 1.38639974594116210938e+00) (46, -1.88324403762817382812e+00) (47, -6.34583532810211181641e-01) (48, 8.26552629470825195312e-01) (49, 4.37463808059692382812e+00) (50, 1.33744609355926513672e+00) (51, 1.07024431228637695312e+00) (52, -1.18392437696456909180e-01) (53, 1.30267813801765441895e-01) (54, 2.05673336982727050781e+00) (55, 9.90288615226745605469e-01) (56, -1.93873441219329833984e+00) (57, 6.90939807891845703125e+00) (58, -2.55262047052383422852e-01) (59, 1.21597126126289367676e-01) (60, -1.01791448891162872314e-01) (61, 1.14028406143188476562e+00) (62, 9.50027108192443847656e-02) (63, 4.38594311475753784180e-01) (64, 3.19463938474655151367e-01) (65, -6.82599723339080810547e-01) (66, -9.44938063621520996094e-01) (67, 4.63706016540527343750e-01) (68, 3.26536633074283599854e-02) (69, -1.99756547808647155762e-01) (70, 5.13867773115634918213e-02) (71, 3.51925611495971679688e-01) (72, 5.58003306388854980469e-01) (73, -2.27161139249801635742e-01) (74, 1.93261408805847167969e+00) (75, 6.59298479557037353516e-01) (76, 4.80028092861175537109e-01) (77, 3.88683986663818359375e+00) (78, 5.06942629814147949219e-01) (79, -1.14117848873138427734e+00) (80, 1.65512061119079589844e+00) (81, -4.54290986061096191406e-01) (82, -1.22997605800628662109e+00) (83, 3.30861687660217285156e-01) (84, 4.13459444046020507812e+00) (85, 1.18288658559322357178e-02) (86, -1.31060194969177246094e+00) (87, 1.45267951488494873047e+00) (88, 7.82750919461250305176e-02) (89, 6.79765939712524414062e-01) (90, 2.01540723443031311035e-01) (91, -1.94313809275627136230e-01) (92, 1.60857307910919189453e+00) (93, -3.91239523887634277344e-02) (94, -3.10679882764816284180e-01) (95, -1.49910882115364074707e-01) (96, 4.49736213684082031250e+00) (97, -9.43685993552207946777e-02) (98, 7.57028579711914062500e-01) (99, 5.25339603424072265625e-01) (100, -5.14835178852081298828e-01) (0, 1.06348347663879394531e+00) (1, -3.11560451984405517578e-01) (2, 5.31305611133575439453e-01) (3, 7.34757363796234130859e-01) (4, 3.26186418533325195312e-01) (5, -2.67229825258255004883e-01) (6, 2.62562870979309082031e+00) (7, -1.76980340480804443359e+00) (8, 3.30871492624282836914e-01) (9, 2.48729869723320007324e-01) (10, 6.06076478958129882812e-01) (11, 3.08967322111129760742e-01) (12, -1.53474822640419006348e-01) (13, 1.43124997615814208984e-01) (14, -2.01528320312500000000e+01) (15, 2.67920911312103271484e-01) (16, 1.34326383471488952637e-01) (17, 2.06344306468963623047e-01) (18, 2.16779664158821105957e-01) (19, 8.62167358398437500000e-01) (20, 2.31396332383155822754e-01) (21, -5.35263347625732421875e+00) (22, 5.71283921599388122559e-02) (23, 1.46936625242233276367e-01) (24, -7.07581281661987304688e+00) (25, 2.48026177287101745605e-01) (26, 7.76721984148025512695e-02) (27, -2.84470577239990234375e+01) (28, 2.76205092668533325195e-01) (29, 1.82278871536254882812e-01) (30, 3.07633429765701293945e-01) (31, -2.55222618579864501953e-01) (32, 2.51210212707519531250e-01) (33, -7.31063067913055419922e-01) (34, -6.79480457305908203125e+00) (35, -2.57369995117187500000e+00) (36, 2.24837899208068847656e-01) (37, 6.36588037014007568359e-01) (38, 1.03287410736083984375e+01) (39, 5.82571554183959960938e+00) (40, -3.12097287178039550781e+00) (41, 1.91470026969909667969e-01) (42, 2.45827421545982360840e-01) (43, -7.47373390197753906250e+00) (44, 1.49332240223884582520e-01) (45, -6.95904135704040527344e-01) (46, 7.21697854995727539062e+00) (47, 1.06047995388507843018e-01) (48, 8.96259844303131103516e-02) (49, 2.76000440120697021484e-01) (50, 5.57286071777343750000e+00) (51, -3.42474889755249023438e+00) (52, 3.23560476303100585938e-01) (53, -6.13747060298919677734e-01) (54, 5.30508100986480712891e-01) (55, 2.19376713037490844727e-01) (56, -1.91714450716972351074e-01) (57, -4.60431098937988281250e+00) (58, 1.39594197273254394531e+00) (59, -1.46129176020622253418e-01) (60, 8.06764364242553710938e-01) (61, 1.52984380722045898438e+00) (62, -1.99902284145355224609e+00) (63, 1.17054777145385742188e+01) (64, -5.12965559959411621094e-01) (65, 3.61939460039138793945e-01) (66, 1.38585763052105903625e-02) (67, 1.45253121852874755859e-01) (68, 2.36523196101188659668e-01) (69, 4.63206672668457031250e+00) (70, 5.19840180873870849609e-01) (71, 4.74594497680664062500e+00) (72, 1.53562217950820922852e-01) (73, 1.25496774911880493164e-01) (74, 8.96999333053827285767e-03) (75, 6.92936599254608154297e-01) (76, -9.85313206911087036133e-03) (77, -8.47236633300781250000e+00) (78, 3.92808705568313598633e-01) (79, 4.56984907388687133789e-01) (80, 2.85288786888122558594e+00) (81, -2.60956913232803344727e-01) (82, -1.54182744026184082031e+00) (83, 3.98449325561523437500e+00) (84, -3.39358711242675781250e+00) (85, 4.78127509355545043945e-01) (86, 5.57415056228637695312e+00) (87, -3.02513456344604492188e+00) (88, 5.25328993797302246094e-01) (89, 1.44204404205083847046e-02) (90, -4.20186594128608703613e-02) (91, 6.02489233016967773438e-01) (92, 4.64851808547973632812e+00) (93, 4.22068297863006591797e-01) (94, 1.89565867185592651367e-01) (95, -1.07102952897548675537e-01) (96, 2.60223674774169921875e+00) (97, 1.75851672887802124023e-01) (98, 2.95581340789794921875e+00) (99, -6.61117359995841979980e-02) (100, 3.13097715377807617188e-01) (0, 1.54362067580223083496e-01) (1, -1.14374145865440368652e-01) (2, 1.23393855988979339600e-01) (3, 6.61968290805816650391e-01) (4, 4.66881901025772094727e-01) (5, -8.56893956661224365234e-02) (6, -3.48429417610168457031e+00) (7, 1.31540524959564208984e+00) (8, 3.72508168220520019531e-01) (9, 4.11306470632553100586e-01) (10, -1.50129929184913635254e-01) (11, 3.99252325296401977539e-01) (12, -3.61103145405650138855e-03) (13, -7.80661642551422119141e-01) (14, 4.65483307838439941406e-01) (15, 5.17911553382873535156e-01) (16, 4.68529492616653442383e-01) (17, 3.95615130662918090820e-01) (18, 4.47481691837310791016e-01) (19, 8.74302983283996582031e-01) (20, 1.42496943473815917969e-01) (21, 4.99107360839843750000e-01) (22, 4.31993782520294189453e-01) (23, 4.05119583010673522949e-02) (24, -2.07734680175781250000e+00) (25, -9.16111376136541366577e-03) (26, 1.12950369715690612793e-01) (27, 1.29869914054870605469e+00) (28, 4.50013399124145507812e-01) (29, -6.05073094367980957031e-01) (30, -1.74953788518905639648e-01) (31, -2.00183819979429244995e-02) (32, -4.47617173194885253906e-02) (33, 3.16109135746955871582e-02) (34, -1.02015609741210937500e+01) (35, 2.51045274734497070312e+00) (36, 5.97556233406066894531e-01) (37, -1.12824849784374237061e-02) (38, -2.77792185544967651367e-01) (39, -1.16393983364105224609e-01) (40, 6.09570074081420898438e+00) (41, -7.16210126876831054688e-01) (42, 1.12428158521652221680e-01) (43, 2.10316371917724609375e+00) (44, 3.47793936729431152344e-01) (45, -7.43830353021621704102e-02) (46, -2.71352243423461914062e+00) (47, -1.84664285182952880859e+00) (48, -6.28991872072219848633e-02) (49, -1.16428621113300323486e-01) (50, 1.18533873558044433594e+00) (51, -3.38552668690681457520e-02) (52, 5.15671014785766601562e-01) (53, 5.95825493335723876953e-01) (54, 1.68944790959358215332e-01) (55, -1.01595036685466766357e-01) (56, 4.60576146841049194336e-01) (57, -6.21143531799316406250e+00) (58, -4.98415756225585937500e+00) (59, -6.24990761280059814453e-02) (60, 4.49940323829650878906e-01) (61, -2.85249233245849609375e-01) (62, 4.48046207427978515625e-01) (63, -1.10153150558471679688e+00) (64, -1.62854984402656555176e-01) (65, 1.13119184970855712891e+00) (66, -7.90022730827331542969e-01) (67, -9.99714136123657226562e-02) (68, 3.58005344867706298828e-01) (69, 4.97691243886947631836e-01) (70, 4.70221310853958129883e-01) (71, -4.28675591945648193359e-01) (72, -5.06705820560455322266e-01) (73, 7.45379403233528137207e-02) (74, 1.14227041602134704590e-01) (75, -1.10052597522735595703e+00) (76, -4.64106917381286621094e-01) (77, 3.00023245811462402344e+00) (78, 5.34735284745693206787e-02) (79, 9.15245637297630310059e-02) (80, 4.74534273147583007812e-01) (81, 5.54978549480438232422e-01) (82, -7.27195739746093750000e+00) (83, 1.16199791431427001953e+00) (84, -2.46787691116333007812e+00) (85, 5.58399856090545654297e-01) (86, 1.24890794754028320312e+01) (87, 3.75293761491775512695e-01) (88, 5.05395710468292236328e-01) (89, 5.80448831897228956223e-04) (90, -4.55028200149536132812e+00) (91, 5.60127496719360351562e-01) (92, -6.64503127336502075195e-02) (93, 2.03456497192382812500e+00) (94, 6.12393796443939208984e-01) (95, 3.77412319183349609375e-01) (96, -7.09278440475463867188e+00) (97, 3.87124836444854736328e-01) (98, -5.13101756572723388672e-01) (99, -1.66944459080696105957e-01) (100, 4.35942530632019042969e-01) (0, 4.27221155166625976562e+00) (1, -7.93275237083435058594e-02) (2, 5.24947547912597656250e+00) (3, 3.12379062175750732422e-01) (4, 3.97496253252029418945e-01) (5, -2.37073585391044616699e-01) (6, 2.41068768501281738281e+00) (7, 1.22693732380867004395e-01) (8, 8.41775685548782348633e-02) (9, 3.85558992624282836914e-01) (10, 6.83695614337921142578e-01) (11, 4.38184052705764770508e-01) (12, -2.20200747251510620117e-01) (13, 1.62347942590713500977e-01) (14, -4.04052829742431640625e+00) (15, 5.41013956069946289062e-01) (16, 3.03521335124969482422e-01) (17, 3.80295068025588989258e-01) (18, 3.55536878108978271484e-01) (19, 4.57840532064437866211e-01) (20, 2.30579137802124023438e-01) (21, 5.43034732341766357422e-01) (22, 4.18718695640563964844e-01) (23, 5.97741268575191497803e-02) (24, -3.66823315620422363281e+00) (25, 3.80883842706680297852e-01) (26, 4.52643930912017822266e-01) (27, -1.28433084487915039062e+01) (28, 3.39815691113471984863e-02) (29, 4.03853207826614379883e-01) (30, 5.06160929799079895020e-02) (31, 7.41311311721801757812e-01) (32, -2.38881688565015792847e-02) (33, -4.82079654932022094727e-01) (34, -7.21938705444335937500e+00) (35, 3.33893442153930664062e+00) (36, 5.93163728713989257812e-01) (37, -2.39362406730651855469e+00) (38, -2.89435315132141113281e+00) (39, 8.57543885707855224609e-01) (40, 2.09628272056579589844e+00) (41, 1.62680149078369140625e-01) (42, -1.57987009733915328979e-02) (43, -8.67448425292968750000e+00) (44, 2.59862601757049560547e-01) (45, 2.70583915710449218750e+00) (46, 4.43130826950073242188e+00) (47, 4.02534574270248413086e-01) (48, 2.16368436813354492188e+00) (49, 3.29097926616668701172e-01) (50, -9.27591705322265625000e+00) (51, 8.35643410682678222656e-02) (52, 4.37143981456756591797e-01) (53, 9.27344083786010742188e-01) (54, 1.57093846797943115234e+00) (55, 3.53576615452766418457e-02) (56, -3.08102101087570190430e-01) (57, 1.01639871597290039062e+01) (58, 3.75582194328308105469e+00) (59, -1.84157326817512512207e-01) (60, 2.29569363594055175781e+00) (61, 5.11786580085754394531e-01) (62, 5.92997789382934570312e-01) (63, -1.02324647903442382812e+01) (64, -1.84049710631370544434e-01) (65, 4.15321528911590576172e-01) (66, 1.40329048037528991699e-01) (67, 1.41827270388603210449e-01) (68, 2.14134544134140014648e-01) (69, 3.51804375648498535156e-01) (70, 5.73988080024719238281e-01) (71, -3.09219050407409667969e+00) (72, 4.71365511417388916016e-01) (73, 1.35728836059570312500e+00) (74, -4.93737936019897460938e+00) (75, 1.09166467189788818359e+00) (76, -1.22809968888759613037e-01) (77, 2.78252530097961425781e+00) (78, 1.85979634523391723633e-01) (79, 5.41215017437934875488e-03) (80, 3.44496464729309082031e+00) (81, -1.71962118148803710938e+00) (82, -3.59803527593612670898e-01) (83, -1.15095868706703186035e-01) (84, 5.15490919351577758789e-02) (85, 5.35192728042602539062e-01) (86, -8.80754351615905761719e-01) (87, -1.18116962909698486328e+00) (88, 5.39797425270080566406e-01) (89, 9.49753344058990478516e-01) (90, -3.28743010759353637695e-01) (91, 5.37320613861083984375e-01) (92, -3.00094294548034667969e+00) (93, 4.17507410049438476562e-01) (94, 1.85289180278778076172e+00) (95, 4.50510799884796142578e-01) (96, 4.94497632980346679688e+00) (97, 3.06335002183914184570e-01) (98, -5.10829985141754150391e-02) (99, -1.65917348861694335938e+00) (100, 4.14453685283660888672e-01) (0, -4.00844141840934753418e-02) (1, 1.41593253612518310547e+00) (2, 5.55608868598937988281e-01) (3, -3.17271649837493896484e-02) (4, 6.06159269809722900391e-01) (5, 1.26136291027069091797e+00) (6, -3.27803224325180053711e-01) (7, 9.26694512367248535156e-01) (8, -8.19428786635398864746e-02) (9, 6.99987232685089111328e-01) (10, 5.05049228668212890625e-01) (11, 4.88575071096420288086e-01) (12, 1.12343497574329376221e-01) (13, 5.92437207698822021484e-01) (14, -1.13198518753051757812e+00) (15, 5.71014106273651123047e-01) (16, 6.01625442504882812500e-01) (17, 4.31045293807983398438e-01) (18, 6.03044509887695312500e-01) (19, -7.39165723323822021484e-01) (20, 7.03259631991386413574e-02) (21, 4.14835631847381591797e-01) (22, 6.30502104759216308594e-01) (23, -6.98735564947128295898e-02) (24, 2.60527062416076660156e+00) (25, 5.45262135565280914307e-02) (26, 5.15352368354797363281e-01) (27, 2.73438429832458496094e+00) (28, 4.42381054162979125977e-01) (29, 6.13952100276947021484e-01) (30, -1.76201000809669494629e-01) (31, -2.61968895792961120605e-02) (32, 2.80560087412595748901e-02) (33, 5.46121895313262939453e-01) (34, 5.99836683273315429688e+00) (35, 4.73101586103439331055e-01) (36, 5.12283563613891601562e-01) (37, 5.25663971900939941406e-01) (38, 3.47500038146972656250e+00) (39, -5.06843566894531250000e-01) (40, 7.70227766036987304688e+00) (41, 5.47807633876800537109e-01) (42, 3.75675320625305175781e-01) (43, -7.94743871688842773438e+00) (44, 6.20486319065093994141e-01) (45, 2.45656228065490722656e+00) (46, 4.85767936706542968750e+00) (47, 6.04476034641265869141e-01) (48, 5.08330166339874267578e-01) (49, -9.52167034149169921875e-01) (50, -9.99037742614746093750e-01) (51, 5.94406835734844207764e-02) (52, 7.15501978993415832520e-02) (53, -6.61010816693305969238e-02) (54, -4.05200004577636718750e-01) (55, -4.56820875406265258789e-02) (56, 6.12235844135284423828e-01) (57, -4.89866584539413452148e-01) (58, -4.01287460327148437500e+00) (59, 1.41918683052062988281e+00) (60, -6.71280562877655029297e-01) (61, 3.51940304040908813477e-01) (62, -1.67055934667587280273e-01) (63, 2.01438844203948974609e-01) (64, 1.51533055305480957031e+00) (65, 5.42982935905456542969e-01) (66, 4.94049817323684692383e-01) (67, 1.34250760078430175781e+00) (68, 5.30136525630950927734e-01) (69, 4.97526079416275024414e-01) (70, 4.53167378902435302734e-01) (71, 2.88936066627502441406e+00) (72, 4.84988301992416381836e-01) (73, 5.28349280357360839844e-01) (74, 3.71245056390762329102e-01) (75, 9.00821745395660400391e-01) (76, 7.41358101367950439453e-01) (77, -2.01367807388305664062e+00) (78, 1.16677939891815185547e-01) (79, -2.25059062242507934570e-01) (80, 3.34558224678039550781e+00) (81, 6.34683310985565185547e-01) (82, 1.04595363140106201172e+00) (83, 1.30774632096290588379e-01) (84, -3.93773055076599121094e+00) (85, 4.63791549205780029297e-01) (86, -4.98358964920043945312e+00) (87, 1.08976707458496093750e+01) (88, -3.75256240367889404297e-01) (89, 8.26809525489807128906e-01) (90, 4.98724728822708129883e-01) (91, 1.93107008934020996094e-01) (92, 2.60544261932373046875e+01) (93, -2.27933600544929504395e-01) (94, -3.02106421440839767456e-02) (95, 5.88213741779327392578e-01) (96, 2.32196354866027832031e+00) (97, 4.58342760801315307617e-01) (98, 1.01082421839237213135e-01) (99, 6.40833556652069091797e-01) (100, 5.86475849151611328125e-01) (0, -4.59551286697387695312e+00) (1, 5.77420330047607421875e+00) (2, 3.06725472211837768555e-01) (3, 2.75827705860137939453e-01) (4, 2.79101300239562988281e+00) (5, 2.02890658378601074219e+00) (6, 4.60991382598876953125e-01) (7, -1.33431792259216308594e+00) (8, 1.99588105082511901855e-01) (9, 4.34736728668212890625e-01) (10, 2.90780931711196899414e-01) (11, 4.27765071392059326172e-01) (12, -1.32228180766105651855e-01) (13, -1.37635422870516777039e-02) (14, -6.09067869186401367188e+00) (15, 4.61151897907257080078e-01) (16, 4.33635145425796508789e-01) (17, 5.97811639308929443359e-01) (18, 3.86045068502426147461e-01) (19, 1.13789737224578857422e+00) (20, -7.16614305973052978516e-01) (21, 5.39017558097839355469e-01) (22, 6.77781760692596435547e-01) (23, -8.37126493453979492188e-01) (24, 2.09400987625122070312e+00) (25, 1.35305151343345642090e-01) (26, 4.01751041412353515625e-01) (27, -4.42424201965332031250e+00) (28, -2.40201878547668457031e+00) (29, 3.23621392250061035156e+00) (30, -8.25858414173126220703e-01) (31, -4.51690483093261718750e+00) (32, -1.37604105472564697266e+00) (33, -1.71417558193206787109e+00) (34, -4.12021350860595703125e+00) (35, -4.35963916778564453125e+00) (36, 4.84921604394912719727e-01) (37, 1.64740562438964843750e+00) (38, 5.46897745132446289062e+00) (39, 2.16012692451477050781e+00) (40, 4.35375308990478515625e+00) (41, 7.60518550872802734375e-01) (42, 1.62959337234497070312e-01) (43, 1.97106087207794189453e+00) (44, 4.60795670747756958008e-01) (45, -3.82317209243774414062e+00) (46, -3.68222546577453613281e+00) (47, 4.63373899459838867188e-01) (48, 2.48357858508825302124e-02) (49, 3.56113016605377197266e-02) (50, -1.92803263664245605469e+00) (51, 7.43237829208374023438e+00) (52, -1.05152976512908935547e+00) (53, 1.53330579400062561035e-01) (54, 2.56751298904418945312e-01) (55, -2.77810156345367431641e-01) (56, 3.75582545995712280273e-01) (57, -1.23413729667663574219e+00) (58, -1.58615136146545410156e+00) (59, -3.64371947944164276123e-03) (60, 1.78853332996368408203e+00) (61, -2.63848334550857543945e-01) (62, -8.53284537792205810547e-01) (63, 1.12525141239166259766e+00) (64, -1.74056321382522583008e-01) (65, 6.13307356834411621094e-01) (66, 2.89393138885498046875e+00) (67, -1.80846142768859863281e+00) (68, -1.33722043037414550781e+00) (69, 3.02961778640747070312e+00) (70, 6.36964082717895507812e-01) (71, 6.02099800109863281250e+00) (72, 3.45598626136779785156e+00) (73, -2.81319737434387207031e-01) (74, 2.44569405913352966309e-02) (75, -6.75212287902832031250e+00) (76, -1.88470423221588134766e+00) (77, 1.46227967739105224609e+00) (78, -2.98081692308187484741e-02) (79, 1.33608385920524597168e-01) (80, -2.04854035377502441406e+00) (81, -8.27662706375122070312e-01) (82, -4.39321041107177734375e+00) (83, 8.88363346457481384277e-02) (84, 2.42363333702087402344e+00) (85, 6.24811530113220214844e-01) (86, -5.70290446281433105469e-01) (87, -3.29091739654541015625e+00) (88, 5.43364524841308593750e-01) (89, 1.62495113909244537354e-02) (90, 1.23579156398773193359e+00) (91, 6.04428589344024658203e-01) (92, 3.82049381732940673828e-01) (93, 4.86874908208847045898e-01) (94, 5.81012129783630371094e-01) (95, 3.33467751741409301758e-01) (96, -1.14732379913330078125e+01) (97, 2.53135621547698974609e-01) (98, -1.16554701328277587891e+00) (99, -1.26502525806427001953e+00) (100, 3.93368363380432128906e-01) (0, 3.15015316009521484375e-02) (1, -4.06098318099975585938e+00) (2, -1.80344784259796142578e+00) (3, -6.63449287414550781250e+00) (4, 1.02482366561889648438e+00) (5, -2.30263054370880126953e-01) (6, 6.92633867263793945312e+00) (7, -4.24638032913208007812e+00) (8, -1.58034858703613281250e+01) (9, 4.39359515905380249023e-01) (10, 4.32131385803222656250e+00) (11, 4.23752605915069580078e-01) (12, -1.22794531285762786865e-01) (13, 7.31000006198883056641e-01) (14, 1.14749050140380859375e+01) (15, 3.59362810850143432617e-01) (16, 4.83945459127426147461e-01) (17, -7.72016942501068115234e-01) (18, -1.00435371398925781250e+01) (19, -3.39927911758422851562e-01) (20, -2.39681982994079589844e+00) (21, 4.76060122251510620117e-01) (22, -9.74042117595672607422e-01) (23, -5.26627349853515625000e+00) (24, 5.61948680877685546875e+00) (25, 6.58913180232048034668e-02) (26, -9.38383221626281738281e-01) (27, 4.83402907848358154297e-01) (28, 8.22903156280517578125e+00) (29, 3.90396595001220703125e-01) (30, 1.67162144184112548828e+00) (31, -3.24252992868423461914e-01) (32, 2.14815326035022735596e-02) (33, -3.71863985061645507812e+00) (34, -1.00419893264770507812e+01) (35, 4.17042016983032226562e+00) (36, 1.06412398815155029297e+00) (37, 8.53032827377319335938e-01) (38, -3.11317324638366699219e+00) (39, -5.11397659778594970703e-01) (40, 3.54207658767700195312e+00) (41, 2.37090659141540527344e+00) (42, 2.08960056304931640625e+00) (43, 3.05615854263305664062e+00) (44, 3.67566525936126708984e-01) (45, -3.74839961528778076172e-01) (46, -2.30136322975158691406e+00) (47, 4.17233318090438842773e-01) (48, 7.60511279106140136719e-01) (49, -7.17396587133407592773e-02) (50, 8.86864840984344482422e-01) (51, -3.04897832870483398438e+00) (52, 4.91636186838150024414e-01) (53, -1.70832431316375732422e+00) (54, -2.35622501373291015625e+00) (55, 6.23079575598239898682e-02) (56, 2.29085713624954223633e-01) (57, 9.94874954223632812500e+00) (58, 3.24076557159423828125e+00) (59, -1.72910585999488830566e-01) (60, 8.27244639396667480469e-01) (61, -1.73760807514190673828e+00) (62, -1.23507642745971679688e+00) (63, 1.72327327728271484375e+01) (64, -3.07857155799865722656e-01) (65, -4.08561229705810546875e+00) (66, 4.97067362070083618164e-01) (67, -1.14521741867065429688e-01) (68, 3.29475462436676025391e-01) (69, 1.59390747547149658203e+00) (70, -5.35625338554382324219e-01) (71, 2.45719909667968750000e+00) (72, 3.61751735210418701172e-01) (73, -1.64372909069061279297e+00) (74, -1.50021791458129882812e-01) (75, -8.08131980895996093750e+00) (76, 2.13070559501647949219e+00) (77, -2.31909966468811035156e+00) (78, 1.13298547267913818359e+00) (79, -1.80668377876281738281e+00) (80, -1.76498162746429443359e+00) (81, -1.49328911304473876953e+00) (82, 3.23061609268188476562e+00) (83, -3.29631101340055465698e-03) (84, 3.49933576583862304688e+00) (85, 6.21143996715545654297e-01) (86, -4.87018871307373046875e+00) (87, 1.67468178272247314453e+00) (88, 4.66681122779846191406e-01) (89, -1.04322004318237304688e+00) (90, -8.72433471679687500000e+00) (91, 6.48881614208221435547e-01) (92, 6.08352613449096679688e+00) (93, 1.95668232440948486328e+00) (94, 1.35671424865722656250e+00) (95, 3.65214586257934570312e+00) (96, 5.11220645904541015625e+00) (97, 2.97375631332397460938e+00) (98, 8.98699092864990234375e+00) (99, -8.83366584777832031250e-01) (100, 3.16929131746292114258e-01) (0, 3.46453714370727539062e+00) (1, 4.06643837690353393555e-01) (2, -7.74373114109039306641e-02) (3, 2.81984299421310424805e-01) (4, 2.18460035324096679688e+00) (5, 1.25169289112091064453e+00) (6, -2.76411533355712890625e+00) (7, 3.53055149316787719727e-01) (8, -4.54541826248168945312e+00) (9, 9.50295757502317428589e-03) (10, -2.69536781311035156250e+00) (11, -9.03081536293029785156e-01) (12, 3.87210696935653686523e-01) (13, -5.17011165618896484375e+00) (14, 1.07087290287017822266e+00) (15, -1.11253201961517333984e-01) (16, -7.43747726082801818848e-02) (17, 2.09206074476242065430e-01) (18, -8.60432833433151245117e-02) (19, -2.80644226074218750000e+00) (20, 4.42186743021011352539e-01) (21, -3.58571484684944152832e-02) (22, -7.46962949633598327637e-02) (23, 2.75144010782241821289e-01) (24, -4.31178569793701171875e+00) (25, 5.82384049892425537109e-01) (26, -2.20157057046890258789e-01) (27, -8.88106536865234375000e+00) (28, 3.55884134769439697266e-02) (29, -1.26004917547106742859e-02) (30, 5.07031619548797607422e-01) (31, 7.82015919685363769531e-01) (32, 4.79929536581039428711e-01) (33, -1.08546502888202667236e-01) (34, 7.21250867843627929688e+00) (35, -7.77919292449951171875e+00) (36, 8.24309140443801879883e-02) (37, 8.81152570247650146484e-01) (38, -1.35200433731079101562e+01) (39, 9.89689731597900390625e+00) (40, -1.01292686462402343750e+01) (41, 8.11058506369590759277e-02) (42, 2.70835280418395996094e+00) (43, -3.15683841705322265625e+00) (44, 1.36684405803680419922e+00) (45, 5.45367710292339324951e-02) (46, 7.43086051940917968750e+00) (47, -1.76607143878936767578e+00) (48, -6.89458513259887695312e+00) (49, 4.13936376571655273438e-01) (50, -1.83443012237548828125e+01) (51, -7.32465803623199462891e-01) (52, 4.73920255899429321289e-02) (53, 3.51699441671371459961e-01) (54, -9.05855178833007812500e-01) (55, 3.04382562637329101562e-01) (56, -2.40270867943763732910e-01) (57, -1.12038812637329101562e+01) (58, -2.95858120918273925781e+00) (59, 1.37890014648437500000e+01) (60, -1.41471385955810546875e-01) (61, -3.36760794743895530701e-03) (62, 2.84767222404479980469e+00) (63, 4.85060548782348632812e+00) (64, -2.59595215320587158203e-01) (65, 2.62428801506757736206e-02) (66, 6.40028119087219238281e-02) (67, -3.73177742958068847656e+00) (68, 1.54100395739078521729e-02) (69, -8.98299217224121093750e+00) (70, 2.65211723744869232178e-02) (71, 3.94348502159118652344e+00) (72, 5.48004627227783203125e-01) (73, 1.97292536497116088867e-01) (74, 3.46747308969497680664e-01) (75, 3.73043799400329589844e+00) (76, 3.95215451717376708984e-01) (77, -3.27758342027664184570e-01) (78, 3.43115031719207763672e-01) (79, 4.86632943153381347656e-01) (80, 6.46952569484710693359e-01) (81, 2.49449849128723144531e+00) (82, 7.89943122863769531250e+00) (83, 2.49172702431678771973e-01) (84, -2.02741832733154296875e+01) (85, 1.53640815988183021545e-02) (86, 2.73699259757995605469e+00) (87, 1.08363091945648193359e+00) (88, 2.17330515384674072266e-01) (89, -4.45739698410034179688e+00) (90, 1.26119479537010192871e-01) (91, 2.72415488958358764648e-01) (92, -1.67092943191528320312e+00) (93, -7.00121116638183593750e+00) (94, -8.40433537960052490234e-01) (95, 4.64629381895065307617e-01) (96, -9.23524856567382812500e+00) (97, -1.08596011996269226074e-01) (98, 7.10278177261352539062e+00) (99, -3.36955845355987548828e-01) (100, -1.14019019529223442078e-02) (0, -3.73435020446777343750e+00) (1, 8.02200019359588623047e-01) (2, -3.38477671146392822266e-01) (3, -9.40536409616470336914e-02) (4, 7.42751181125640869141e-01) (5, 7.08264231681823730469e-01) (6, 1.69671201705932617188e+00) (7, 9.15703713893890380859e-01) (8, -2.54823938012123107910e-02) (9, 5.71630597114562988281e-01) (10, 2.33765199780464172363e-01) (11, 4.14849966764450073242e-01) (12, 7.23042786121368408203e-01) (13, 2.78662256896495819092e-02) (14, 9.48057842254638671875e+00) (15, 6.28905177116394042969e-01) (16, 5.67730665206909179688e-01) (17, 1.28860855102539062500e+00) (18, 4.78424221277236938477e-01) (19, 1.24952763319015502930e-01) (20, -5.64407110214233398438e-02) (21, 5.25617778301239013672e-01) (22, 5.87498366832733154297e-01) (23, 6.68376833200454711914e-02) (24, 7.55697727203369140625e-01) (25, 8.03727865219116210938e-01) (26, -2.01327592134475708008e-01) (27, 7.20880222320556640625e+00) (28, -2.39620357751846313477e-01) (29, 5.48633456230163574219e-01) (30, -7.54419416189193725586e-02) (31, 1.77000313997268676758e-01) (32, 2.57899671792984008789e-01) (33, -1.07469499111175537109e+00) (34, -5.20753908157348632812e+00) (35, 1.40961158275604248047e+00) (36, 4.73189234733581542969e-01) (37, 2.75704175233840942383e-01) (38, 4.60387659072875976562e+00) (39, 2.86593127250671386719e+00) (40, -4.88175511360168457031e-01) (41, 5.11401951313018798828e-01) (42, 4.38481360673904418945e-01) (43, -1.41106617450714111328e+00) (44, 5.00467300415039062500e-01) (45, 5.30373990535736083984e-01) (46, 2.24717214703559875488e-01) (47, 5.40079236030578613281e-01) (48, -1.13621607422828674316e-01) (49, 2.09624901413917541504e-01) (50, -1.49834942817687988281e+00) (51, 1.43954440951347351074e-01) (52, 5.00635325908660888672e-01) (53, -1.66626304388046264648e-01) (54, 1.13058947026729583740e-01) (55, 7.00172185897827148438e+00) (56, 5.93388259410858154297e-01) (57, -3.27771186828613281250e-01) (58, -5.71640906855463981628e-03) (59, 8.73709380626678466797e-01) (60, 2.39447712898254394531e-01) (61, 8.50557088851928710938e-01) (62, -1.99273097515106201172e+00) (63, 4.11663961410522460938e+00) (64, 7.92566597461700439453e-01) (65, 5.49981355667114257812e-01) (66, 4.47882890701293945312e-01) (67, 4.48332279920578002930e-01) (68, 5.60131728649139404297e-01) (69, 6.72159075736999511719e-01) (70, 3.05673003196716308594e-01) (71, 9.85662460327148437500e+00) (72, 4.90590095520019531250e-01) (73, 4.64143931865692138672e-01) (74, 5.24503588676452636719e-01) (75, -5.09807586669921875000e+00) (76, 4.79460597038269042969e-01) (77, -1.84511244297027587891e+00) (78, -1.94680243730545043945e-02) (79, -1.40265554189682006836e-01) (80, -2.13342070579528808594e+00) (81, 1.41914057731628417969e+00) (82, 4.61650085449218750000e+00) (83, 7.68439192324876785278e-03) (84, 6.66518330574035644531e-01) (85, 2.22173452377319335938e-01) (86, -2.97865176200866699219e+00) (87, 3.41162271797657012939e-02) (88, 2.31327056884765625000e-01) (89, -1.30982637405395507812e+01) (90, 5.64839005470275878906e-01) (91, 2.09880217909812927246e-01) (92, 5.01922559738159179688e+00) (93, 2.56609588861465454102e-01) (94, 4.81884479522705078125e-01) (95, 6.57099425792694091797e-01) (96, -1.55573999881744384766e+00) (97, 4.47652488946914672852e-01) (98, 2.09160074591636657715e-01) (99, 3.14922928810119628906e-01) (100, 4.08594429492950439453e-01) (0, -4.10287976264953613281e-02) (1, 1.18021309375762939453e+00) (2, 4.67368125915527343750e-01) (3, -1.50692999362945556641e-01) (4, 5.79623103141784667969e-01) (5, 1.66280674934387207031e+00) (6, 1.51251703500747680664e-01) (7, 1.05724895000457763672e+00) (8, -4.34072315692901611328e-02) (9, 6.75580739974975585938e-01) (10, 4.26167488098144531250e-01) (11, 4.17310267686843872070e-01) (12, 2.17643782496452331543e-01) (13, 6.16227805614471435547e-01) (14, -3.32127332687377929688e-01) (15, 6.18300855159759521484e-01) (16, 5.49546599388122558594e-01) (17, 4.33896988630294799805e-01) (18, 5.58509886264801025391e-01) (19, -1.04229412972927093506e-01) (20, 2.35267132520675659180e-02) (21, 4.91028636693954467773e-01) (22, 5.29804944992065429688e-01) (23, 7.01017752289772033691e-02) (24, -4.90623675286769866943e-02) (25, -5.59358075261116027832e-02) (26, 5.26553928852081298828e-01) (27, -2.43653082847595214844e+00) (28, 3.23056429624557495117e-01) (29, 6.04361295700073242188e-01) (30, -1.67127355933189392090e-01) (31, -3.18050459027290344238e-02) (32, -3.20636183023452758789e-02) (33, 5.20272195339202880859e-01) (34, -1.90067857503890991211e-01) (35, 1.59841787815093994141e+00) (36, 4.91939872503280639648e-01) (37, 4.02301073074340820312e-01) (38, -6.73456311225891113281e-01) (39, 7.61393317952752113342e-03) (40, -3.67719084024429321289e-01) (41, 5.22237777709960937500e-01) (42, 3.49786847829818725586e-01) (43, -2.59734034538269042969e+00) (44, 4.52973932027816772461e-01) (45, 7.20475256443023681641e-01) (46, 5.65332055091857910156e-01) (47, 5.79232037067413330078e-01) (48, 4.69410777091979980469e-01) (49, 2.50038713216781616211e-01) (50, -3.52224826812744140625e-01) (51, -3.38019710034132003784e-03) (52, 4.13388721644878387451e-02) (53, -1.34410053491592407227e-01) (54, -1.17711618542671203613e-01) (55, 1.28052189946174621582e-01) (56, 4.85905468463897705078e-01) (57, -2.05380153656005859375e+00) (58, 1.49793848395347595215e-01) (59, 1.55084145069122314453e+00) (60, -1.52650564908981323242e-01) (61, 1.02961158752441406250e+00) (62, -5.10408699512481689453e-01) (63, 5.25477230548858642578e-01) (64, 1.51593363285064697266e+00) (65, 4.10566091537475585938e-01) (66, 5.67491710186004638672e-01) (67, 7.20474243164062500000e-01) (68, 4.13182884454727172852e-01) (69, 4.54811960458755493164e-01) (70, 4.16900813579559326172e-01) (71, -2.91539025306701660156e+00) (72, 6.20724797248840332031e-01) (73, 9.73672449588775634766e-01) (74, 7.67314970493316650391e-01) (75, 6.44482135772705078125e-01) (76, 7.50031054019927978516e-01) (77, -2.42514088749885559082e-01) (78, 4.85080070793628692627e-02) (79, 5.07236793637275695801e-02) (80, 5.04445612430572509766e-01) (81, 4.88214701414108276367e-01) (82, -2.29193568229675292969e-01) (83, 6.43757879734039306641e-01) (84, -2.86270999908447265625e+00) (85, 3.88375997543334960938e-01) (86, 7.36789166927337646484e-01) (87, 1.47643983364105224609e-01) (88, -3.66792619228363037109e-01) (89, 5.81606149673461914062e-01) (90, 5.38298130035400390625e-01) (91, 1.74867779016494750977e-01) (92, 1.16317284107208251953e+00) (93, -1.20794989168643951416e-01) (94, 1.71424776315689086914e-01) (95, 5.77371180057525634766e-01) (96, 1.38464465737342834473e-01) (97, 4.03135806322097778320e-01) (98, 2.41401210427284240723e-01) (99, 6.77286744117736816406e-01) (100, 5.88948249816894531250e-01) (0, -1.60117435455322265625e+00) (1, -2.34214872121810913086e-01) (2, 4.53287541866302490234e-01) (3, 4.62388455867767333984e-01) (4, 3.74524027109146118164e-01) (5, -1.10231809318065643311e-01) (6, -1.01374721527099609375e+00) (7, 3.64369440078735351562e+00) (8, 2.39085808396339416504e-01) (9, 4.75690573453903198242e-01) (10, 4.76806223392486572266e-01) (11, 4.95330542325973510742e-01) (12, 1.39502912759780883789e-01) (13, -2.10369706153869628906e-01) (14, -3.97604918479919433594e+00) (15, 4.44310903549194335938e-01) (16, 5.15313208103179931641e-01) (17, -8.44077169895172119141e-01) (18, 5.36058247089385986328e-01) (19, 7.93833315372467041016e-01) (20, 5.55821869056671857834e-04) (21, 5.46748816967010498047e-01) (22, 4.49514418840408325195e-01) (23, 1.05033805593848228455e-02) (24, -6.31249809265136718750e+00) (25, -1.54447448253631591797e+00) (26, 2.11668014526367187500e-01) (27, -1.52937376499176025391e+00) (28, 4.39895629882812500000e-01) (29, -7.21842050552368164062e-01) (30, -6.95841386914253234863e-02) (31, 1.29022037982940673828e+00) (32, -8.54263007640838623047e-02) (33, 3.93165558576583862305e-01) (34, -6.24519157409667968750e+00) (35, -1.13943025469779968262e-01) (36, 5.26380121707916259766e-01) (37, -1.08888395130634307861e-01) (38, -8.51401901245117187500e+00) (39, -3.50971364974975585938e+00) (40, 1.56579232215881347656e+00) (41, 3.67765575647354125977e-01) (42, -5.56235462427139282227e-02) (43, -8.39208126068115234375e+00) (44, 3.98495942354202270508e-01) (45, 1.57831564545631408691e-01) (46, -5.01025080680847167969e-01) (47, 5.05944967269897460938e-01) (48, -1.26054376363754272461e-01) (49, -7.24755153059959411621e-02) (50, 5.84665946662425994873e-02) (51, 2.92461793869733810425e-02) (52, 3.82603675127029418945e-01) (53, 3.38339328765869140625e-01) (54, 3.75247627496719360352e-01) (55, -3.84610593318939208984e-02) (56, 4.72755014896392822266e-01) (57, -1.13697032928466796875e+01) (58, 7.18262270092964172363e-02) (59, -2.03405663371086120605e-01) (60, 6.06972396373748779297e-01) (61, -1.14935748279094696045e-02) (62, 2.86808162927627563477e-01) (63, 2.07894995808601379395e-01) (64, -1.44840791821479797363e-01) (65, 5.39543628692626953125e-01) (66, 1.76496013998985290527e-01) (67, -1.44998773932456970215e-01) (68, 6.22670471668243408203e-01) (69, -2.65806436538696289062e+00) (70, 5.07605731487274169922e-01) (71, 5.85702133178710937500e+00) (72, 7.39142000675201416016e-02) (73, 1.78403817117214202881e-02) (74, 2.65525221824645996094e-01) (75, -3.55372488498687744141e-01) (76, -1.14951729774475097656e-01) (77, -4.36471223831176757812e+00) (78, 1.16263307631015777588e-01) (79, 1.39848530292510986328e-01) (80, 4.80014145374298095703e-01) (81, 4.80514794588088989258e-01) (82, 3.27342700958251953125e+00) (83, 3.90676520764827728271e-02) (84, -6.46119785308837890625e+00) (85, 6.10210418701171875000e-01) (86, -7.21298217773437500000e-01) (87, -2.23050773143768310547e-01) (88, 5.90797066688537597656e-01) (89, 2.14862510561943054199e-01) (90, -2.06707015633583068848e-01) (91, 6.59040331840515136719e-01) (92, -2.11791419982910156250e+00) (93, 6.21514379978179931641e-01) (94, 3.56354326009750366211e-01) (95, 3.15266460180282592773e-01) (96, -5.59367895126342773438e+00) (97, 3.56934040784835815430e-01) (98, -5.81268548965454101562e+00) (99, -1.27178832888603210449e-01) (100, 4.00840342044830322266e-01) (0, -2.48786044120788574219e+00) (1, -1.27640330791473388672e+00) (2, -2.13579440116882324219e+00) (3, -4.70705223083496093750e+00) (4, 4.66306507587432861328e-01) (5, 5.26462793350219726562e+00) (6, -3.92129421234130859375e+00) (7, 3.97330474853515625000e+00) (8, 3.51912647485733032227e-01) (9, -5.59196531772613525391e-01) (10, -4.04400730133056640625e+00) (11, 5.11461198329925537109e-01) (12, 2.22334880381822586060e-02) (13, -2.67906975746154785156e+00) (14, -2.07769560813903808594e+00) (15, 3.90338271856307983398e-01) (16, 5.56281328201293945312e-01) (17, 9.30957889556884765625e+00) (18, -3.34483242034912109375e+00) (19, 3.68355125188827514648e-01) (20, -2.79368352890014648438e+00) (21, 9.82992649078369140625e-01) (22, 2.93272227048873901367e-01) (23, -1.32665887475013732910e-01) (24, 2.60996365547180175781e+00) (25, 9.87296923995018005371e-02) (26, 9.44368362426757812500e-01) (27, -1.02121257781982421875e+00) (28, 1.36825823783874511719e+00) (29, -1.88976097106933593750e+00) (30, 4.56746295094490051270e-02) (31, 1.75702765583992004395e-01) (32, -1.43180461600422859192e-02) (33, -3.21761727333068847656e+00) (34, 1.28438365459442138672e+00) (35, -3.72145485877990722656e+00) (36, 9.67837214469909667969e-01) (37, 3.95028181374073028564e-02) (38, -3.51019072532653808594e+00) (39, 3.09547722339630126953e-01) (40, 7.74173662066459655762e-02) (41, -7.62734830379486083984e-01) (42, 1.25061047077178955078e+00) (43, 1.28958559036254882812e+00) (44, 5.21275806427001953125e+00) (45, 2.75766462087631225586e-01) (46, 1.31650280952453613281e+00) (47, 1.98947727680206298828e-01) (48, -2.86256790161132812500e+00) (49, 3.00170361995697021484e-01) (50, -7.38293361663818359375e+00) (51, -4.98200029134750366211e-01) (52, -4.10545140504837036133e-01) (53, 3.11147212982177734375e+00) (54, -5.24018526077270507812e-01) (55, 1.08079276978969573975e-01) (56, 4.80383777618408203125e+00) (57, -3.04060626029968261719e+00) (58, -5.79653561115264892578e-01) (59, -1.71632021665573120117e-01) (60, 1.58334761857986450195e-01) (61, -1.01945722103118896484e+00) (62, 3.22773647308349609375e+00) (63, -3.66322100162506103516e-01) (64, -5.81642761826515197754e-02) (65, 4.20781016349792480469e-01) (66, 1.07601717114448547363e-01) (67, 7.46058896183967590332e-02) (68, 2.96968519687652587891e-01) (69, 6.18723690509796142578e-01) (70, 4.98368233442306518555e-01) (71, -6.78190135955810546875e+00) (72, 3.43204021453857421875e-01) (73, -1.25320494174957275391e-01) (74, 3.53776335716247558594e+00) (75, -2.34423518180847167969e+00) (76, 1.88529789447784423828e-01) (77, -1.42318284511566162109e+00) (78, -1.69803822040557861328e+00) (79, -9.45582985877990722656e-01) (80, 1.69434726238250732422e+00) (81, -2.39362978935241699219e+00) (82, 2.79067230224609375000e+00) (83, -4.31786251068115234375e+00) (84, -2.11137342453002929688e+00) (85, -2.01900672912597656250e+00) (86, -1.58011150360107421875e+00) (87, -5.36264562606811523438e+00) (88, 6.28422021865844726562e-01) (89, 2.87011086940765380859e-01) (90, 3.20604026317596435547e-01) (91, -4.27092123031616210938e+00) (92, -2.30264186859130859375e+00) (93, 2.73186266422271728516e-01) (94, -1.71778559684753417969e-01) (95, 2.86887812614440917969e+00) (96, -9.67866837978363037109e-01) (97, 4.95023441314697265625e+00) (98, 1.22654891014099121094e+00) (99, 5.55510282516479492188e-01) (100, 4.17982161045074462891e-01) (0, -1.23847794532775878906e+00) (1, 5.00471651554107666016e-01) (2, 4.53380495309829711914e-01) (3, 1.47844409942626953125e+00) (4, -7.14676916599273681641e-01) (5, -4.15188968181610107422e-02) (6, 8.07230055332183837891e-01) (7, -4.61181521415710449219e-01) (8, 2.99883395433425903320e-01) (9, -9.73535981029272079468e-03) (10, 2.10886359214782714844e-01) (11, 1.26366093754768371582e-01) (12, 2.09064871072769165039e-01) (13, 3.88712614774703979492e-01) (14, 5.28372383117675781250e+00) (15, 7.50633552670478820801e-02) (16, -2.62223303318023681641e-01) (17, 1.93844243884086608887e-01) (18, 5.12140914797782897949e-02) (19, 2.40885782241821289062e+00) (20, 4.15302872657775878906e-01) (21, 1.51775225996971130371e-01) (22, -2.25813865661621093750e+00) (23, 3.47550541162490844727e-01) (24, -3.38200831413269042969e+00) (25, 3.41285347938537597656e-01) (26, -1.28026533126831054688e+00) (27, 1.88225555419921875000e+00) (28, -6.84446668624877929688e+00) (29, 1.73066705465316772461e-02) (30, 2.93465703725814819336e-01) (31, 4.56802755594253540039e-01) (32, 3.52031826972961425781e-01) (33, -2.29283511638641357422e-01) (34, -1.15654010772705078125e+01) (35, -6.69135522842407226562e+00) (36, -2.27652803063392639160e-01) (37, 3.82497608661651611328e-01) (38, 1.86684970855712890625e+01) (39, 2.87858694791793823242e-01) (40, -1.75465202331542968750e+01) (41, 4.16568219661712646484e-02) (42, 1.36267871856689453125e+01) (43, 1.50771341323852539062e+01) (44, 1.40404850244522094727e-01) (45, 2.09375023841857910156e-01) (46, -8.71869182586669921875e+00) (47, 2.86851935088634490967e-02) (48, -3.05642992258071899414e-01) (49, 2.35366329550743103027e-01) (50, 6.92006111145019531250e-01) (51, -2.64867806434631347656e+00) (52, 1.42469167709350585938e-01) (53, 4.88550519943237304688e+00) (54, 4.68021482229232788086e-01) (55, 3.66976380348205566406e-01) (56, -3.16513061523437500000e-01) (57, -1.69744358062744140625e+01) (58, -3.12626028060913085938e+00) (59, 1.43630218505859375000e+00) (60, 6.68236315250396728516e-01) (61, 1.87164887785911560059e-01) (62, 2.09192442893981933594e+00) (63, 3.18309736251831054688e+00) (64, -3.29295784235000610352e-01) (65, 1.29363894462585449219e+00) (66, 8.07308405637741088867e-02) (67, -4.06588602066040039062e+00) (68, 3.99970971047878265381e-02) (69, -2.08734109997749328613e-01) (70, 1.72195687890052795410e-01) (71, -9.70282745361328125000e+00) (72, 1.02836534380912780762e-01) (73, 2.21321180462837219238e-01) (74, 2.01152458786964416504e-01) (75, -2.40879416465759277344e+00) (76, 2.53553718328475952148e-01) (77, 8.03214931488037109375e+00) (78, 3.65170150995254516602e-01) (79, 5.68373084068298339844e-01) (80, 1.04299211502075195312e+01) (81, 2.83947062492370605469e+00) (82, 1.24184188842773437500e+01) (83, 1.43977630138397216797e+00) (84, -3.01189136505126953125e+01) (85, 1.46931990981101989746e-01) (86, -2.58903369903564453125e+01) (87, -1.03861112594604492188e+01) (88, 4.02099609375000000000e-01) (89, -1.98292762041091918945e-01) (90, 3.68578791618347167969e-01) (91, 3.40101897716522216797e-01) (92, 3.34739136695861816406e+00) (93, -7.95878314971923828125e+00) (94, 9.87060427665710449219e-01) (95, 6.13072738051414489746e-02) (96, 9.78883457183837890625e+00) (97, 1.37479737401008605957e-01) (98, 3.68680566549301147461e-01) (99, 2.05269351601600646973e-01) (100, 1.65126189589500427246e-01) (0, 1.45094013214111328125e+00) (1, -1.51063762605190277100e-02) (2, 1.93601560592651367188e+00) (3, 3.51590776443481445312e+00) (4, 3.51789265871047973633e-01) (5, -5.69056808948516845703e-01) (6, 3.77288603782653808594e+00) (7, -1.87442302703857421875e+00) (8, 2.28435277938842773438e+00) (9, 2.03605070710182189941e-01) (10, 7.84292995929718017578e-01) (11, 4.15549784898757934570e-01) (12, -2.00846999883651733398e-01) (13, 1.69063463807106018066e-01) (14, -9.74587798118591308594e-01) (15, 3.94323170185089111328e-01) (16, 1.31067439913749694824e-01) (17, 3.47738713026046752930e-01) (18, 1.58563649654388427734e+00) (19, 2.30722808837890625000e+00) (20, 9.80317950248718261719e-01) (21, 2.87670701742172241211e-01) (22, 9.11844149231910705566e-02) (23, 2.44432285428047180176e-01) (24, -6.56672334671020507812e+00) (25, 4.13414329290390014648e-01) (26, 1.65194332599639892578e-01) (27, 6.08342552185058593750e+00) (28, -3.27129304409027099609e-01) (29, 4.51015569269657135010e-02) (30, 4.83951479196548461914e-01) (31, -1.83204996585845947266e+00) (32, 1.37154892086982727051e-01) (33, -2.28660154342651367188e+00) (34, -1.51629161834716796875e+00) (35, -1.47089168429374694824e-01) (36, 3.81136775016784667969e-01) (37, 3.65895405411720275879e-02) (38, 1.18607969284057617188e+01) (39, 1.35378584265708923340e-01) (40, -8.31808328628540039062e-01) (41, 2.78692960739135742188e-01) (42, -1.00440248847007751465e-01) (43, -6.20254182815551757812e+00) (44, 2.72198796272277832031e-01) (45, -3.40778112411499023438e-01) (46, -1.49916736409068107605e-02) (47, 3.49807292222976684570e-01) (48, 1.66798561811447143555e-01) (49, -3.21963936090469360352e-01) (50, -3.88058686256408691406e+00) (51, 4.77938950061798095703e-01) (52, 6.15595519542694091797e-01) (53, 9.00532424449920654297e-01) (54, 1.08229196071624755859e+00) (55, -2.71436339244246482849e-03) (56, -1.27497315406799316406e+00) (57, -4.55595779418945312500e+00) (58, 2.53859615325927734375e+00) (59, -1.00543066859245300293e-01) (60, 3.24912762641906738281e+00) (61, -4.58065569400787353516e-01) (62, -2.11949539184570312500e+00) (63, 2.72244191169738769531e+00) (64, -5.52129387855529785156e-01) (65, 8.18961858749389648438e-01) (66, 8.31279233098030090332e-02) (67, -8.48662033677101135254e-02) (68, 2.16762021183967590332e-01) (69, -1.89717739820480346680e-01) (70, 7.99238383769989013672e-01) (71, 1.66819512844085693359e+00) (72, -4.82619777321815490723e-02) (73, 1.43333777785301208496e-01) (74, -2.91230154037475585938e+00) (75, 2.16233894228935241699e-01) (76, -8.67985710501670837402e-02) (77, -5.44921398162841796875e+00) (78, 3.23537468910217285156e-01) (79, 4.38625931739807128906e-01) (80, 5.04108816385269165039e-02) (81, 4.82394516468048095703e-01) (82, 3.87962985038757324219e+00) (83, 6.88592910766601562500e-01) (84, -4.64449691772460937500e+00) (85, 8.38918030261993408203e-01) (86, 1.62691640853881835938e+00) (87, -1.00873410701751708984e+00) (88, 9.85619843006134033203e-01) (89, -1.46097652614116668701e-02) (90, -1.32680487632751464844e+00) (91, 8.57170879840850830078e-01) (92, -6.49803256988525390625e+00) (93, 1.27034819126129150391e+00) (94, 2.44850590825080871582e-01) (95, -1.01028513908386230469e+00) (96, 4.04379367828369140625e+00) (97, -5.32769060134887695312e+00) (98, 4.81735378503799438477e-01) (99, -1.42334175109863281250e+00) (100, 2.15231120586395263672e-01) (0, 6.53487730026245117188e+00) (1, -5.42384147644042968750e+00) (2, -1.82981002330780029297e+00) (3, 4.09500598907470703125e+00) (4, 3.21797542273998260498e-02) (5, 3.57423841953277587891e-01) (6, 9.30473089218139648438e-01) (7, 9.92332875728607177734e-01) (8, 8.74655604362487792969e-01) (9, -1.38680350780487060547e+00) (10, 8.98009315133094787598e-02) (11, -1.12978257238864898682e-01) (12, -6.57780706882476806641e-01) (13, -1.78552055358886718750e+00) (14, -5.53507804870605468750e+00) (15, 4.57167625427246093750e-02) (16, -3.42267751693725585938e-02) (17, -5.35688698291778564453e-01) (18, -2.20676347613334655762e-01) (19, -7.52994716167449951172e-01) (20, 5.13691365718841552734e-01) (21, -1.32785052061080932617e-01) (22, -4.18018773198127746582e-02) (23, 5.59378147125244140625e-01) (24, -2.27863144874572753906e+00) (25, 8.34834128618240356445e-02) (26, -1.01777219772338867188e+00) (27, 3.81368446350097656250e+00) (28, 2.34699636697769165039e-01) (29, -1.01742684841156005859e+00) (30, -3.29594492912292480469e-01) (31, 2.69387459754943847656e+00) (32, 5.10029911994934082031e-01) (33, 1.83404207229614257812e+00) (34, 3.81640005111694335938e+00) (35, 1.74471664428710937500e+00) (36, -1.49110555648803710938e+00) (37, 5.61615705490112304688e-01) (38, 6.42775535583496093750e+00) (39, -6.87523126602172851562e-01) (40, -4.90258598327636718750e+00) (41, -2.59150892496109008789e-01) (42, -2.37955793738365173340e-01) (43, 1.22653031349182128906e+00) (44, -4.16756820678710937500e+00) (45, -3.18887770175933837891e-01) (46, -2.22025108337402343750e+00) (47, -8.41297805309295654297e-02) (48, 1.24012760818004608154e-01) (49, -2.54281330108642578125e+00) (50, 2.12606096267700195312e+00) (51, 4.78449732065200805664e-01) (52, -2.58384037017822265625e+00) (53, 3.10092747211456298828e-01) (54, -2.33028745651245117188e+00) (55, 1.41074883937835693359e+00) (56, -8.20501208305358886719e-01) (57, 3.31451582908630371094e+00) (58, -5.27878940105438232422e-01) (59, -1.39379352331161499023e-01) (60, -1.06630243360996246338e-01) (61, -6.53278648853302001953e-01) (62, 4.76488780975341796875e+00) (63, 2.85808181762695312500e+00) (64, 2.90030550956726074219e+00) (65, -4.50515523552894592285e-02) (66, -7.52632379531860351562e-01) (67, 2.04991269111633300781e+00) (68, -7.53167793154716491699e-02) (69, -2.41171526908874511719e+00) (70, -3.83897423744201660156e-02) (71, 7.50773429870605468750e+00) (72, 1.88511982560157775879e-01) (73, 3.80723059177398681641e-01) (74, 5.02719283103942871094e-01) (75, -4.77029466629028320312e+00) (76, -1.44222304224967956543e-01) (77, -2.04125732183456420898e-01) (78, 5.62929570674896240234e-01) (79, 5.81169724464416503906e-01) (80, -2.85406851768493652344e+00) (81, 3.40562152862548828125e+00) (82, -1.07707357406616210938e+00) (83, -9.19238775968551635742e-02) (84, 8.01073741912841796875e+00) (85, -1.72285902500152587891e+00) (86, 3.02407908439636230469e+00) (87, -3.48533725738525390625e+00) (88, 2.81895101070404052734e-01) (89, -8.78406882286071777344e-01) (90, 1.48754167556762695312e+00) (91, -6.12146079540252685547e-01) (92, -1.02270526885986328125e+01) (93, 1.38989281654357910156e+00) (94, 1.29184973239898681641e+00) (95, -2.09250040352344512939e-02) (96, 8.30862224102020263672e-01) (97, 2.76995357125997543335e-02) (98, -2.30429363250732421875e+00) (99, 4.65135961771011352539e-01) (100, -1.10085356235504150391e+00) (0, 2.26176905632019042969e+00) (1, -1.33030307292938232422e+00) (2, -1.05532610416412353516e+00) (3, 3.42360568046569824219e+00) (4, -3.32903921604156494141e-01) (5, -5.81286609172821044922e-01) (6, -7.48984456062316894531e-01) (7, -1.08496367931365966797e-01) (8, 3.39180254936218261719e+00) (9, -1.86086334288120269775e-02) (10, 7.14541971683502197266e-01) (11, 4.34005051851272583008e-01) (12, -9.70851071178913116455e-03) (13, -3.77812832593917846680e-02) (14, -7.71287798881530761719e-01) (15, 3.95298421382904052734e-01) (16, 2.40553587675094604492e-01) (17, 6.17554783821105957031e-01) (18, 3.76919776201248168945e-01) (19, 9.28312838077545166016e-01) (20, 9.67659413814544677734e-01) (21, 5.00835359096527099609e-01) (22, -2.29289978742599487305e-01) (23, 2.29486376047134399414e-01) (24, -1.86427140235900878906e+00) (25, 2.99889087677001953125e-01) (26, -1.20210146903991699219e+00) (27, 7.84801769256591796875e+00) (28, 6.58921360969543457031e-01) (29, -1.07390034198760986328e+00) (30, 6.25598877668380737305e-02) (31, -1.60271555185317993164e-01) (32, -2.49867867678403854370e-02) (33, -2.15163469314575195312e+00) (34, -3.61099600791931152344e+00) (35, 2.46614173054695129395e-01) (36, 4.50284063816070556641e-01) (37, 6.47112727165222167969e-02) (38, -2.38141703605651855469e+00) (39, 8.92231404781341552734e-01) (40, 8.84510231018066406250e+00) (41, -6.54357969760894775391e-01) (42, -3.38110774755477905273e-02) (43, 2.91170477867126464844e+00) (44, 1.15480804815888404846e-02) (45, -3.33502054214477539062e+00) (46, 6.85448598861694335938e+00) (47, 3.27701158821582794189e-02) (48, -3.94380152225494384766e-01) (49, 9.26436781883239746094e-02) (50, 3.72983503341674804688e+00) (51, -8.95013958215713500977e-02) (52, 1.07684481143951416016e+00) (53, 2.96215385198593139648e-01) (54, 9.37351346015930175781e-01) (55, 5.33273443579673767090e-02) (56, -6.23354017734527587891e-01) (57, -5.25196790695190429688e-01) (58, -2.34842449426651000977e-01) (59, -6.21774494647979736328e-01) (60, 8.71179282665252685547e-01) (61, 8.18354338407516479492e-02) (62, -1.11589765548706054688e+00) (63, 2.06769061088562011719e+00) (64, -1.28587806224822998047e+00) (65, 7.76897311210632324219e-01) (66, -2.10414075851440429688e+00) (67, 8.54313075542449951172e-02) (68, 7.21463784575462341309e-02) (69, 6.14928960800170898438e-01) (70, 7.65305697917938232422e-01) (71, -1.75177586078643798828e+00) (72, -9.65988278388977050781e-01) (73, 1.54054239392280578613e-01) (74, -5.07036969065666198730e-02) (75, 2.02287030220031738281e+00) (76, 1.22482681274414062500e+00) (77, -7.73150300979614257812e+00) (78, 2.93244749307632446289e-01) (79, 1.07806599140167236328e+00) (80, 2.30243825912475585938e+00) (81, -1.25121605396270751953e+00) (82, 6.99122476577758789062e+00) (83, -5.21708905696868896484e-01) (84, -5.02583026885986328125e+00) (85, 7.92548656463623046875e-01) (86, -5.63032209873199462891e-01) (87, 4.02106881141662597656e-01) (88, 1.30613720417022705078e+00) (89, -1.85387074947357177734e+00) (90, -5.27668142318725585938e+00) (91, 8.84777009487152099609e-01) (92, -1.57582986354827880859e+00) (93, 3.64394545555114746094e+00) (94, 5.54875373840332031250e-01) (95, -7.61765390634536743164e-02) (96, -1.09256617724895477295e-03) (97, 4.71827507019042968750e-01) (98, 3.74476969242095947266e-01) (99, 2.10916455835103988647e-02) (100, 2.98541158437728881836e-01) (0, 4.48131132125854492188e+00) (1, 8.20977628231048583984e-01) (2, 2.39006280899047851562e-01) (3, -3.49141389131546020508e-01) (4, 3.47601985931396484375e+00) (5, 1.37769591808319091797e+00) (6, 1.22472858428955078125e+01) (7, 3.89803218841552734375e+00) (8, -2.08096131682395935059e-01) (9, 1.08710265159606933594e+00) (10, 4.28825378417968750000e+00) (11, -1.77198126912117004395e-01) (12, 1.91260859370231628418e-01) (13, 1.46817958354949951172e+00) (14, 4.53531408309936523438e+00) (15, 3.76771688461303710938e-01) (16, 5.43016374111175537109e-01) (17, 8.14739167690277099609e-01) (18, 2.78563499450683593750e-01) (19, -2.70791339874267578125e+00) (20, 2.33387872576713562012e-02) (21, 2.86397188901901245117e-01) (22, 6.74200594425201416016e-01) (23, 2.06729006022214889526e-02) (24, 4.30739998817443847656e-01) (25, -9.51315462589263916016e-01) (26, 5.30380010604858398438e-01) (27, -7.05690860748291015625e-01) (28, 3.48661154508590698242e-01) (29, 5.97014009952545166016e-01) (30, -5.62560892105102539062e+00) (31, -1.82122483849525451660e-01) (32, 1.30664631724357604980e-01) (33, 6.17541015148162841797e-01) (34, -6.40042924880981445312e+00) (35, -6.98747873306274414062e+00) (36, 7.06744194030761718750e-01) (37, 8.80660724639892578125e+00) (38, 7.04933977127075195312e+00) (39, -4.32229900360107421875e+00) (40, -3.65854501724243164062e-01) (41, 8.31936120986938476562e-01) (42, 5.01176536083221435547e-01) (43, -3.66196656227111816406e+00) (44, 5.20265281200408935547e-01) (45, 9.56126928329467773438e-01) (46, -9.04263257980346679688e-01) (47, 4.52456414699554443359e-01) (48, -1.44997406005859375000e+01) (49, -3.24427247047424316406e+00) (50, -1.82004463672637939453e+00) (51, 1.29639053344726562500e+00) (52, 9.74511265754699707031e-01) (53, 4.91439878940582275391e-01) (54, 1.26043748855590820312e+00) (55, 9.33490991592407226562e-02) (56, -8.27375888824462890625e-01) (57, -2.79200196266174316406e+00) (58, -1.82812321186065673828e+00) (59, 3.68653798103332519531e+00) (60, 2.96836227178573608398e-01) (61, 2.26580214500427246094e+00) (62, -4.18674564361572265625e+00) (63, -4.53841018676757812500e+00) (64, -4.57874631881713867188e+00) (65, 1.35359704494476318359e+00) (66, 6.21232211589813232422e-01) (67, 1.65451824665069580078e-01) (68, 8.67937803268432617188e-02) (69, -4.28721570968627929688e+00) (70, 4.02664035558700561523e-01) (71, 4.34065437316894531250e+00) (72, 4.73441934585571289062e+00) (73, 2.22859919071197509766e-01) (74, 4.56938333809375762939e-02) (75, 5.02042579650878906250e+00) (76, 8.26797783374786376953e-01) (77, -6.05164933949708938599e-03) (78, -4.47381591796875000000e+00) (79, 7.06556737422943115234e-02) (80, -4.67048931121826171875e+00) (81, 7.84726381301879882812e+00) (82, -3.43495798110961914062e+00) (83, 1.03859290480613708496e-01) (84, -1.18317091464996337891e+00) (85, 3.92740160226821899414e-01) (86, 4.68631315231323242188e+00) (87, 1.73897504806518554688e+00) (88, 2.03250482678413391113e-01) (89, 4.80831336975097656250e+00) (90, 9.47578907012939453125e+00) (91, 2.90612190961837768555e-01) (92, 7.51001977920532226562e+00) (93, -5.97444915771484375000e+00) (94, -2.27195382118225097656e+00) (95, 2.31409406661987304688e+00) (96, 1.52746713161468505859e+00) (97, 3.60763937234878540039e-01) (98, 2.83175444602966308594e+00) (99, -5.70876836776733398438e+00) (100, 5.73130846023559570312e-01) (0, 7.59703367948532104492e-02) (1, -1.48635470867156982422e+00) (2, 4.37954807281494140625e+00) (3, 8.99906009435653686523e-02) (4, -2.83589863777160644531e+00) (5, -1.45571911707520484924e-02) (6, 4.30363237857818603516e-01) (7, -7.97210037708282470703e-01) (8, 1.42774355411529541016e+00) (9, 4.26803141832351684570e-01) (10, 3.57717418670654296875e+00) (11, 5.15232622623443603516e-01) (12, -1.31094425916671752930e-01) (13, -4.09949943423271179199e-02) (14, 3.54239201545715332031e+00) (15, 4.48177337646484375000e-01) (16, 4.19678747653961181641e-01) (17, 2.60114133358001708984e-01) (18, 3.91964495182037353516e-01) (19, 7.94543921947479248047e-01) (20, 4.40848618745803833008e-01) (21, -1.09436607360839843750e+00) (22, 4.65982675552368164062e-01) (23, -5.58440573513507843018e-03) (24, 2.44659280776977539062e+00) (25, 4.93580363690853118896e-02) (26, 4.96666580438613891602e-01) (27, 3.20113253593444824219e+00) (28, -2.41691184043884277344e+00) (29, 4.99883800745010375977e-01) (30, -2.45159361511468887329e-02) (31, 3.72509583830833435059e-02) (32, -4.60173189640045166016e-02) (33, 6.16287291049957275391e-01) (34, -3.02867984771728515625e+00) (35, 2.83382105827331542969e+00) (36, 5.29338836669921875000e-01) (37, -1.59980446100234985352e-01) (38, 4.61199665069580078125e+00) (39, -1.03151535987854003906e+00) (40, 1.17921078205108642578e+00) (41, 5.74041187763214111328e-01) (42, -3.88974142074584960938e+00) (43, -4.64783906936645507812e+00) (44, 3.78205537796020507812e-01) (45, 3.29992800951004028320e-01) (46, -1.70892679691314697266e+00) (47, 3.99176895618438720703e-01) (48, -2.24846050143241882324e-01) (49, -4.44694423675537109375e+00) (50, -1.69915270805358886719e+00) (51, 4.94310818612575531006e-02) (52, -3.80653381347656250000e+00) (53, 5.38171172142028808594e-01) (54, -3.07795381546020507812e+00) (55, -1.59001976251602172852e-01) (56, 2.84721851348876953125e-01) (57, -1.09986042976379394531e+00) (58, 2.90226960182189941406e+00) (59, -1.29743993282318115234e-01) (60, 1.04844439029693603516e+00) (61, -6.88284933567047119141e-02) (62, -2.05711913108825683594e+00) (63, 6.82443857192993164062e-01) (64, 5.00576078891754150391e-01) (65, 5.70242524147033691406e-01) (66, 4.58840161561965942383e-01) (67, -1.10679738223552703857e-01) (68, 4.42699939012527465820e-01) (69, -1.18281447887420654297e+00) (70, 4.15483444929122924805e-01) (71, 4.83956193923950195312e+00) (72, 2.96817868947982788086e-01) (73, -1.38489063829183578491e-03) (74, -5.35626932978630065918e-02) (75, -1.78560659289360046387e-01) (76, -1.87751159071922302246e-01) (77, -4.95626717805862426758e-01) (78, -4.65528341010212898254e-03) (79, 6.53493925929069519043e-02) (80, 2.04607319831848144531e+00) (81, -5.28234899044036865234e-01) (82, 7.65602588653564453125e-01) (83, 1.07176613807678222656e+00) (84, -3.53314191102981567383e-01) (85, 6.78838074207305908203e-01) (86, -2.70562005043029785156e+00) (87, 6.30113780498504638672e-02) (88, 6.48691117763519287109e-01) (89, 3.15236032009124755859e-01) (90, -3.43166470527648925781e-01) (91, 6.28955900669097900391e-01) (92, 1.57911796569824218750e+01) (93, -6.21737493202090263367e-03) (94, 5.58000624179840087891e-01) (95, 3.13967376947402954102e-01) (96, 2.72889232635498046875e+00) (97, 4.36032146215438842773e-01) (98, -1.68696105480194091797e+00) (99, -2.93498903512954711914e-01) (100, -5.48454597592353820801e-02) (0, -1.98189005255699157715e-01) (1, -1.89654123783111572266e+00) (2, 8.43424424529075622559e-02) (3, 6.02774381637573242188e-01) (4, 1.21158711612224578857e-01) (5, 3.44571113586425781250e-01) (6, 4.63135194778442382812e+00) (7, 1.48145925998687744141e+00) (8, 6.80928945541381835938e-01) (9, 2.28559202514588832855e-03) (10, 8.00206810235977172852e-02) (11, -1.71639084815979003906e+00) (12, 4.41461741924285888672e-01) (13, 1.52802109718322753906e+00) (14, -1.49859249591827392578e+00) (15, -2.00981333851814270020e-01) (16, -1.64950013160705566406e-01) (17, 7.08231544494628906250e+00) (18, -1.92710056900978088379e-01) (19, -3.02145123481750488281e+00) (20, 4.38434392213821411133e-01) (21, -1.85604023933410644531e+00) (22, -1.59540414810180664062e-01) (23, 5.10313332080841064453e-01) (24, 1.62847518920898437500e+01) (25, 4.41071569919586181641e-01) (26, 1.26815891265869140625e+00) (27, 7.67906236648559570312e+00) (28, -1.28754422068595886230e-01) (29, -5.01636326313018798828e-01) (30, 2.20714017748832702637e-01) (31, -2.13902783393859863281e+00) (32, 3.94839018583297729492e-01) (33, -4.99557137489318847656e-01) (34, 2.20513744354248046875e+01) (35, 3.59541606903076171875e+00) (36, 6.63928091526031494141e-02) (37, 5.85300266742706298828e-01) (38, -1.01414327621459960938e+01) (39, 4.75742250680923461914e-01) (40, -5.79500484466552734375e+00) (41, -7.67453610897064208984e-02) (42, -6.19265317916870117188e-01) (43, 3.55924377441406250000e+01) (44, 1.92621454596519470215e-01) (45, -3.26754450798034667969e-01) (46, -1.31303062438964843750e+01) (47, -2.49868726730346679688e+00) (48, 2.05409631133079528809e-01) (49, -8.73825931549072265625e+00) (50, 9.63906228542327880859e-01) (51, 4.09951001405715942383e-01) (52, -2.08257222175598144531e+00) (53, 6.28262424468994140625e+00) (54, 3.86182755231857299805e-01) (55, 2.51065206527709960938e+00) (56, 3.19800472259521484375e+00) (57, -9.54854774475097656250e+00) (58, 4.45265197753906250000e+00) (59, 2.74718701839447021484e-01) (60, 5.38709620013833045959e-03) (61, 6.06795728206634521484e-01) (62, -4.67869329452514648438e+00) (63, 1.73571479320526123047e+00) (64, 2.77043938636779785156e-01) (65, 1.84273660182952880859e-01) (66, -6.70729935169219970703e-01) (67, -1.77315640449523925781e+00) (68, -6.24021738767623901367e-02) (69, -5.96219539642333984375e-01) (70, -2.35169315338134765625e+00) (71, -2.42758102416992187500e+01) (72, 2.23197579383850097656e+00) (73, 3.51830214262008666992e-01) (74, 8.36159348487854003906e-01) (75, 5.26501998901367187500e+01) (76, 3.90413254499435424805e-01) (77, 3.43308997154235839844e+00) (78, 1.63699066638946533203e+00) (79, 5.95145046710968017578e-01) (80, -2.81261175870895385742e-01) (81, -1.05395150184631347656e+00) (82, 1.11768035888671875000e+01) (83, 4.85393434762954711914e-01) (84, 1.71394405364990234375e+01) (85, 7.24585205316543579102e-02) (86, 1.17278518676757812500e+01) (87, -1.44718933105468750000e+00) (88, 1.13028407096862792969e-01) (89, -2.57641434669494628906e+00) (90, 1.29058688879013061523e-01) (91, -1.17458403110504150391e+00) (92, -7.57797145843505859375e+00) (93, -3.61420989036560058594e-01) (94, 1.40759468078613281250e-01) (95, 8.05137455463409423828e-02) (96, 4.11646537780761718750e+01) (97, -3.68523001670837402344e+00) (98, -1.55898404121398925781e+00) (99, -1.24508559703826904297e+00) (100, 3.03815826773643493652e-02) (0, 1.81548869609832763672e+00) (1, -2.57120513916015625000e+00) (2, 7.25913122296333312988e-02) (3, -9.31264400482177734375e-01) (4, 3.62106978893280029297e-01) (5, -1.05741955339908599854e-01) (6, -8.22271406650543212891e-01) (7, 1.09700965881347656250e+01) (8, -1.94814431667327880859e+00) (9, -3.27110826969146728516e-01) (10, -1.56405127048492431641e+00) (11, 5.89649081230163574219e-01) (12, -3.52068424224853515625e-01) (13, -2.92312812805175781250e+00) (14, 7.10567414760589599609e-01) (15, 5.03188908100128173828e-01) (16, 4.05494183301925659180e-01) (17, -1.76948523521423339844e+00) (18, 3.76703202724456787109e-01) (19, 6.44292652606964111328e-01) (20, 7.12385550141334533691e-02) (21, 1.08448946475982666016e+00) (22, 6.30700826644897460938e-01) (23, 1.97811927646398544312e-02) (24, -4.46089410781860351562e+00) (25, -1.29132613539695739746e-01) (26, -6.84472262859344482422e-01) (27, 1.51220488548278808594e+00) (28, 9.38476026058197021484e-02) (29, 9.47176873683929443359e-01) (30, 2.05726139247417449951e-02) (31, 8.71372669935226440430e-02) (32, -3.76162752509117126465e-02) (33, 3.19342517852783203125e+00) (34, 1.44163978099822998047e+00) (35, -8.13777351379394531250e+00) (36, 5.40172278881072998047e-01) (37, -3.49105548858642578125e+00) (38, 3.41690480709075927734e-01) (39, -1.26756775379180908203e+00) (40, -4.35533571243286132812e+00) (41, 4.30330634117126464844e-01) (42, 1.20624840259552001953e-01) (43, -6.04515361785888671875e+00) (44, 3.73741328716278076172e-01) (45, 3.40473604202270507812e+00) (46, 2.71262884140014648438e+00) (47, -1.16363978385925292969e+00) (48, -3.39111161231994628906e+00) (49, -3.99085581302642822266e-02) (50, -4.02051359415054321289e-02) (51, 1.86789706349372863770e-01) (52, 3.50222945213317871094e-01) (53, -4.41357821226119995117e-01) (54, -7.60449692606925964355e-02) (55, -9.89315193146467208862e-03) (56, 2.99085170030593872070e-01) (57, -9.63260555267333984375e+00) (58, 1.58262264728546142578e+00) (59, -2.56782799959182739258e-01) (60, 5.41535258293151855469e-01) (61, 3.81464457511901855469e+00) (62, -4.12657484412193298340e-02) (63, 6.82307291030883789062e+00) (64, 1.58255088329315185547e+00) (65, 3.20787739753723144531e+00) (66, 2.90249407291412353516e-01) (67, 3.02695012092590332031e+00) (68, 5.11055707931518554688e-01) (69, 3.89853209257125854492e-01) (70, -3.69293618202209472656e+00) (71, -1.02049865722656250000e+01) (72, -4.25546541810035705566e-02) (73, 1.03816568851470947266e-01) (74, -1.02349385619163513184e-01) (75, -2.66537308692932128906e-01) (76, -8.98544192314147949219e-02) (77, 2.67918586730957031250e+00) (78, 4.21435952186584472656e-01) (79, 4.12999577820301055908e-02) (80, -4.20606040954589843750e+00) (81, -5.95731496810913085938e-01) (82, -2.85742688179016113281e+00) (83, 4.48140967637300491333e-03) (84, -6.08728599548339843750e+00) (85, 6.48805260658264160156e-01) (86, 5.20341682434082031250e+00) (87, 9.10864710807800292969e-01) (88, 5.93017399311065673828e-01) (89, -1.17877280712127685547e+00) (90, -1.98853707313537597656e+00) (91, -1.27509748935699462891e+00) (92, 1.85481872558593750000e+01) (93, 2.82831954956054687500e+00) (94, 1.69046282768249511719e+00) (95, 5.07246923446655273438e+00) (96, -4.68995422124862670898e-01) (97, 7.01932728290557861328e-01) (98, 1.05157299041748046875e+01) (99, -2.20220964401960372925e-02) (100, 5.67297458648681640625e-01) (0, -3.53969991207122802734e-01) (1, 1.14441645145416259766e+00) (2, 5.20861864089965820312e-01) (3, -1.81237086653709411621e-01) (4, 5.67730545997619628906e-01) (5, 1.26630294322967529297e+00) (6, 1.16279035806655883789e-01) (7, 1.10058438777923583984e+00) (8, 4.46773469448089599609e-01) (9, 4.94014590978622436523e-01) (10, 1.67513325810432434082e-01) (11, 4.06028568744659423828e-01) (12, 4.95745331048965454102e-01) (13, 3.78396362066268920898e-01) (14, -2.02507543563842773438e+00) (15, 7.20704853534698486328e-01) (16, 4.99985098838806152344e-01) (17, 3.57988655567169189453e-01) (18, 4.10419583320617675781e-01) (19, -3.59905540943145751953e-01) (20, -8.03280770778656005859e-02) (21, 4.99905705451965332031e-01) (22, 4.89528983831405639648e-01) (23, 3.31272259354591369629e-02) (24, 2.86033225059509277344e+00) (25, 4.58704214543104171753e-03) (26, 4.55644518136978149414e-01) (27, -3.19063186645507812500e-01) (28, 2.63753682374954223633e-01) (29, 4.68619734048843383789e-01) (30, -9.98691543936729431152e-02) (31, 6.82931765913963317871e-02) (32, 3.41650873422622680664e-01) (33, 5.55382311344146728516e-01) (34, 9.47908592224121093750e+00) (35, 1.86138534545898437500e+00) (36, 4.31519597768783569336e-01) (37, 2.71092832088470458984e-01) (38, -1.59204518795013427734e+00) (39, 1.44638299942016601562e+00) (40, -3.66361975669860839844e-01) (41, 4.39537793397903442383e-01) (42, 2.95600503683090209961e-01) (43, 4.82036542892456054688e+00) (44, 4.96557861566543579102e-01) (45, 1.50093424320220947266e+00) (46, -1.49692785739898681641e+00) (47, 5.53665995597839355469e-01) (48, 6.04772627353668212891e-01) (49, 6.14543855190277099609e-01) (50, -1.25867322087287902832e-01) (51, 1.45212933421134948730e-01) (52, 2.00376346707344055176e-01) (53, -7.74034142494201660156e-01) (54, -8.86648744344711303711e-02) (55, -2.59360820055007934570e-02) (56, 6.84249341487884521484e-01) (57, 1.59736669063568115234e+00) (58, 2.66850385814905166626e-02) (59, 1.48526525497436523438e+00) (60, -2.27811947464942932129e-01) (61, 1.30885314941406250000e+00) (62, 1.78439116477966308594e+00) (63, 3.16622424125671386719e+00) (64, 7.51852154731750488281e-01) (65, 2.81032502651214599609e-01) (66, 6.34044528007507324219e-01) (67, 7.45691716670989990234e-01) (68, 4.68300879001617431641e-01) (69, 3.89708995819091796875e-01) (70, 1.68626129627227783203e-01) (71, 1.13293886184692382812e+00) (72, 4.46760118007659912109e-01) (73, 8.29055309295654296875e-01) (74, 6.77652597427368164062e-01) (75, 6.02285861968994140625e-01) (76, 4.27146047353744506836e-01) (77, -1.72628078460693359375e+01) (78, -6.46076491102576255798e-03) (79, -1.81032612919807434082e-01) (80, 3.08755898475646972656e+00) (81, 9.87755298614501953125e-01) (82, 6.46505653858184814453e-01) (83, 9.90185737609863281250e-01) (84, 7.08493041992187500000e+00) (85, 2.46052145957946777344e-01) (86, 8.29681873321533203125e-01) (87, -1.72616279125213623047e+00) (88, -2.95820161700248718262e-02) (89, 1.95831418037414550781e-01) (90, 5.48991680145263671875e-01) (91, 2.83710211515426635742e-01) (92, 1.05482130050659179688e+01) (93, -1.05367743968963623047e+00) (94, 3.17388623952865600586e-01) (95, 6.58056139945983886719e-01) (96, -8.55909049510955810547e-01) (97, 4.43930894136428833008e-01) (98, 6.94979727268218994141e-01) (99, 1.07766616344451904297e+00) (100, 5.40547609329223632812e-01) (0, 1.63381123542785644531e+00) (1, 2.64852792024612426758e-01) (2, 2.26565152406692504883e-01) (3, 6.83438539505004882812e-01) (4, -2.13359221816062927246e-02) (5, 3.35454940795898437500e-01) (6, 8.04004967212677001953e-01) (7, -5.56095719337463378906e-01) (8, 6.96134209632873535156e-01) (9, -2.22060680389404296875e-01) (10, 6.70061334967613220215e-02) (11, -1.87608286738395690918e-01) (12, 7.67352044582366943359e-01) (13, 5.67489564418792724609e-01) (14, 2.28066539764404296875e+00) (15, -1.30204722285270690918e-01) (16, -8.77955555915832519531e-02) (17, 7.67913237214088439941e-02) (18, 4.24046739935874938965e-02) (19, -2.25180697441101074219e+00) (20, 9.91796493530273437500e-01) (21, 3.95151712000370025635e-02) (22, 9.89954769611358642578e-02) (23, -1.53927063941955566406e+00) (24, 9.79860305786132812500e+00) (25, 8.51990759372711181641e-01) (26, -1.14572787284851074219e+00) (27, 1.41080045700073242188e+00) (28, -1.94083619117736816406e+00) (29, -2.18371915817260742188e+00) (30, -4.41724747419357299805e-01) (31, -9.22305405139923095703e-01) (32, 2.87540167570114135742e-01) (33, 6.78759694099426269531e-01) (34, 4.30575942993164062500e+00) (35, 1.00250375270843505859e+00) (36, -1.58561170101165771484e-01) (37, 1.15020245313644409180e-01) (38, -3.98259353637695312500e+00) (39, -8.10604393482208251953e-01) (40, 1.50726664066314697266e+00) (41, 7.24223479628562927246e-02) (42, 4.28401470184326171875e-01) (43, 4.93487268686294555664e-02) (44, 1.07281208038330078125e+00) (45, -9.05604101717472076416e-03) (46, 4.88992595672607421875e+00) (47, -1.56032085418701171875e-01) (48, 3.66775803267955780029e-02) (49, 2.42871546745300292969e+00) (50, -9.28618144989013671875e+00) (51, 5.50831556320190429688e-01) (52, -6.45700871944427490234e-01) (53, 5.34645766019821166992e-02) (54, 4.42586708068847656250e+00) (55, -1.65019437670707702637e-01) (56, 2.58403968811035156250e+00) (57, 5.27279496192932128906e-01) (58, -1.13816375732421875000e+01) (59, 3.96301448345184326172e-01) (60, -2.61021196842193603516e-01) (61, 7.75238215923309326172e-01) (62, -3.06186288595199584961e-01) (63, 1.86651515960693359375e+00) (64, 4.19801187515258789062e+00) (65, -1.49464532732963562012e-02) (66, -2.97257900238037109375e-01) (67, 5.31625270843505859375e-01) (68, -1.28556668758392333984e-01) (69, -7.11295902729034423828e-01) (70, -8.68348553776741027832e-02) (71, 4.50987911224365234375e+00) (72, 7.48747229576110839844e-01) (73, 3.09557259082794189453e-01) (74, 5.69561541080474853516e-01) (75, -1.26751697063446044922e+00) (76, 2.79606759548187255859e-01) (77, -3.83775496482849121094e+00) (78, 5.68557679653167724609e-01) (79, 2.78830438852310180664e-01) (80, -6.92794144153594970703e-01) (81, 1.67731070518493652344e+00) (82, 2.21931770443916320801e-01) (83, 9.68639925122261047363e-02) (84, 2.94247913360595703125e+00) (85, -5.33035621047019958496e-02) (86, -1.77583563327789306641e+00) (87, 2.04217100143432617188e+00) (88, -6.17453753948211669922e-02) (89, 2.84119307994842529297e-01) (90, 6.40461146831512451172e-01) (91, -6.65582597255706787109e-01) (92, -2.62244868278503417969e+00) (93, -4.14032554626464843750e+00) (94, -7.90517687797546386719e-01) (95, -1.33745700120925903320e-01) (96, 4.38453483581542968750e+00) (97, -9.74634066224098205566e-02) (98, 2.05282735824584960938e+00) (99, 4.90647375583648681641e-01) (100, -1.36896133422851562500e-01) (0, 7.39053535461425781250e+00) (1, 3.56628179550170898438e-01) (2, 2.74599146842956542969e+00) (3, 1.47456145286560058594e+00) (4, 3.28662347793579101562e+00) (5, -6.91007897257804870605e-02) (6, 2.29130339622497558594e+00) (7, -4.10443592071533203125e+00) (8, 4.67745698988437652588e-02) (9, 4.37940031290054321289e-01) (10, 6.92362427711486816406e-01) (11, 4.08422440290451049805e-01) (12, -9.10769253969192504883e-02) (13, -2.24977225065231323242e-01) (14, 1.55300235748291015625e+01) (15, 5.24851560592651367188e-01) (16, -1.03980742394924163818e-01) (17, 7.56432151794433593750e+00) (18, 4.60600286722183227539e-01) (19, 7.02327489852905273438e-01) (20, 2.40224264562129974365e-02) (21, 6.05044364929199218750e-01) (22, 4.67774808406829833984e-01) (23, -1.25544488430023193359e-01) (24, -6.20359897613525390625e+00) (25, -2.96390199661254882812e+00) (26, -5.35410344600677490234e-02) (27, 3.51725220680236816406e+00) (28, -9.15754437446594238281e-01) (29, 5.94500720500946044922e-01) (30, -1.47898107767105102539e-01) (31, -3.41076612472534179688e+00) (32, -1.25168800354003906250e-01) (33, 8.01319852471351623535e-02) (34, -2.35512709617614746094e+00) (35, -5.90295195579528808594e-02) (36, 6.74548685550689697266e-01) (37, -9.61375162005424499512e-02) (38, 5.96131086349487304688e+00) (39, -7.91422665119171142578e-01) (40, 6.49834585189819335938e+00) (41, 5.18681526184082031250e-01) (42, -8.91652011871337890625e+00) (43, 5.10101890563964843750e+00) (44, 4.71013098955154418945e-01) (45, 3.22357445955276489258e-01) (46, -6.17414355278015136719e-01) (47, 5.02969861030578613281e-01) (48, 5.75347896665334701538e-03) (49, 7.36120164394378662109e-01) (50, 8.13889980316162109375e+00) (51, -1.09861604869365692139e-01) (52, 5.55355191230773925781e-01) (53, 6.70803606510162353516e-01) (54, 1.53700673580169677734e+00) (55, -9.25522804260253906250e-01) (56, -4.64756160974502563477e-01) (57, 5.99563932418823242188e+00) (58, 1.90279293060302734375e+01) (59, 4.33322191238403320312e+00) (60, 8.98768424987792968750e+00) (61, 8.48612904548645019531e-01) (62, -1.69999706745147705078e+00) (63, 1.53340492248535156250e+01) (64, 5.94116389751434326172e-01) (65, 5.97222745418548583984e-01) (66, 1.03791971206665039062e+01) (67, -6.16415309906005859375e+00) (68, 4.06817704439163208008e-01) (69, 1.24180164337158203125e+01) (70, -2.63696002960205078125e+00) (71, -1.38871412277221679688e+01) (72, -3.61083698272705078125e+00) (73, -1.17650724947452545166e-01) (74, 6.39159306883811950684e-02) (75, -1.38298053741455078125e+01) (76, 1.46774446964263916016e+00) (77, 4.66688966751098632812e+00) (78, -3.39381575584411621094e-01) (79, 1.14334732294082641602e-01) (80, -3.22829437255859375000e+00) (81, 2.80376577377319335938e+00) (82, -1.05445489883422851562e+01) (83, 1.90852642059326171875e-01) (84, -6.23426198959350585938e+00) (85, -1.56143832206726074219e+00) (86, 5.81216859817504882812e+00) (87, 7.31997430324554443359e-01) (88, -1.66329598426818847656e+00) (89, -4.69082736968994140625e+00) (90, -9.28018379211425781250e+00) (91, -3.62986266613006591797e-01) (92, 8.65657746791839599609e-01) (93, 1.20535038411617279053e-01) (94, 1.26443058252334594727e-01) (95, 6.45722508430480957031e-01) (96, -1.12459268569946289062e+01) (97, 4.07671660184860229492e-01) (98, 9.36605358123779296875e+00) (99, -1.22695732116699218750e+00) (100, -2.48316049575805664062e-01) (0, -8.74888420104980468750e-01) (1, -6.06997871398925781250e+00) (2, 1.85316205024719238281e+00) (3, 3.01858520507812500000e+00) (4, 2.85135895013809204102e-01) (5, -3.18961411714553833008e-01) (6, -5.31229972839355468750e+00) (7, 1.17341148853302001953e+00) (8, 5.53003430366516113281e-01) (9, 5.29780685901641845703e-01) (10, 1.52943420410156250000e+00) (11, 4.58587884902954101562e-01) (12, -3.81004691123962402344e-01) (13, -2.87368029356002807617e-01) (14, -3.47546982765197753906e+00) (15, 4.45115357637405395508e-01) (16, -1.95593965053558349609e+00) (17, 5.47375023365020751953e-01) (18, -1.62297248840332031250e+00) (19, -2.41190820932388305664e-01) (20, -3.03902935981750488281e+00) (21, 4.27230566740036010742e-01) (22, 4.07956510782241821289e-01) (23, -2.40309071540832519531e+00) (24, 3.48053288459777832031e+00) (25, 1.32180416584014892578e+00) (26, -2.51603913307189941406e+00) (27, 1.20511114597320556641e+00) (28, 2.62092858552932739258e-01) (29, 4.95876264572143554688e+00) (30, -4.63127851486206054688e-01) (31, -1.65244364738464355469e+00) (32, -9.05906856060028076172e-02) (33, 8.30076789855957031250e+00) (34, 8.18981266021728515625e+00) (35, -2.77781844139099121094e+00) (36, 5.68767309188842773438e-01) (37, -4.26717326045036315918e-02) (38, -8.57051086425781250000e+00) (39, -1.40100512653589248657e-02) (40, 4.62741494178771972656e-01) (41, 1.74181735515594482422e+00) (42, -1.57283449172973632812e+00) (43, -4.89176988601684570312e+00) (44, 4.48790580034255981445e-01) (45, 1.43413841724395751953e+00) (46, 8.84604740142822265625e+00) (47, 4.54080790281295776367e-01) (48, -1.56102299690246582031e+00) (49, -1.54147577285766601562e+00) (50, -9.58703517913818359375e+00) (51, -3.22912812232971191406e+00) (52, -1.57439500093460083008e-01) (53, 2.36468482017517089844e+00) (54, 2.19026303291320800781e+00) (55, 3.26334357261657714844e+00) (56, -1.64688694477081298828e+00) (57, -7.86577320098876953125e+00) (58, 4.09277868270874023438e+00) (59, -1.41836091876029968262e-01) (60, -2.42122292518615722656e+00) (61, -3.84424701333045959473e-02) (62, 6.35454559326171875000e+00) (63, 2.12483711242675781250e+01) (64, -1.91961109638214111328e-01) (65, 6.13980054855346679688e-01) (66, 7.61615633964538574219e-01) (67, -3.20388287305831909180e-01) (68, 5.24408698081970214844e-01) (69, 6.36951863765716552734e-01) (70, 5.91630160808563232422e-01) (71, -8.48637294769287109375e+00) (72, 4.29223442077636718750e+00) (73, -1.20498463511466979980e-01) (74, -1.16416243836283683777e-02) (75, -2.62026786804199218750e-01) (76, -1.54653519392013549805e-01) (77, 1.59672319889068603516e+00) (78, 5.54550468921661376953e-01) (79, 4.96132881380617618561e-04) (80, 1.91477489471435546875e+01) (81, 4.31341409683227539062e+00) (82, 2.60631680488586425781e+00) (83, 1.25492826104164123535e-01) (84, 1.17244644165039062500e+01) (85, 7.02292501926422119141e-01) (86, -1.35263371467590332031e+00) (87, 5.63731145858764648438e+00) (88, 4.93288427591323852539e-01) (89, -2.34955828636884689331e-03) (90, 3.62349915504455566406e+00) (91, -3.16532284021377563477e-01) (92, 1.90423354506492614746e-01) (93, 7.34480261802673339844e-01) (94, 1.57746350765228271484e+00) (95, 4.54284995794296264648e-01) (96, -1.44400939941406250000e+01) (97, 5.21911621093750000000e-01) (98, -2.34941124916076660156e+00) (99, -5.79006820917129516602e-02) (100, 1.40599131584167480469e-01) (0, 5.14444410800933837891e-02) (1, 4.79182135313749313354e-03) (2, 1.02819001674652099609e+00) (3, 1.00212588906288146973e-01) (4, 6.86346292495727539062e+00) (5, -1.49196356534957885742e-01) (6, 1.66929280757904052734e+00) (7, -2.69705414772033691406e-01) (8, -1.62158584594726562500e+00) (9, 4.40148621797561645508e-01) (10, 5.28692603111267089844e-01) (11, 3.19298535585403442383e-01) (12, -1.82312224060297012329e-02) (13, -1.51026882231235504150e-02) (14, 6.65306374430656433105e-02) (15, 4.66672986745834350586e-01) (16, 3.79524499177932739258e-01) (17, -1.04012382030487060547e+00) (18, 5.98959863185882568359e-01) (19, 7.29095935821533203125e-01) (20, 1.47242546081542968750e-01) (21, 3.57008069753646850586e-01) (22, 3.68882328271865844727e-01) (23, 6.55861897394061088562e-03) (24, -2.82398247718811035156e+00) (25, -3.24628293514251708984e-01) (26, -1.76172792911529541016e+00) (27, -8.44147130846977233887e-02) (28, -1.06362426280975341797e+00) (29, -2.82359302043914794922e-01) (30, -7.19241127371788024902e-02) (31, 2.98328727483749389648e-01) (32, -7.48629048466682434082e-02) (33, -4.78752166032791137695e-01) (34, 7.94215488433837890625e+00) (35, -6.00109159946441650391e-01) (36, 5.71244060993194580078e-01) (37, -1.11803218722343444824e-01) (38, -2.51311540603637695312e+00) (39, -2.42147129029035568237e-02) (40, 3.64897876977920532227e-01) (41, 6.17720007896423339844e-01) (42, -7.03007169067859649658e-03) (43, -1.26165084838867187500e+01) (44, -2.16448307037353515625e-01) (45, 2.62663394212722778320e-01) (46, -5.67046976089477539062e+00) (47, 4.08137917518615722656e-01) (48, 3.13505363464355468750e+00) (49, -5.65486475825309753418e-02) (50, -9.65163409709930419922e-01) (51, -2.43245720863342285156e-01) (52, -5.89465796947479248047e-02) (53, 6.17476999759674072266e-01) (54, 2.44674623012542724609e-01) (55, 6.63622096180915832520e-02) (56, 1.40102021396160125732e-02) (57, 3.77341628074645996094e+00) (58, 7.06451606750488281250e+00) (59, 4.64384444057941436768e-02) (60, 6.05946362018585205078e-01) (61, -2.97544896602630615234e-01) (62, -6.42229795455932617188e-01) (63, -1.28203004598617553711e-01) (64, -2.03575298190116882324e-01) (65, 5.60715138912200927734e-01) (66, 3.02080243825912475586e-01) (67, 5.69339133799076080322e-02) (68, 4.44774210453033447266e-01) (69, 1.77129125595092773438e+00) (70, 6.08692705631256103516e-01) (71, -3.08416336774826049805e-01) (72, 4.80160623788833618164e-01) (73, 7.14412480592727661133e-02) (74, -3.09722065925598144531e-01) (75, -1.34920522570610046387e-01) (76, 3.25600504875183105469e-02) (77, 1.63978767395019531250e+00) (78, 1.26013278961181640625e-01) (79, 3.02282333374023437500e-01) (80, 1.42646372318267822266e+00) (81, 4.79240447282791137695e-01) (82, 1.31908547878265380859e+00) (83, 1.80289649963378906250e+00) (84, 6.32771492004394531250e+00) (85, 6.15293443202972412109e-01) (86, -9.56181466579437255859e-01) (87, 9.95578467845916748047e-01) (88, -1.22300410270690917969e+00) (89, 5.17677478492259979248e-02) (90, -1.02235106751322746277e-02) (91, 5.70025682449340820312e-01) (92, -1.72226691246032714844e+00) (93, 6.56226694583892822266e-01) (94, 4.10891711711883544922e-01) (95, -8.30430209636688232422e-01) (96, 4.49609661102294921875e+00) (97, -1.21166372299194335938e+00) (98, 1.96631228923797607422e+00) (99, -1.18091607093811035156e+00) (100, 3.32610338926315307617e-01) (0, 1.60715013742446899414e-01) (1, 2.49263718724250793457e-02) (2, 3.55089455842971801758e-01) (3, 1.23929953575134277344e+00) (4, 8.51956605911254882812e-01) (5, -1.26529186964035034180e-01) (6, -1.51403498649597167969e+00) (7, -1.41447961330413818359e+00) (8, 8.69581699371337890625e-02) (9, 5.69500148296356201172e-01) (10, 8.85888755321502685547e-01) (11, 5.49054563045501708984e-01) (12, 9.12732124328613281250e-01) (13, 2.53404945135116577148e-01) (14, -4.68621730804443359375e+00) (15, 4.03240293264389038086e-01) (16, 5.52376508712768554688e-01) (17, 1.23951816558837890625e+00) (18, 4.81712877750396728516e-01) (19, 9.65292155742645263672e-01) (20, 1.10090577602386474609e+00) (21, 5.15974998474121093750e-01) (22, 3.77187073230743408203e-01) (23, -1.63773930072784423828e+00) (24, 8.59047293663024902344e-01) (25, 6.50495588779449462891e-02) (26, 2.57780224084854125977e-01) (27, -5.32031250000000000000e+00) (28, 1.10779535770416259766e+00) (29, 4.34454917907714843750e-01) (30, -8.59314054250717163086e-02) (31, 1.07907354831695556641e+00) (32, -1.94943454116582870483e-02) (33, 6.16313777863979339600e-02) (34, 4.33239984512329101562e+00) (35, -7.78319835662841796875e-01) (36, 4.33864146471023559570e-01) (37, -2.01340198516845703125e-01) (38, -7.37605094909667968750e+00) (39, -2.05999553203582763672e-01) (40, 6.47330164909362792969e-01) (41, 4.51899230480194091797e-01) (42, 4.47660721838474273682e-02) (43, -8.57831001281738281250e-01) (44, 5.09861290454864501953e-01) (45, 2.83752709627151489258e-01) (46, -1.95679187774658203125e+00) (47, 4.54456239938735961914e-01) (48, -2.04160317778587341309e-01) (49, -1.79874986410140991211e-01) (50, -2.95268130302429199219e+00) (51, 3.98526377975940704346e-02) (52, -5.15323877334594726562e-02) (53, 8.05987477302551269531e-01) (54, -2.07069921493530273438e+00) (55, -5.14341369271278381348e-02) (56, -2.78316473960876464844e+00) (57, 1.89818429946899414062e+00) (58, -2.30503416061401367188e+00) (59, -2.49901279807090759277e-01) (60, 1.83174502849578857422e+00) (61, -3.36641639471054077148e-01) (62, -1.40796256065368652344e+00) (63, 2.73477268218994140625e+00) (64, -1.03084430098533630371e-01) (65, 5.60012161731719970703e-01) (66, 4.06882971525192260742e-01) (67, -2.91604137420654296875e+00) (68, 6.67163908481597900391e-01) (69, 1.38664317131042480469e+00) (70, 6.31926596164703369141e-01) (71, -4.45915174484252929688e+00) (72, 4.95673328638076782227e-01) (73, -1.83002918958663940430e-01) (74, -5.74067011475563049316e-02) (75, 1.77712395787239074707e-01) (76, -9.89177748560905456543e-02) (77, -9.61645221710205078125e+00) (78, 3.08920685201883316040e-02) (79, -3.63019168376922607422e-01) (80, -2.27868765592575073242e-01) (81, 6.99814200401306152344e-01) (82, 3.07254076004028320312e+00) (83, 4.16966736316680908203e-01) (84, 1.36119365692138671875e+00) (85, 6.83953762054443359375e-01) (86, 2.41963553428649902344e+00) (87, -2.50482702255249023438e+00) (88, 5.09139597415924072266e-01) (89, -2.85628205165266990662e-03) (90, -3.81263434886932373047e-01) (91, 3.43370944261550903320e-01) (92, 3.30556106567382812500e+00) (93, -3.23072409629821777344e+00) (94, 3.65319341421127319336e-01) (95, 3.72707724571228027344e-01) (96, 6.53158092498779296875e+00) (97, 7.07367420196533203125e-01) (98, 5.23898959159851074219e-01) (99, -2.31947124004364013672e-01) (100, -5.26179015636444091797e-01) (0, -5.10806739330291748047e-02) (1, 1.25173234939575195312e+00) (2, 4.01582419872283935547e-01) (3, -6.53032660484313964844e-02) (4, 1.00804865360260009766e+00) (5, 1.53266298770904541016e+00) (6, 7.71627128124237060547e-02) (7, 1.21214115619659423828e+00) (8, -2.19495043158531188965e-01) (9, 5.72442412376403808594e-01) (10, 4.31189298629760742188e-01) (11, 3.97454977035522460938e-01) (12, 3.42240393161773681641e-01) (13, 7.67394006252288818359e-01) (14, 4.09052515029907226562e+00) (15, 5.11146008968353271484e-01) (16, 4.91245895624160766602e-01) (17, 2.14853549003601074219e+00) (18, 5.47151982784271240234e-01) (19, -1.24643355607986450195e-01) (20, -1.13842204213142395020e-01) (21, 5.52574455738067626953e-01) (22, 5.89546203613281250000e-01) (23, 6.36618062853813171387e-02) (24, 4.49980497360229492188e+00) (25, -9.30520668625831604004e-02) (26, 4.68029111623764038086e-01) (27, -4.56019115447998046875e+00) (28, 4.83953356742858886719e-01) (29, 4.94678318500518798828e-01) (30, -6.38024881482124328613e-02) (31, 1.07487477362155914307e-01) (32, -3.70434299111366271973e-02) (33, 6.69812679290771484375e-01) (34, -6.73882675170898437500e+00) (35, 1.55874574184417724609e+00) (36, 4.51436161994934082031e-01) (37, 4.99685943126678466797e-01) (38, 1.46975636482238769531e+00) (39, -6.04006424546241760254e-02) (40, -5.57062625885009765625e-01) (41, 7.15296089649200439453e-01) (42, 3.23111206293106079102e-01) (43, -4.06310749053955078125e+00) (44, 4.41162914037704467773e-01) (45, 9.78052437305450439453e-01) (46, -4.26181048154830932617e-01) (47, 5.99580049514770507812e-01) (48, 2.30094298720359802246e-01) (49, 2.52539962530136108398e-01) (50, -3.21845263242721557617e-01) (51, 1.49014145135879516602e-01) (52, 4.34820383787155151367e-01) (53, 1.96010768413543701172e-01) (54, 1.15541255474090576172e+00) (55, -8.32202099263668060303e-03) (56, 4.26275432109832763672e-01) (57, -3.04121041297912597656e+00) (58, -1.75744563341140747070e-01) (59, 1.53133654594421386719e+00) (60, -5.72837650775909423828e-01) (61, 1.02327680587768554688e+00) (62, 5.33104181289672851562e-01) (63, 1.77838528156280517578e+00) (64, 6.15717947483062744141e-01) (65, 4.13839578628540039062e-01) (66, 6.11567199230194091797e-01) (67, 6.58934772014617919922e-01) (68, 6.13246917724609375000e-01) (69, 1.22897997498512268066e-01) (70, 4.58315879106521606445e-01) (71, -2.80747365951538085938e+00) (72, 5.85360646247863769531e-01) (73, 4.28566098213195800781e-01) (74, 1.71175733208656311035e-01) (75, 4.94349211454391479492e-01) (76, 8.96242737770080566406e-01) (77, 9.52243423461914062500e+00) (78, -5.71863278746604919434e-02) (79, -2.04340428113937377930e-01) (80, 3.50414812564849853516e-01) (81, 6.61662280559539794922e-01) (82, -5.66985225677490234375e+00) (83, 3.56854140758514404297e-01) (84, -2.05065822601318359375e+00) (85, 4.04589980840682983398e-01) (86, 5.28640794754028320312e+00) (87, 8.43792796134948730469e-01) (88, -2.11730048060417175293e-01) (89, 6.54470443725585937500e-01) (90, 5.73154628276824951172e-01) (91, 3.38319957256317138672e-01) (92, 3.94508457183837890625e+00) (93, 1.84961438179016113281e-01) (94, -5.12025022506713867188e+00) (95, 4.34381812810897827148e-01) (96, 3.61868238449096679688e+00) (97, 6.19195222854614257812e-01) (98, 2.37994715571403503418e-01) (99, 4.64191079139709472656e-01) (100, 6.05184197425842285156e-01) (0, 9.28080856800079345703e-01) (1, -1.80365228652954101562e+00) (2, 3.65306437015533447266e-01) (3, -2.77771323919296264648e-01) (4, -1.71200168132781982422e+00) (5, -3.07490110397338867188e-01) (6, 8.42823386192321777344e-01) (7, -6.89613938331604003906e-01) (8, -1.35273531079292297363e-01) (9, 3.48696798086166381836e-01) (10, 1.33102506399154663086e-01) (11, 5.58368265628814697266e-01) (12, -6.69044137001037597656e-01) (13, 1.19800135493278503418e-01) (14, 7.35225534439086914062e+00) (15, 5.08095443248748779297e-01) (16, 5.07822334766387939453e-01) (17, -2.51744508743286132812e+00) (18, -3.04847937077283859253e-02) (19, 9.40866172313690185547e-01) (20, -2.94146221131086349487e-02) (21, 3.76220881938934326172e-01) (22, 5.46660900115966796875e-01) (23, -5.28988182544708251953e-01) (24, 2.16440987586975097656e+00) (25, -1.41673281788825988770e-01) (26, 5.88796138763427734375e-01) (27, -1.00925512313842773438e+01) (28, 7.67901897430419921875e-01) (29, 1.08397550880908966064e-01) (30, -1.61444898694753646851e-02) (31, 8.29592943191528320312e-01) (32, -1.53353750705718994141e-01) (33, -3.16286873817443847656e+00) (34, 1.38976848125457763672e+00) (35, 2.90677279233932495117e-01) (36, 6.38087451457977294922e-01) (37, -2.13326454162597656250e+00) (38, 3.42647695541381835938e+00) (39, 1.22154068946838378906e+00) (40, 3.16940855979919433594e+00) (41, 5.22861957550048828125e-01) (42, -5.58126252144575119019e-04) (43, 5.98412990570068359375e+00) (44, 3.33427906036376953125e-01) (45, -3.60818457603454589844e+00) (46, 6.22884869575500488281e-01) (47, 5.42036831378936767578e-01) (48, 4.34436388313770294189e-02) (49, -2.90137696266174316406e+00) (50, -7.26710617542266845703e-01) (51, -1.36458277702331542969e-01) (52, 5.91278553009033203125e-01) (53, -1.13665223121643066406e+00) (54, 3.51034498214721679688e+00) (55, -3.04900676012039184570e-01) (56, -1.57279944419860839844e+00) (57, -3.11586737632751464844e+00) (58, 1.68114912509918212891e+00) (59, -1.59331157803535461426e-01) (60, 1.17649650573730468750e+00) (61, -1.37962365150451660156e+00) (62, 5.00768065452575683594e-01) (63, 7.14907264709472656250e+00) (64, 9.08713936805725097656e-01) (65, 4.57922875881195068359e-01) (66, 3.46507042646408081055e-01) (67, -8.85160088539123535156e-01) (68, 6.16876006126403808594e-01) (69, 1.66951251029968261719e+00) (70, 4.81564223766326904297e-01) (71, 5.49560308456420898438e+00) (72, 9.94804322719573974609e-01) (73, 1.31752610206604003906e-01) (74, -4.10816490650177001953e-01) (75, 4.75229442119598388672e-01) (76, -1.23378112912178039551e-01) (77, -4.75743007659912109375e+00) (78, -3.03942393511533737183e-02) (79, 1.06542162597179412842e-01) (80, 2.02307057380676269531e+00) (81, 7.77905225753784179688e-01) (82, 2.46795773506164550781e+00) (83, 1.06159877777099609375e+00) (84, -1.96504867076873779297e+00) (85, 6.54674708843231201172e-01) (86, -2.03760838508605957031e+00) (87, 2.04719305038452148438e+00) (88, 5.66267967224121093750e-01) (89, -9.92025136947631835938e-02) (90, 2.06749826669692993164e-01) (91, 2.79809117317199707031e+00) (92, 1.05140686035156250000e+00) (93, 2.48364165425300598145e-01) (94, 1.40872836112976074219e+00) (95, -4.46316003799438476562e+00) (96, 3.58483672142028808594e+00) (97, 5.75896501541137695312e-01) (98, 1.68242764472961425781e+00) (99, -1.67920112609863281250e-01) (100, 4.32893991470336914062e-01) (0, 6.70699356123805046082e-03) (1, 2.08760559558868408203e-01) (2, 1.17297671735286712646e-01) (3, 6.92834734916687011719e-01) (4, 9.02756955474615097046e-03) (5, 3.86153906583786010742e-01) (6, 2.80699920654296875000e+00) (7, -6.12067105248570442200e-03) (8, 6.93469107151031494141e-01) (9, -5.23747503757476806641e-02) (10, 5.40398322045803070068e-02) (11, -1.56318992376327514648e-01) (12, 7.26847350597381591797e-01) (13, 5.39793610572814941406e-01) (14, 1.38121785130351781845e-03) (15, -7.15243935585021972656e-01) (16, -1.74704849720001220703e-01) (17, 9.41986888647079467773e-02) (18, -2.57311999797821044922e-01) (19, -9.10988543182611465454e-03) (20, -9.28358495235443115234e-01) (21, -1.83490604162216186523e-01) (22, -1.57955795526504516602e-01) (23, 4.75840240716934204102e-01) (24, 2.61613869667053222656e+00) (25, -2.30751609802246093750e+00) (26, 1.94484934210777282715e-01) (27, 3.57083892822265625000e+00) (28, 4.68380928039550781250e-01) (29, -1.59456861019134521484e+00) (30, 4.62754249572753906250e-01) (31, 5.73206126689910888672e-01) (32, 5.12374281883239746094e-01) (33, -1.78939402103424072266e-01) (34, -5.99037742614746093750e+00) (35, 1.76909375190734863281e+00) (36, -6.92064166069030761719e-02) (37, -4.96144115924835205078e-01) (38, 1.04602265357971191406e+00) (39, 2.14485302567481994629e-01) (40, -5.17864078283309936523e-02) (41, -1.30617603659629821777e-01) (42, 4.19327557086944580078e-01) (43, 8.28707873821258544922e-01) (44, -1.24334025382995605469e+00) (45, -6.55957520008087158203e-01) (46, -2.17930865287780761719e+00) (47, -6.78091794252395629883e-02) (48, 3.14197927713394165039e-01) (49, 5.00254034996032714844e-01) (50, 2.51751351356506347656e+00) (51, 2.46848630905151367188e+00) (52, 2.65724587440490722656e+00) (53, 2.67192077636718750000e+00) (54, 5.49225211143493652344e-01) (55, 1.37394595146179199219e+00) (56, -1.67206263542175292969e+00) (57, 3.74353814125061035156e+00) (58, -5.69724988937377929688e+00) (59, 2.07405745983123779297e-01) (60, -2.20601916313171386719e+00) (61, 8.09541463851928710938e-01) (62, -1.51580944657325744629e-01) (63, -1.42716550827026367188e+00) (64, 1.01665794849395751953e-01) (65, 1.57470658421516418457e-01) (66, -6.18660867214202880859e-01) (67, 5.22791862487792968750e-01) (68, -1.91566839814186096191e-01) (69, -1.18005372583866119385e-01) (70, -3.73823285102844238281e-01) (71, -1.23842144012451171875e+00) (72, 2.36576771736145019531e+00) (73, 5.24351596832275390625e-01) (74, 3.43131601810455322266e-01) (75, 4.80740100145339965820e-01) (76, 5.54573357105255126953e-01) (77, 5.83175468444824218750e+00) (78, -1.50162291526794433594e+00) (79, 5.40113508701324462891e-01) (80, 2.34221243858337402344e+00) (81, -9.18213650584220886230e-02) (82, 3.99344229698181152344e+00) (83, 4.00410294532775878906e-01) (84, -1.19751222431659698486e-01) (85, 1.20264515280723571777e-01) (86, 7.85358190536499023438e-01) (87, 4.07202386856079101562e+00) (88, 1.01316064596176147461e-01) (89, 5.15260040760040283203e-01) (90, 4.75232505798339843750e+00) (91, 1.50195300579071044922e-01) (92, 1.33619213104248046875e+00) (93, -6.23059809207916259766e-01) (94, 1.90977025777101516724e-02) (95, -2.29780524969100952148e-02) (96, 4.11478668451309204102e-01) (97, 1.52007229626178741455e-02) (98, 1.83100640773773193359e-01) (99, 5.07210195064544677734e-01) (100, -1.38177692890167236328e-01) (0, 2.11117938160896301270e-01) (1, -5.88312506675720214844e-01) (2, -1.76885139942169189453e+00) (3, 4.07087564468383789062e-01) (4, 3.39595824480056762695e-01) (5, -2.62420743703842163086e-01) (6, 1.50833642482757568359e+00) (7, -3.68650221824645996094e+00) (8, 2.70447760820388793945e-01) (9, 4.34455007314682006836e-01) (10, 6.69757783412933349609e-01) (11, 8.50446462631225585938e-01) (12, -4.65811818838119506836e-01) (13, 1.86875975131988525391e+00) (14, -6.95266056060791015625e+00) (15, 6.14424645900726318359e-01) (16, 5.19166767597198486328e-01) (17, -2.84730815887451171875e+00) (18, 7.31372237205505371094e-02) (19, 1.12387657165527343750e+00) (20, 4.43008929491043090820e-01) (21, 3.83367586135864257812e+00) (22, 1.07404446601867675781e+00) (23, -2.71049529314041137695e-01) (24, 1.76614058017730712891e+00) (25, -3.13501954078674316406e-02) (26, -1.54931211471557617188e+00) (27, -4.56369876861572265625e+00) (28, 5.45526027679443359375e-01) (29, 3.03050428628921508789e-01) (30, -1.15114860236644744873e-01) (31, -2.37535262107849121094e+00) (32, -7.20676720142364501953e-01) (33, 3.86473655700683593750e-01) (34, -8.37231814861297607422e-01) (35, -2.25762173533439636230e-01) (36, -1.48843705654144287109e+00) (37, -9.63594615459442138672e-02) (38, -1.84509932994842529297e-01) (39, 1.44452390670776367188e+01) (40, -7.82572698593139648438e+00) (41, 3.39808195829391479492e-01) (42, -2.16804409027099609375e+00) (43, -4.40057373046875000000e+00) (44, 4.74178105592727661133e-01) (45, 3.14373135566711425781e-01) (46, 3.64981293678283691406e+00) (47, 5.42973160743713378906e-01) (48, 1.39955535531044006348e-01) (49, 4.25428199768066406250e+00) (50, 3.74589252471923828125e+00) (51, 8.92044544219970703125e-01) (52, 5.04398643970489501953e-01) (53, 3.77350509166717529297e-01) (54, -7.52833664417266845703e-01) (55, -3.27975302934646606445e-02) (56, -4.92439794540405273438e+00) (57, -1.06916809082031250000e+00) (58, -1.82161498069763183594e+00) (59, 4.01305049657821655273e-01) (60, -1.93674468994140625000e+00) (61, 4.98803943395614624023e-01) (62, 2.81011939048767089844e+00) (63, 1.54750573635101318359e+00) (64, -2.71796083450317382812e+00) (65, 4.46299046277999877930e-01) (66, 5.30865907669067382812e+00) (67, -2.52596688270568847656e+00) (68, 5.07830440998077392578e-01) (69, 7.51601696014404296875e-01) (70, 4.92785215377807617188e-01) (71, -3.81119132041931152344e+00) (72, 1.63302183151245117188e+00) (73, -7.99493193626403808594e-02) (74, -2.94596906751394271851e-02) (75, -3.76982390880584716797e-02) (76, -1.15727536380290985107e-01) (77, -7.64264535903930664062e+00) (78, 7.31228850781917572021e-03) (79, 1.89184583723545074463e-02) (80, 1.01306676864624023438e+00) (81, 3.07069754600524902344e+00) (82, -5.86220383644104003906e-01) (83, -3.00824474543333053589e-02) (84, -7.56436967849731445312e+00) (85, 5.28756976127624511719e-01) (86, -1.03864183425903320312e+01) (87, 1.29463872909545898438e+01) (88, 5.13293623924255371094e-01) (89, -2.46150016784667968750e+00) (90, 9.82685923576354980469e-01) (91, 6.36966153979301452637e-02) (92, -1.30700242519378662109e+00) (93, 5.72524309158325195312e+00) (94, 4.89619642496109008789e-01) (95, -6.14391684532165527344e-01) (96, -2.61957955360412597656e+00) (97, 4.68477487564086914062e-01) (98, -2.33109831809997558594e+00) (99, -1.61470144987106323242e-01) (100, 3.63684952259063720703e-01) (0, -6.80003595352172851562e+00) (1, 1.45406067371368408203e-01) (2, -2.31375798583030700684e-01) (3, 6.65524780750274658203e-01) (4, -3.07002440094947814941e-02) (5, 2.27533191442489624023e-01) (6, 1.05587995052337646484e+00) (7, 1.30572840571403503418e-01) (8, 9.45648968219757080078e-01) (9, -2.06059053540229797363e-01) (10, -7.04027748107910156250e+00) (11, 6.89853280782699584961e-02) (12, 3.01077663898468017578e-01) (13, -1.55941975116729736328e+00) (14, -9.64989471435546875000e+00) (15, -5.06998375058174133301e-02) (16, -1.24263443052768707275e-01) (17, -4.95114517211914062500e+00) (18, -2.03653037548065185547e-01) (19, 6.35959878563880920410e-02) (20, -1.04273509979248046875e+00) (21, -1.41241714358329772949e-01) (22, -3.08514028787612915039e-01) (23, 4.46741431951522827148e-01) (24, -8.66631317138671875000e+00) (25, 5.56059896945953369141e-01) (26, -8.93307030200958251953e-02) (27, 8.45677852630615234375e+00) (28, 1.98591430671513080597e-03) (29, -1.16588008403778076172e+00) (30, 3.61015677452087402344e-01) (31, -1.03719699382781982422e+00) (32, 5.49919188022613525391e-01) (33, -2.40246868133544921875e+00) (34, 3.45426201820373535156e+00) (35, 9.00465369224548339844e-01) (36, -1.09002618119120597839e-02) (37, 3.61050695180892944336e-01) (38, -2.16897821426391601562e+00) (39, -1.71694457530975341797e-01) (40, -1.92028915882110595703e+00) (41, -6.72207027673721313477e-02) (42, 2.48318672180175781250e+00) (43, 3.28745627403259277344e+00) (44, -1.36821269989013671875e-01) (45, -5.36047995090484619141e-01) (46, -2.18156123161315917969e+00) (47, 3.00316661596298217773e-01) (48, -1.79506635665893554688e+00) (49, 7.60651111602783203125e-01) (50, 6.14836037158966064453e-01) (51, 6.70211389660835266113e-02) (52, -1.64469659328460693359e-01) (53, 2.37465202808380126953e-01) (54, 6.24740839004516601562e-01) (55, 3.54731112718582153320e-01) (56, -1.43635833263397216797e+00) (57, 2.50859427452087402344e+00) (58, -3.77147316932678222656e+00) (59, 4.71547782421112060547e-01) (60, 4.09009717404842376709e-02) (61, 4.13415521383285522461e-01) (62, 1.23078906536102294922e+00) (63, 1.27192378044128417969e+00) (64, 1.03595578670501708984e+00) (65, 2.17131506651639938354e-02) (66, -8.11224997043609619141e-01) (67, -1.90885591506958007812e+00) (68, -3.09803724288940429688e-01) (69, 6.88671648502349853516e-01) (70, -8.25948193669319152832e-02) (71, 1.81641578674316406250e+00) (72, 8.34839224815368652344e-01) (73, 3.11029553413391113281e-01) (74, 2.96891719102859497070e-01) (75, -2.78139919042587280273e-01) (76, 5.30830800533294677734e-01) (77, 1.22683095932006835938e+00) (78, 5.43537378311157226562e-01) (79, 5.01769661903381347656e-01) (80, -2.19982218742370605469e+00) (81, -1.24417746067047119141e+00) (82, 2.13098454475402832031e+00) (83, 4.37000215053558349609e-01) (84, 2.82805395126342773438e+00) (85, -5.00649809837341308594e-02) (86, -3.60057210922241210938e+00) (87, 1.43062937259674072266e+00) (88, 2.49540284276008605957e-01) (89, 4.31367129087448120117e-01) (90, -8.84101539850234985352e-02) (91, 1.93360376358032226562e+00) (92, 2.74206495285034179688e+00) (93, -1.01926600933074951172e+00) (94, 3.32294791936874389648e-01) (95, -8.52621123194694519043e-02) (96, -1.22214965522289276123e-01) (97, -1.26080229878425598145e-01) (98, -6.82198941707611083984e-01) (99, 6.83977723121643066406e-01) (100, -1.84279531240463256836e-01) (0, -2.10396432876586914062e+00) (1, -4.92886066436767578125e-01) (2, 2.57937222719192504883e-01) (3, 1.81445524096488952637e-01) (4, -2.27012801915407180786e-02) (5, -2.36917585134506225586e-01) (6, -1.30849945545196533203e+00) (7, -6.53446137905120849609e-01) (8, 4.24118471145629882812e+00) (9, 3.35069000720977783203e-01) (10, -2.00985884666442871094e+00) (11, 4.06930595636367797852e-01) (12, -1.44262671470642089844e-01) (13, -3.16263613058254122734e-04) (14, -1.47192752361297607422e+00) (15, 4.55555438995361328125e-01) (16, 4.72356438636779785156e-01) (17, 2.55631655454635620117e-01) (18, 5.00832378864288330078e-01) (19, -8.77902209758758544922e-02) (20, 1.64804592728614807129e-01) (21, 6.68284237384796142578e-01) (22, 4.43431556224822998047e-01) (23, -3.33300679922103881836e-02) (24, 3.64077925682067871094e+00) (25, 2.39673629403114318848e-02) (26, 2.24989831447601318359e-01) (27, 4.60725355148315429688e+00) (28, -5.39491653442382812500e-01) (29, 4.91195321083068847656e-01) (30, -6.34107446670532226562e+00) (31, -4.13450908660888671875e+00) (32, -1.56947731971740722656e-01) (33, 1.91382348537445068359e-01) (34, -1.06149702072143554688e+01) (35, 2.56992489099502563477e-01) (36, 5.05308508872985839844e-01) (37, -9.60320904850959777832e-02) (38, -7.38167524337768554688e-01) (39, 8.41848075389862060547e-01) (40, 2.74703359603881835938e+00) (41, 3.85631024837493896484e-01) (42, -8.06128561496734619141e-01) (43, 1.02164065837860107422e+00) (44, 4.99463886022567749023e-01) (45, 5.16223847866058349609e-01) (46, 2.80271220207214355469e+00) (47, 2.77115941047668457031e-01) (48, -6.11881688237190246582e-02) (49, 5.80254912376403808594e-01) (50, -8.76718223094940185547e-01) (51, 5.71489155292510986328e-01) (52, 4.82964426279067993164e-01) (53, -5.64203411340713500977e-02) (54, 1.23505078256130218506e-01) (55, -6.35357806459069252014e-03) (56, 2.09922045469284057617e-01) (57, 2.60854029655456542969e+00) (58, 6.77758169174194335938e+00) (59, 2.71603822708129882812e-01) (60, 6.47393107414245605469e-01) (61, -4.40707430243492126465e-02) (62, -2.88974404335021972656e+00) (63, 1.37659752368927001953e+00) (64, 1.53349146246910095215e-01) (65, 1.86753773689270019531e+00) (66, 5.21237134933471679688e-01) (67, 3.57586920261383056641e-01) (68, 3.97026181221008300781e-01) (69, -8.17801475524902343750e-01) (70, 2.31309399008750915527e-01) (71, -4.54573202133178710938e+00) (72, 2.29983195662498474121e-01) (73, -2.04144492745399475098e-01) (74, 3.48787233233451843262e-02) (75, 1.27814960479736328125e+00) (76, -1.96345895528793334961e-01) (77, 9.73824405670166015625e+00) (78, 3.31017933785915374756e-02) (79, 2.73488670587539672852e-01) (80, 2.52051305770874023438e+00) (81, 2.49064564704895019531e-01) (82, -3.82285761833190917969e+00) (83, -6.79293096065521240234e-01) (84, -6.66427040100097656250e+00) (85, 6.50510072708129882812e-01) (86, 5.22804069519042968750e+00) (87, 1.63090690970420837402e-01) (88, 5.09063720703125000000e-01) (89, 5.13725206255912780762e-02) (90, 3.68270635604858398438e-01) (91, 2.88208484649658203125e-01) (92, 7.56749033927917480469e-01) (93, -4.73144054412841796875e-01) (94, -6.09588670730590820312e+00) (95, 3.13007324934005737305e-01) (96, -1.09700155258178710938e+01) (97, 4.88721609115600585938e-01) (98, 4.17663717269897460938e+00) (99, -3.62883985042572021484e-01) (100, 4.44708108901977539062e-01) (0, 3.72712993621826171875e+00) (1, -2.94493913650512695312e-01) (2, 5.89319801330566406250e+00) (3, 7.87533462047576904297e-01) (4, 1.36351093649864196777e-01) (5, -2.20692008733749389648e-01) (6, 1.72212088108062744141e+00) (7, -2.17787861824035644531e+00) (8, 5.02105176448822021484e-01) (9, 2.18114539980888366699e-01) (10, 6.18040442466735839844e-01) (11, 2.11958095431327819824e-01) (12, -1.60723984241485595703e-01) (13, 2.13914170861244201660e-01) (14, 1.57489995956420898438e+01) (15, 2.59602248668670654297e-01) (16, 1.58257558941841125488e-01) (17, 4.37140583992004394531e-01) (18, 2.79781371355056762695e-01) (19, 9.88289117813110351562e-01) (20, 3.39185404777526855469e+00) (21, 1.98216766119003295898e-01) (22, 3.29545617103576660156e-01) (23, 2.86375224590301513672e-01) (24, -5.19692301750183105469e-01) (25, 5.30741572380065917969e-01) (26, 3.10576707124710083008e-01) (27, -8.51389312744140625000e+00) (28, 6.62166416645050048828e-01) (29, 3.30651432275772094727e-01) (30, 1.87552705407142639160e-01) (31, 1.84933507442474365234e+00) (32, 1.75604328513145446777e-01) (33, 3.01191782951354980469e+00) (34, 2.28829717636108398438e+00) (35, 1.18370962142944335938e+00) (36, 4.48034942150115966797e-01) (37, 1.16268657147884368896e-01) (38, -2.88073921203613281250e+00) (39, 1.06536693572998046875e+01) (40, 9.47848737239837646484e-01) (41, -4.64314082637429237366e-03) (42, 1.98468238115310668945e-01) (43, -2.57905602455139160156e+00) (44, 2.75561213493347167969e-01) (45, -1.34079635143280029297e-01) (46, 6.75223350524902343750e-01) (47, 2.40019887685775756836e-01) (48, -3.53588536381721496582e-02) (49, 2.56261285394430160522e-02) (50, -4.51957643032073974609e-01) (51, 2.13034555315971374512e-01) (52, 2.19061523675918579102e-01) (53, 8.22322964668273925781e-01) (54, 2.59089022874832153320e-01) (55, 1.94920793175697326660e-01) (56, -7.67202600836753845215e-02) (57, 6.52890324592590332031e-01) (58, -2.02299928665161132812e+00) (59, -2.61927157640457153320e-01) (60, 2.28796210139989852905e-02) (61, -2.72518426179885864258e-01) (62, -4.39430665969848632812e+00) (63, -1.70141577720642089844e+00) (64, -3.93055379390716552734e-01) (65, 2.76730239391326904297e-01) (66, 2.70161151885986328125e-01) (67, 1.38124540448188781738e-01) (68, 3.46019476652145385742e-01) (69, 2.51707017421722412109e-01) (70, 6.52487754821777343750e-01) (71, 3.20889472961425781250e+00) (72, 3.88926059007644653320e-01) (73, 7.69353955984115600586e-02) (74, 1.45659089088439941406e-01) (75, 7.30171024799346923828e-01) (76, -2.12172091007232666016e-01) (77, -2.99325537681579589844e+00) (78, 2.11090788245201110840e-01) (79, 2.85941928625106811523e-01) (80, 1.89342856407165527344e+00) (81, 5.88798809051513671875e+00) (82, -5.01600646972656250000e+00) (83, 2.86205150187015533447e-02) (84, -7.77903318405151367188e-01) (85, 6.43475055694580078125e-01) (86, 1.51596117019653320312e+01) (87, 1.02296285629272460938e+01) (88, 5.86318969726562500000e-01) (89, 1.10425829887390136719e-01) (90, -4.06567287445068359375e+00) (91, 6.24957263469696044922e-01) (92, 3.19835472106933593750e+01) (93, -1.72338438034057617188e+00) (94, 7.39601612091064453125e+00) (95, 5.96911646425724029541e-02) (96, -3.04904246330261230469e+00) (97, 3.19534689188003540039e-01) (98, 8.05755078792572021484e-01) (99, -1.73622384667396545410e-01) (100, 3.53322774171829223633e-01) (0, 2.71799325942993164062e+00) (1, 1.40993744134902954102e-01) (2, -3.48939508199691772461e-01) (3, 4.81410622596740722656e-01) (4, 4.97742295265197753906e-02) (5, 1.86669915914535522461e-01) (6, 1.11392390727996826172e+00) (7, -5.68935871124267578125e-01) (8, 4.88140439987182617188e+00) (9, -6.91482797265052795410e-02) (10, -5.11750904843211174011e-03) (11, -9.52703505754470825195e-02) (12, 4.27861601114273071289e-01) (13, -3.01244527101516723633e-01) (14, 1.35039007663726806641e+00) (15, -5.68512082099914550781e-02) (16, -9.26893875002861022949e-02) (17, -7.31066539883613586426e-02) (18, -1.52947023510932922363e-01) (19, 1.23923070728778839111e-01) (20, 8.16741585731506347656e-01) (21, -3.05644050240516662598e-02) (22, -1.57890689373016357422e+00) (23, 4.08492624759674072266e-01) (24, -6.21156024932861328125e+00) (25, 3.65790843963623046875e+00) (26, -2.19449710845947265625e+00) (27, -1.56028544902801513672e+00) (28, -3.25821590423583984375e+00) (29, -1.76294434070587158203e+00) (30, 3.61851501464843750000e+00) (31, -7.39709496498107910156e-01) (32, 4.65937703847885131836e-01) (33, -1.62965714931488037109e+00) (34, -1.23100147247314453125e+01) (35, 1.05080041885375976562e+01) (36, -9.47686731815338134766e-02) (37, 2.17793539166450500488e-01) (38, 7.58635425567626953125e+00) (39, 1.72849416732788085938e+00) (40, -3.67823410034179687500e+00) (41, -1.64439603686332702637e-01) (42, 1.29251492023468017578e+00) (43, 1.67926635742187500000e+01) (44, -5.55193424224853515625e-01) (45, -5.18219470977783203125e-01) (46, -4.72037744522094726562e+00) (47, 3.49816530942916870117e-02) (48, 5.54335713386535644531e-01) (49, 9.01334702968597412109e-01) (50, -1.98387289047241210938e+00) (51, 2.02550768852233886719e+00) (52, -6.30009603500366210938e+00) (53, 2.79482036828994750977e-01) (54, -3.32762226462364196777e-02) (55, 6.16436719894409179688e-01) (56, -2.13070303201675415039e-01) (57, -2.49573916196823120117e-01) (58, 1.01303517818450927734e+00) (59, -2.24508017301559448242e-01) (60, -1.47018179297447204590e-01) (61, 4.22528886795043945312e+00) (62, 2.75708866119384765625e+00) (63, 2.93128967285156250000e+00) (64, 1.22553385794162750244e-01) (65, -5.86739555001258850098e-02) (66, -4.65825319290161132812e-01) (67, 4.72245544195175170898e-01) (68, -8.59572216868400573730e-02) (69, 6.74262717366218566895e-02) (70, -4.87605661153793334961e-01) (71, 5.21258115768432617188e+00) (72, -1.04422128200531005859e+00) (73, 4.09618258476257324219e-01) (74, 4.78575855493545532227e-01) (75, 3.15882712602615356445e-01) (76, 8.48118007183074951172e-01) (77, -4.05462026596069335938e+00) (78, 5.24991214275360107422e-01) (79, 5.12446343898773193359e-01) (80, 2.17641282081604003906e+00) (81, 3.05616229772567749023e-01) (82, 2.72299957275390625000e+00) (83, 9.41042482852935791016e-01) (84, 2.32557058334350585938e+00) (85, -1.73778843879699707031e+00) (86, -6.65636491775512695312e+00) (87, -9.04763889312744140625e+00) (88, 5.18337711691856384277e-02) (89, -3.43584060668945312500e+00) (90, -3.60170841217041015625e+00) (91, -5.21052721887826919556e-03) (92, 3.24510836601257324219e+00) (93, 4.02861535549163818359e-01) (94, 3.28492808341979980469e+00) (95, -9.41951721906661987305e-02) (96, -6.92508554458618164062e+00) (97, -1.10547624528408050537e-01) (98, 2.93173432350158691406e-01) (99, 5.70375800132751464844e-01) (100, -8.35921525955200195312e-01) (0, -6.23691752552986145020e-02) (1, 5.34683644771575927734e-01) (2, 3.12808513641357421875e+00) (3, 5.57338178157806396484e-01) (4, -6.61789476871490478516e-01) (5, 1.93538814783096313477e-01) (6, -5.26227355003356933594e-01) (7, 9.33522045612335205078e-01) (8, 5.29661238193511962891e-01) (9, -7.03018307685852050781e-02) (10, -7.36503064632415771484e-01) (11, 7.18617662787437438965e-02) (12, 3.97781759500503540039e-01) (13, 8.78031611442565917969e-01) (14, -2.26136183738708496094e+00) (15, -3.20621281862258911133e-02) (16, -9.23492550849914550781e-01) (17, 1.68096765875816345215e-01) (18, -1.08489871025085449219e-01) (19, 3.46030741930007934570e-01) (20, 4.23124104738235473633e-01) (21, 4.54049855470657348633e-02) (22, -2.10203230381011962891e-02) (23, 3.34135800600051879883e-01) (24, -5.09749364852905273438e+00) (25, 2.93066084384918212891e-01) (26, -3.34827125072479248047e-01) (27, 1.80008258819580078125e+01) (28, 4.93125990033149719238e-02) (29, -5.16348600387573242188e-01) (30, -1.24303865432739257812e+00) (31, 3.88333487510681152344e+00) (32, 2.92895674705505371094e-01) (33, 4.82052421569824218750e+00) (34, 2.23140192031860351562e+00) (35, -4.60490286350250244141e-01) (36, 5.27865812182426452637e-02) (37, 8.07706236839294433594e-01) (38, -2.06664538383483886719e+00) (39, 2.92077600955963134766e-01) (40, -1.46707429885864257812e+01) (41, -1.27771362662315368652e-01) (42, 2.73389011621475219727e-01) (43, 3.77770781517028808594e+00) (44, -5.39415106177330017090e-02) (45, -2.61005878448486328125e-01) (46, 1.20692932605743408203e+00) (47, -6.72554671764373779297e-01) (48, 1.61087423563003540039e-01) (49, 5.34117698669433593750e-01) (50, -1.04749231338500976562e+01) (51, -5.46279549598693847656e-01) (52, -2.41444632411003112793e-01) (53, -6.55197918415069580078e-01) (54, 5.58553278446197509766e-01) (55, 5.40996134281158447266e-01) (56, -3.85796248912811279297e-01) (57, 7.65454673767089843750e+00) (58, 6.85625410079956054688e+00) (59, 4.42700892686843872070e-01) (60, -2.34349682927131652832e-01) (61, 1.46073853969573974609e+00) (62, -2.27595984935760498047e-01) (63, 3.74608325958251953125e+00) (64, 1.49248868227005004883e-01) (65, 6.89987689256668090820e-02) (66, -3.15225988626480102539e-01) (67, 4.34469163417816162109e-01) (68, 6.39594793319702148438e-02) (69, -4.54475975036621093750e+00) (70, 1.83988455682992935181e-02) (71, -1.86798286437988281250e+01) (72, 4.65608127415180206299e-02) (73, 5.57279407978057861328e-01) (74, 3.76403450965881347656e-01) (75, 2.27684736251831054688e+00) (76, 3.47060471773147583008e-01) (77, 2.90052127838134765625e+00) (78, 3.86228740215301513672e-01) (79, 5.40900290012359619141e-01) (80, -1.31973356008529663086e-01) (81, 2.13430643081665039062e-01) (82, -6.44742012023925781250e+00) (83, 4.07871067523956298828e-01) (84, 4.88306999206542968750e+00) (85, 7.87570253014564514160e-02) (86, 4.17064571380615234375e+00) (87, 4.21322250366210937500e+00) (88, 5.61287887394428253174e-02) (89, 6.57784938812255859375e-01) (90, -1.23780943453311920166e-01) (91, 1.26487657427787780762e-01) (92, -1.20253906250000000000e+01) (93, -7.58928120136260986328e-01) (94, -5.42576026916503906250e+00) (95, -6.49466589093208312988e-02) (96, 5.37946739196777343750e+01) (97, 3.38435433804988861084e-02) (98, 1.01943719387054443359e+00) (99, 4.37016367912292480469e-01) (100, 5.99934086203575134277e-02) (0, 2.65067458152770996094e+00) (1, 4.28347253799438476562e+00) (2, -7.55032491683959960938e+00) (3, 2.89301457814872264862e-03) (4, 7.38356888294219970703e-01) (5, 1.20170176029205322266e+00) (6, 4.47991752624511718750e+00) (7, -4.20303726196289062500e+00) (8, -1.20325431227684020996e-01) (9, 6.71334285289049148560e-03) (10, 6.17500126361846923828e-01) (11, 4.35154825448989868164e-01) (12, -1.34592237472534179688e+01) (13, -1.71150460839271545410e-01) (14, 1.02351427078247070312e+01) (15, 7.08813428878784179688e-01) (16, 2.50369787216186523438e-01) (17, 6.73065364360809326172e-01) (18, 2.46362283825874328613e-01) (19, -2.05881762504577636719e+00) (20, 1.27729073166847229004e-01) (21, 5.45178830623626708984e-01) (22, 4.47874307632446289062e-01) (23, -7.29436352849006652832e-02) (24, -6.83311581611633300781e-01) (25, 1.04667758941650390625e+00) (26, 3.54977297782897949219e+00) (27, -6.69237756729125976562e+00) (28, 3.48625630140304565430e-01) (29, -6.97647571563720703125e-01) (30, 9.84695404767990112305e-02) (31, -5.67247211933135986328e-01) (32, -2.93218445777893066406e+00) (33, -1.73868000507354736328e+00) (34, 7.30725145339965820312e+00) (35, -7.54370546340942382812e+00) (36, 5.72379887104034423828e-01) (37, 7.85587728023529052734e-01) (38, 2.03435420989990234375e+00) (39, 1.85358211398124694824e-01) (40, 8.62606906890869140625e+00) (41, 3.62340122461318969727e-01) (42, 2.97306716442108154297e-01) (43, 3.15353369712829589844e+00) (44, 3.53654831647872924805e-01) (45, 3.42133432626724243164e-01) (46, 8.41438865661621093750e+00) (47, 2.21994590759277343750e+00) (48, 1.22031724452972412109e+00) (49, 4.95368568226695060730e-03) (50, 1.75511467456817626953e+00) (51, 7.66657143831253051758e-02) (52, 4.45643782615661621094e-01) (53, 7.04295694828033447266e-01) (54, 3.55804467201232910156e+00) (55, -3.79107379913330078125e+00) (56, 5.36055505275726318359e-01) (57, 5.67833721637725830078e-01) (58, -4.23572683334350585938e+00) (59, -2.34051316976547241211e-01) (60, 2.25361299514770507812e+00) (61, 1.04394070804119110107e-01) (62, 1.55739888548851013184e-01) (63, -8.13587570190429687500e+00) (64, -5.33037409186363220215e-02) (65, -3.30204057693481445312e+00) (66, 4.81928944587707519531e-01) (67, -4.16633158922195434570e-01) (68, 3.15029591321945190430e-01) (69, 7.63683736324310302734e-01) (70, 8.31979990005493164062e-01) (71, 2.65905237197875976562e+00) (72, 1.98918545246124267578e+00) (73, 2.78338976204395294189e-03) (74, -1.51308685541152954102e-01) (75, -8.95013332366943359375e+00) (76, -3.32759767770767211914e-02) (77, 9.20746707916259765625e+00) (78, 5.33204898238182067871e-02) (79, 1.69666156172752380371e-01) (80, -3.71296405792236328125e+00) (81, -3.44293862581253051758e-01) (82, -6.65239429473876953125e+00) (83, -1.29596039652824401855e-01) (84, -1.30886898040771484375e+01) (85, 5.73302388191223144531e-01) (86, -1.50144600775092840195e-03) (87, -2.08612418174743652344e+00) (88, 6.41439557075500488281e-01) (89, -2.36816024780273437500e+00) (90, 3.72666573524475097656e+00) (91, 5.40833711624145507812e-01) (92, 3.80347871780395507812e+00) (93, 1.06952619552612304688e+01) (94, -5.38645696640014648438e+00) (95, 4.27634096145629882812e+00) (96, -9.97952818870544433594e-01) (97, 4.95937079191207885742e-01) (98, -3.18181562423706054688e+00) (99, -2.03073716163635253906e+00) (100, 3.38128417730331420898e-01) (0, -1.36922037601470947266e+00) (1, -1.39775261282920837402e-01) (2, -2.07353353500366210938e-01) (3, 7.41145908832550048828e-01) (4, 1.60093873739242553711e-01) (5, -7.17865452170372009277e-02) (6, 1.06352412700653076172e+00) (7, -2.52378702163696289062e-01) (8, 6.10481917858123779297e-01) (9, 6.27831667661666870117e-02) (10, 2.33360882848501205444e-02) (11, 1.59082204103469848633e-01) (12, 3.20530891418457031250e-01) (13, 4.26929140090942382812e+00) (14, -4.80235958099365234375e+00) (15, -2.98018772155046463013e-02) (16, 9.21195298433303833008e-02) (17, 3.06309789419174194336e-01) (18, 9.02442112565040588379e-02) (19, 5.29722571372985839844e-01) (20, 5.96033990383148193359e-01) (21, 9.23114642500877380371e-02) (22, -1.42660373821854591370e-02) (23, 3.92743855714797973633e-01) (24, -5.59445619583129882812e+00) (25, 3.01081597805023193359e-01) (26, -6.86480328440666198730e-02) (27, 1.50012378692626953125e+01) (28, 1.10164619982242584229e-01) (29, -5.07103241980075836182e-02) (30, 3.61496716737747192383e-01) (31, 3.30774337053298950195e-01) (32, 2.45141878724098205566e-01) (33, -5.49526572227478027344e-01) (34, 2.08826332092285156250e+01) (35, -5.32439708709716796875e-01) (36, 1.51415780186653137207e-01) (37, 9.55332934856414794922e-01) (38, 1.26163110733032226562e+01) (39, 4.63834142684936523438e+00) (40, 8.97710895538330078125e+00) (41, -7.24563933908939361572e-03) (42, 3.41286718845367431641e-01) (43, 2.71751785278320312500e+00) (44, 7.87278264760971069336e-02) (45, -2.41767853498458862305e-01) (46, 4.53483200073242187500e+00) (47, -1.03031108155846595764e-02) (48, -1.71187911182641983032e-02) (49, 2.41623967885971069336e-01) (50, -3.25326418876647949219e+00) (51, -3.48312079906463623047e-01) (52, 7.73531615734100341797e-01) (53, 6.48101031780242919922e-01) (54, 7.82084643840789794922e-01) (55, 3.37372690439224243164e-01) (56, -4.90221351385116577148e-01) (57, -2.46860766410827636719e+00) (58, 3.38750529289245605469e+00) (59, -7.02318176627159118652e-02) (60, 5.32714784145355224609e-01) (61, 1.36309623718261718750e+00) (62, -4.04515936970710754395e-02) (63, 9.44544896483421325684e-02) (64, -1.93942457437515258789e-01) (65, 2.40983232855796813965e-01) (66, -9.70043316483497619629e-02) (67, 2.37361758947372436523e-01) (68, 8.22435691952705383301e-02) (69, 6.02564066648483276367e-02) (70, 5.00843822956085205078e-01) (71, -6.21244812011718750000e+00) (72, -1.04102037847042083740e-01) (73, 2.58267968893051147461e-01) (74, -2.85778474062681198120e-02) (75, 9.83261883258819580078e-01) (76, 2.23112344741821289062e-01) (77, 7.72206449508666992188e+00) (78, 5.12743890285491943359e-01) (79, 4.73994284868240356445e-01) (80, -1.50120747089385986328e+00) (81, -2.61377990245819091797e-01) (82, -4.46653318405151367188e+00) (83, 2.47000768780708312988e-01) (84, -6.33354282379150390625e+00) (85, 2.97276228666305541992e-01) (86, 1.10167932510375976562e+00) (87, -1.66514039039611816406e+00) (88, 4.36796098947525024414e-01) (89, 4.68541771173477172852e-01) (90, 2.77983331680297851562e+00) (91, 2.67146557569503784180e-01) (92, 3.52718162536621093750e+00) (93, -1.43629324436187744141e+00) (94, 1.79321780800819396973e-01) (95, 2.85904649645090103149e-02) (96, 8.88273179531097412109e-01) (97, -3.76468598842620849609e-01) (98, -3.73570889234542846680e-01) (99, 1.67054280638694763184e-01) (100, 1.33320719003677368164e-01) (0, 2.72877216339111328125e-01) (1, 5.91844141483306884766e-01) (2, -5.45401275157928466797e-01) (3, 4.67504799365997314453e-01) (4, 1.35205626487731933594e-01) (5, 1.82292926311492919922e+00) (6, -1.08936870098114013672e+00) (7, 4.09017610549926757812e+00) (8, 3.35241705179214477539e-01) (9, 9.40677300095558166504e-02) (10, 1.31624311208724975586e-01) (11, -1.90238639712333679199e-01) (12, 2.06837445497512817383e-01) (13, 4.64306056499481201172e-01) (14, 5.30632436275482177734e-01) (15, 6.62048310041427612305e-02) (16, -4.42406463623046875000e+00) (17, 2.30693131685256958008e-01) (18, -7.31989622116088867188e-01) (19, -6.43008708953857421875e+00) (20, 8.38716924190521240234e-01) (21, 4.07341755926609039307e-02) (22, -1.05005517601966857910e-01) (23, 3.37794899940490722656e-01) (24, 5.09192562103271484375e+00) (25, -1.86230099201202392578e+00) (26, -4.54437673091888427734e-01) (27, -8.76048660278320312500e+00) (28, -4.04295635223388671875e+00) (29, 1.89902827143669128418e-01) (30, 4.40401613712310791016e-01) (31, 5.73558807373046875000e-01) (32, 4.61457043886184692383e-01) (33, -8.15483257174491882324e-02) (34, 5.08795118331909179688e+00) (35, 5.39556884765625000000e+00) (36, 8.38154274970293045044e-03) (37, 5.75218629837036132812e+00) (38, 1.49382133483886718750e+01) (39, 3.00295090675354003906e+00) (40, -1.21835553646087646484e+00) (41, 1.15732625126838684082e-01) (42, -4.08240509033203125000e+00) (43, 3.95762115716934204102e-01) (44, 4.80757284164428710938e+00) (45, 1.92898833751678466797e+00) (46, 8.52933883666992187500e-01) (47, -7.24466979503631591797e-01) (48, -1.02772808074951171875e+01) (49, -1.70173108577728271484e+00) (50, 6.41474914550781250000e+00) (51, 6.64570868015289306641e-01) (52, -2.98199129104614257812e+00) (53, -4.82513332366943359375e+00) (54, -9.81556797027587890625e+00) (55, 3.07084619998931884766e-02) (56, -4.93356660008430480957e-02) (57, 7.54983806610107421875e+00) (58, -3.96560525894165039062e+00) (59, 1.71167397499084472656e+00) (60, 7.51246437430381774902e-02) (61, -2.50562310218811035156e-01) (62, -2.47875601053237915039e-01) (63, -9.33785724639892578125e+00) (64, -1.18261623382568359375e+00) (65, 8.27900171279907226562e-01) (66, 1.39672070741653442383e-01) (67, 1.20494186878204345703e-01) (68, -4.01016250252723693848e-02) (69, -6.86621999740600585938e+00) (70, 6.73759821802377700806e-03) (71, -5.80581569671630859375e+00) (72, -1.30404138565063476562e+00) (73, 3.33636909723281860352e-01) (74, 2.86381095647811889648e-01) (75, 1.32807455062866210938e+01) (76, 3.69899392127990722656e-01) (77, 1.24069845676422119141e+00) (78, 4.52836364507675170898e-01) (79, 2.57039403915405273438e+00) (80, -1.29852552413940429688e+01) (81, 1.78478252887725830078e+00) (82, 2.66238021850585937500e+00) (83, 3.76234441995620727539e-01) (84, -8.78171825408935546875e+00) (85, -1.09626129269599914551e-01) (86, 1.47712874412536621094e+00) (87, -2.11489200592041015625e+00) (88, -4.20998483896255493164e-02) (89, 4.72312641143798828125e+00) (90, -1.31353557109832763672e+00) (91, 7.50990688800811767578e-01) (92, 2.55351233482360839844e+00) (93, -1.76842327117919921875e+01) (94, 6.62008449435234069824e-02) (95, 6.70517063140869140625e+00) (96, -4.73532295227050781250e+00) (97, -1.63244619965553283691e-01) (98, 1.47345066070556640625e+00) (99, -7.09339380264282226562e+00) (100, 8.11818838119506835938e-02) (0, 7.71829485893249511719e-01) (1, -2.08275005221366882324e-01) (2, 1.01131677627563476562e+00) (3, 3.75034761428833007812e+00) (4, 4.19305801391601562500e-01) (5, -5.80718994140625000000e-01) (6, 3.09845876693725585938e+00) (7, -2.27022147178649902344e+00) (8, 2.40733575820922851562e+00) (9, 1.56870514154434204102e-01) (10, 9.70935940742492675781e-01) (11, 3.36300224065780639648e-01) (12, -1.47499397397041320801e-01) (13, 3.31641525030136108398e-01) (14, 3.80302262306213378906e+00) (15, 3.13846051692962646484e-01) (16, 3.31231772899627685547e-01) (17, 4.26367133855819702148e-01) (18, 1.21013033390045166016e+00) (19, 2.60242509841918945312e+00) (20, 9.08617138862609863281e-01) (21, 2.35255286097526550293e-01) (22, 8.30209255218505859375e-02) (23, 2.81303107738494873047e-01) (24, -9.12387847900390625000e+00) (25, 2.84286588430404663086e-01) (26, -8.40029586106538772583e-03) (27, 1.94344866275787353516e+00) (28, -1.24248795211315155029e-01) (29, -1.42089456319808959961e-01) (30, 2.73313403129577636719e-01) (31, 1.65539681911468505859e-01) (32, -4.24084737896919250488e-02) (33, -2.27213335037231445312e+00) (34, 7.00091695785522460938e+00) (35, 4.02616882324218750000e+00) (36, 4.25296843051910400391e-01) (37, 1.28739587962627410889e-02) (38, 7.22457456588745117188e+00) (39, 3.10596609115600585938e+00) (40, -1.25607430934906005859e+00) (41, 1.57010167837142944336e-01) (42, -2.14190959930419921875e-01) (43, 4.83433532714843750000e+00) (44, 2.53367453813552856445e-01) (45, -5.93708574771881103516e-01) (46, -2.06214165687561035156e+00) (47, 2.98205435276031494141e-01) (48, 3.08628734201192855835e-02) (49, -2.32340008020401000977e-01) (50, -5.35987615585327148438e+00) (51, 4.60379004478454589844e-01) (52, 4.08615469932556152344e-01) (53, 7.29523479938507080078e-01) (54, 8.48488390445709228516e-01) (55, -1.32992848753929138184e-01) (56, -1.61086726188659667969e+00) (57, 3.50714015960693359375e+00) (58, 1.64494252204895019531e+00) (59, 1.13169461488723754883e-01) (60, 2.11023283004760742188e+00) (61, -3.87718707323074340820e-01) (62, -3.96287298202514648438e+00) (63, 4.16810083389282226562e+00) (64, -8.26104640960693359375e-01) (65, 6.80906414985656738281e-01) (66, 1.35199770331382751465e-01) (67, -1.84917807579040527344e-01) (68, 3.05836021900177001953e-01) (69, 3.49347531795501708984e-01) (70, 7.23492085933685302734e-01) (71, 1.36496400833129882812e+00) (72, -2.64240056276321411133e-01) (73, 1.06882289052009582520e-01) (74, -1.41346916556358337402e-01) (75, 7.85092830657958984375e-01) (76, -2.96178217977285385132e-02) (77, -8.05064964294433593750e+00) (78, 2.64375805854797363281e-01) (79, 4.83227401971817016602e-01) (80, 4.09957647323608398438e+00) (81, 3.96210193634033203125e+00) (82, 4.41795492172241210938e+00) (83, 4.29156571626663208008e-01) (84, 9.08203184604644775391e-01) (85, 8.11686992645263671875e-01) (86, 4.45180463790893554688e+00) (87, 2.68425083160400390625e+00) (88, 8.64462733268737792969e-01) (89, 1.12038366496562957764e-01) (90, -2.56856501102447509766e-01) (91, 8.53379368782043457031e-01) (92, 3.98883700370788574219e+00) (93, 1.12471747398376464844e+00) (94, 3.20762783288955688477e-01) (95, -6.17137289047241210938e+00) (96, -4.68785715103149414062e+00) (97, -1.17253184318542480469e+00) (98, -2.35363706946372985840e-01) (99, -4.15041351318359375000e+00) (100, 3.26951473951339721680e-01) (0, -6.25106319785118103027e-02) (1, 1.52997684478759765625e+00) (2, 4.64603483676910400391e-01) (3, -1.36849924921989440918e-01) (4, 3.53995591402053833008e-01) (5, 3.23043751716613769531e+00) (6, -9.21266432851552963257e-03) (7, 1.76323974132537841797e+00) (8, 7.56726786494255065918e-03) (9, 5.48259198665618896484e-01) (10, 4.36112046241760253906e-01) (11, 5.41020214557647705078e-01) (12, 6.16439521312713623047e-01) (13, 1.83596700429916381836e-01) (14, 5.39736568927764892578e-01) (15, 5.79676568508148193359e-01) (16, 5.04805862903594970703e-01) (17, 3.24304103851318359375e-01) (18, 4.69283461570739746094e-01) (19, -1.22074234485626220703e+00) (20, -2.38889304455369710922e-04) (21, 5.24944305419921875000e-01) (22, 4.45466786623001098633e-01) (23, 4.98420372605323791504e-02) (24, 1.63948178291320800781e-01) (25, -1.10588170588016510010e-01) (26, 5.35750627517700195312e-01) (27, -3.48888248205184936523e-01) (28, 3.40252995491027832031e-01) (29, 4.89280641078948974609e-01) (30, 1.30414128303527832031e-01) (31, 1.89664036035537719727e-01) (32, 2.17734917998313903809e-01) (33, 4.69211101531982421875e-01) (34, 5.81643819808959960938e+00) (35, 1.52315151691436767578e+00) (36, 3.35130929946899414062e-01) (37, 3.42622399330139160156e-01) (38, 1.39256751537322998047e+00) (39, 6.24340474605560302734e-02) (40, -6.30244851112365722656e-01) (41, 4.15934115648269653320e-01) (42, 3.46256271004676818848e-02) (43, 2.62090706825256347656e+00) (44, 4.44894164800643920898e-01) (45, 5.49410820007324218750e-01) (46, -2.83139180392026901245e-02) (47, 5.74300050735473632812e-01) (48, 5.03517627716064453125e-01) (49, 3.37594091892242431641e-01) (50, -2.53376007080078125000e-01) (51, 1.11614868044853210449e-01) (52, 1.75368338823318481445e-01) (53, -5.97146093845367431641e-01) (54, -8.42314064502716064453e-02) (55, 5.04004098474979400635e-02) (56, 4.85449641942977905273e-01) (57, 1.79468058049678802490e-02) (58, 2.84733790904283523560e-02) (59, 1.39116239547729492188e+00) (60, -1.86377465724945068359e-01) (61, 1.07051789760589599609e+00) (62, 8.45217555761337280273e-02) (63, 6.70522093772888183594e-01) (64, 1.99490463733673095703e+00) (65, 4.08005207777023315430e-01) (66, 6.25790596008300781250e-01) (67, 5.07360816001892089844e-01) (68, 5.39399385452270507812e-01) (69, 7.17312514781951904297e-01) (70, 2.50819474458694458008e-01) (71, 3.33131885528564453125e+00) (72, 6.30995929241180419922e-01) (73, 9.34447646141052246094e-01) (74, 7.17144906520843505859e-01) (75, -2.14391648769378662109e-02) (76, 5.34322202205657958984e-01) (77, -2.17801645398139953613e-01) (78, 1.04210108518600463867e-01) (79, -3.19145992398262023926e-03) (80, 7.04278945922851562500e-01) (81, 5.37454903125762939453e-01) (82, 5.09194374084472656250e-01) (83, 6.78061783313751220703e-01) (84, -1.43256890773773193359e+00) (85, 3.00656467676162719727e-01) (86, 1.12436914443969726562e+00) (87, 3.89060437679290771484e-01) (88, 8.61092191189527511597e-03) (89, 1.84362873435020446777e-01) (90, 4.85658705234527587891e-01) (91, 1.98169916868209838867e-01) (92, 2.54190659523010253906e+00) (93, 1.50310784578323364258e-01) (94, 4.19561445713043212891e-01) (95, 4.99038875102996826172e-01) (96, 5.22975064814090728760e-02) (97, 5.28297901153564453125e-01) (98, 1.26475065946578979492e-01) (99, 1.09174215793609619141e+00) (100, 5.49068272113800048828e-01) (0, -2.20691132545471191406e+00) (1, -1.31662464141845703125e+01) (2, -7.26405906677246093750e+00) (3, 1.30958509445190429688e+00) (4, 6.10550701618194580078e-01) (5, 3.57872486114501953125e-01) (6, -1.84694528579711914062e+00) (7, 4.93637514114379882812e+00) (8, 1.05828082561492919922e+00) (9, -2.52193212509155273438e-01) (10, 8.02596211433410644531e-02) (11, -4.17736560106277465820e-01) (12, 5.18746376037597656250e-01) (13, 7.06761837005615234375e-01) (14, 1.45791769027709960938e+01) (15, -9.36832278966903686523e-02) (16, 4.20497879385948181152e-02) (17, 1.26772865653038024902e-01) (18, -1.63304612040519714355e-01) (19, 9.04914960265159606934e-02) (20, 4.89062547683715820312e-01) (21, 2.11068298667669296265e-02) (22, -6.22022151947021484375e-02) (23, 4.13332343101501464844e-01) (24, -8.47774684429168701172e-01) (25, 3.68626385927200317383e-01) (26, -2.79806911945343017578e-01) (27, 7.78394508361816406250e+00) (28, -3.05363386869430541992e-02) (29, -1.80031704902648925781e+00) (30, 5.53907513618469238281e-01) (31, 5.90718364715576171875e+00) (32, 3.55692297220230102539e-01) (33, -2.39975482225418090820e-01) (34, -5.65558338165283203125e+00) (35, 2.89624285697937011719e+00) (36, -1.63848176598548889160e-02) (37, 5.66964447498321533203e-01) (38, -3.60506951808929443359e-01) (39, -4.99207288026809692383e-01) (40, 1.17848396301269531250e+01) (41, 6.70583024621009826660e-02) (42, 3.18228453397750854492e-01) (43, 3.58166074752807617188e+00) (44, 4.78706881403923034668e-02) (45, -1.09480321407318115234e+00) (46, -5.35017669200897216797e-01) (47, -1.73844778537750244141e+00) (48, 2.48261785507202148438e+00) (49, 4.61816430091857910156e-01) (50, -6.48810923099517822266e-01) (51, 4.59774464368820190430e-01) (52, 1.05962884426116943359e+00) (53, -1.68715465068817138672e+00) (54, 7.96221971511840820312e-01) (55, 4.56338673830032348633e-01) (56, -1.50976753234863281250e+00) (57, -1.72977232933044433594e+00) (58, 5.21864116191864013672e-01) (59, 3.04140359163284301758e-01) (60, -1.81507611274719238281e+00) (61, 8.57647597789764404297e-01) (62, 9.60757210850715637207e-02) (63, 3.20137217640876770020e-02) (64, 2.36742243170738220215e-01) (65, -7.97060355544090270996e-02) (66, -1.51673722267150878906e+00) (67, 3.67043524980545043945e-01) (68, -2.37706750631332397461e-02) (69, -9.94123443961143493652e-02) (70, 2.27011982351541519165e-02) (71, -2.51859784126281738281e+00) (72, -3.82735533639788627625e-03) (73, 3.86218523979187011719e+00) (74, 3.54860991239547729492e-01) (75, 7.42837369441986083984e-01) (76, 6.13385178148746490479e-02) (77, 5.90466439723968505859e-01) (78, -2.55484890937805175781e+00) (79, 4.45699781179428100586e-01) (80, -4.25362205505371093750e+00) (81, 1.26276028156280517578e+00) (82, -7.09845876693725585938e+00) (83, 2.96519190073013305664e-01) (84, 6.30885648727416992188e+00) (85, 1.33074358105659484863e-01) (86, 4.36049842834472656250e+00) (87, 8.97361564636230468750e+00) (88, 2.07169964909553527832e-01) (89, 1.73307240009307861328e-01) (90, 1.06225103139877319336e-01) (91, -8.93643647432327270508e-02) (92, 3.41604042053222656250e+00) (93, 1.76607429981231689453e-01) (94, -1.93290579319000244141e+00) (95, -2.68764942884445190430e-01) (96, 1.44456183910369873047e+00) (97, 1.81749567389488220215e-01) (98, 4.01957929134368896484e-01) (99, 9.54461753368377685547e-01) (100, 2.29905522428452968597e-03) (0, 7.86209046840667724609e-01) (1, 1.66536822915077209473e-01) (2, 3.49224179983139038086e-01) (3, 5.32100379467010498047e-01) (4, 2.84441467374563217163e-02) (5, 3.29565674066543579102e-01) (6, -2.64739108085632324219e+00) (7, -1.60996234416961669922e+00) (8, 1.05988574028015136719e+00) (9, -1.37332603335380554199e-01) (10, -1.05122532695531845093e-02) (11, -5.68904206156730651855e-02) (12, 4.74064707756042480469e-01) (13, 1.49124813079833984375e+00) (14, 5.40987110137939453125e+00) (15, -1.03368468582630157471e-01) (16, -5.29307574033737182617e-02) (17, 1.25275969505310058594e-01) (18, -1.04695029556751251221e-01) (19, -8.94720256328582763672e-02) (20, 4.57147568464279174805e-01) (21, -1.41361966729164123535e-01) (22, -1.23051571846008300781e+00) (23, 5.08369326591491699219e-01) (24, 8.86793076992034912109e-01) (25, 3.98000240325927734375e-01) (26, -3.74762713909149169922e-01) (27, 1.65755677223205566406e+00) (28, 9.29567068815231323242e-02) (29, -1.65615808963775634766e+00) (30, 1.47065949440002441406e+00) (31, 5.57033598423004150391e-01) (32, 4.05142515897750854492e-01) (33, -3.06178778409957885742e-01) (34, 4.21883440017700195312e+00) (35, 4.21222060918807983398e-01) (36, 1.53010413050651550293e-02) (37, -5.25377333164215087891e-01) (38, -5.78826332092285156250e+00) (39, -2.56290555000305175781e+00) (40, -1.53349697589874267578e+00) (41, 7.73567333817481994629e-02) (42, 2.53210633993148803711e-01) (43, 9.11013889312744140625e+00) (44, -1.03893637657165527344e-01) (45, -3.34637850522994995117e-01) (46, -5.01491352915763854980e-02) (47, -2.31065392494201660156e-01) (48, 4.23352330923080444336e-01) (49, 7.89378643035888671875e-01) (50, 9.10498023033142089844e-01) (51, 4.91076648235321044922e-01) (52, 3.39748114347457885742e-02) (53, 7.36750811338424682617e-02) (54, 2.01634073257446289062e+00) (55, 5.39015054702758789062e-01) (56, -4.20051097869873046875e-01) (57, 1.05320739746093750000e+00) (58, -1.52582681179046630859e+00) (59, 1.24936699867248535156e-01) (60, -6.80267959833145141602e-02) (61, 8.00122976303100585938e-01) (62, -1.48342931270599365234e+00) (63, 4.16430282592773437500e+00) (64, 3.65815192461013793945e-01) (65, -6.54804408550262451172e-01) (66, -6.87088310718536376953e-01) (67, 4.40824270248413085938e-01) (68, -3.91648188233375549316e-02) (69, -8.83793160319328308105e-02) (70, -5.22926747798919677734e-02) (71, -1.97273027896881103516e+00) (72, -3.81828594207763671875e+00) (73, 5.53108036518096923828e-01) (74, 6.75256192684173583984e-01) (75, -2.35412907600402832031e+00) (76, 3.14821064472198486328e-01) (77, 2.11269497871398925781e+00) (78, 3.46470743417739868164e-01) (79, 5.26462316513061523438e-01) (80, 4.87968772649765014648e-01) (81, -2.47341468930244445801e-01) (82, 1.55158925056457519531e+00) (83, 4.75426137447357177734e-01) (84, 4.48772382736206054688e+00) (85, 9.25502553582191467285e-02) (86, -1.77432870864868164062e+00) (87, 6.16568613052368164062e+00) (88, 8.37786048650741577148e-02) (89, 2.21135318279266357422e-01) (90, -2.80456042289733886719e+00) (91, 1.14490568637847900391e-01) (92, 3.18703770637512207031e+00) (93, -8.92328247427940368652e-02) (94, 1.57917682081460952759e-02) (95, -1.00259101390838623047e+00) (96, -4.72898292541503906250e+00) (97, -5.30115291476249694824e-02) (98, 2.00150728225708007812e-01) (99, -1.17318034172058105469e+00) (100, -7.85769283771514892578e-01) (0, 3.73378455638885498047e-01) (1, -9.41170081496238708496e-02) (2, 8.18936407566070556641e-01) (3, 2.31945648789405822754e-01) (4, 6.41738593578338623047e-01) (5, -1.04210875928401947021e-01) (6, 4.96004253625869750977e-01) (7, 2.11726474761962890625e+00) (8, 2.18312516808509826660e-01) (9, 3.39786678552627563477e-01) (10, 2.45238327980041503906e+00) (11, 3.74653100967407226562e-01) (12, -1.85318678617477416992e-01) (13, 5.97002124786376953125e+00) (14, -2.82116793096065521240e-03) (15, 6.10979080200195312500e-01) (16, 4.52115476131439208984e-01) (17, 2.71420508623123168945e-01) (18, 1.97318360209465026855e-01) (19, 9.66930091381072998047e-01) (20, 1.10916204750537872314e-01) (21, 3.39557528495788574219e-01) (22, 5.52059650421142578125e-01) (23, -1.23875610530376434326e-01) (24, 4.04525089263916015625e+00) (25, 1.75108462572097778320e-01) (26, 4.47759270668029785156e-01) (27, 3.42795908451080322266e-01) (28, 4.34828728437423706055e-01) (29, 3.81083995103836059570e-01) (30, 3.08868568390607833862e-02) (31, 2.55585432052612304688e+00) (32, 2.82406397163867950439e-02) (33, 2.94030249118804931641e-01) (34, 2.31639766693115234375e+00) (35, 5.25036191940307617188e+00) (36, 6.29637598991394042969e-01) (37, -1.08442194759845733643e-01) (38, 2.56808906793594360352e-01) (39, 9.61751759052276611328e-01) (40, 4.81168866157531738281e-01) (41, 5.54255545139312744141e-01) (42, 4.04835164546966552734e-01) (43, -3.31854677200317382812e+00) (44, 3.71272712945938110352e-01) (45, -5.81282520294189453125e+00) (46, 1.24080359935760498047e-01) (47, 4.69690769910812377930e-01) (48, -2.76718974113464355469e-01) (49, -1.34616022109985351562e+01) (50, 8.24511528015136718750e-01) (51, -4.09018397331237792969e-02) (52, -1.47511363029479980469e+00) (53, 7.97644317150115966797e-01) (54, -3.64271330833435058594e+00) (55, -1.63257867097854614258e-01) (56, -3.07870090007781982422e-01) (57, -3.09897512197494506836e-02) (58, 1.22222971916198730469e+00) (59, 1.20911806821823120117e-01) (60, 8.27266633510589599609e-01) (61, -5.82339429855346679688e+00) (62, -2.86456346511840820312e+00) (63, -3.45150184631347656250e+00) (64, -1.68406944721937179565e-02) (65, 4.89447474479675292969e-01) (66, 5.28138935565948486328e-01) (67, -2.83470809459686279297e-01) (68, 1.15381646156311035156e+00) (69, 3.89790087938308715820e-01) (70, 4.92381364107131958008e-01) (71, 3.07972216606140136719e+00) (72, 2.78100705146789550781e+00) (73, -1.66630789637565612793e-01) (74, -7.23769605159759521484e-01) (75, -3.36268711090087890625e+00) (76, -1.99563100934028625488e-01) (77, 4.63286876678466796875e+00) (78, -6.92837655544281005859e-01) (79, 3.25425297021865844727e-01) (80, 2.88335633277893066406e+00) (81, -5.94941973686218261719e-02) (82, 6.78156185150146484375e+00) (83, 7.40778744220733642578e-01) (84, -2.91833817958831787109e-01) (85, 8.68156373500823974609e-01) (86, -7.44655251502990722656e-01) (87, -5.16959476470947265625e+00) (88, 5.89547812938690185547e-01) (89, 3.48277497291564941406e+00) (90, -6.47826862335205078125e+00) (91, 7.28546380996704101562e-01) (92, 2.46571421623229980469e+00) (93, -1.15528655052185058594e+00) (94, 1.89643990993499755859e+00) (95, 1.11578360199928283691e-01) (96, -1.89948523044586181641e+00) (97, 4.80575740337371826172e-01) (98, -1.30185461044311523438e+00) (99, -3.82929712533950805664e-01) (100, 3.91129910945892333984e-01) (0, -8.50998908281326293945e-02) (1, 9.46027576923370361328e-01) (2, 6.68892264366149902344e-01) (3, -6.67173489928245544434e-02) (4, 1.58264994621276855469e+00) (5, 1.38018906116485595703e+00) (6, 2.44251757860183715820e-01) (7, 1.06269347667694091797e+00) (8, -9.63166132569313049316e-02) (9, 6.80632710456848144531e-01) (10, 9.21422064304351806641e-01) (11, 5.01300632953643798828e-01) (12, 2.63077884912490844727e-01) (13, 1.37187063694000244141e+00) (14, 2.82365846633911132812e+00) (15, 6.01241767406463623047e-01) (16, 5.41699051856994628906e-01) (17, -1.26603770256042480469e+00) (18, 3.76353144645690917969e-01) (19, 2.13558137416839599609e-01) (20, 1.49228855967521667480e-01) (21, 5.97370266914367675781e-01) (22, 4.29766893386840820312e-01) (23, 2.97458027489483356476e-04) (24, 3.65074396133422851562e-01) (25, -2.65801027417182922363e-02) (26, 7.44238197803497314453e-01) (27, 2.58292698860168457031e+00) (28, 4.82148140668869018555e-01) (29, 4.27239388227462768555e-01) (30, -2.39342451095581054688e-02) (31, -8.17172974348068237305e-02) (32, 1.29578500986099243164e-01) (33, 5.50163865089416503906e-01) (34, 9.12215518951416015625e+00) (35, 2.74044942855834960938e+00) (36, 4.11833167076110839844e-01) (37, 4.51115459203720092773e-01) (38, 1.21461191177368164062e+01) (39, 1.01728700101375579834e-02) (40, -8.79598045349121093750e+00) (41, 9.74165380001068115234e-01) (42, 3.54509092867374420166e-02) (43, 2.67823100090026855469e+00) (44, 4.01069790124893188477e-01) (45, 6.14597439765930175781e-01) (46, 7.28105688095092773438e+00) (47, 6.21076464653015136719e-01) (48, 3.09232145547866821289e-01) (49, -3.03977429866790771484e-02) (50, -4.37876313924789428711e-01) (51, -1.03268213570117950439e-01) (52, 5.44824063777923583984e-01) (53, 2.95590817928314208984e-01) (54, -1.12475164234638214111e-01) (55, 8.04389774799346923828e-01) (56, 2.73545384407043457031e-01) (57, -4.61204719543457031250e+00) (58, 1.58296898007392883301e-01) (59, 1.52789211273193359375e+00) (60, 4.11328315734863281250e-01) (61, 1.26545071601867675781e+00) (62, -7.48476684093475341797e-01) (63, -7.74921774864196777344e-01) (64, 7.35553622245788574219e-01) (65, 4.07089948654174804688e-01) (66, 4.61576133966445922852e-01) (67, 6.88239276409149169922e-01) (68, 5.17708182334899902344e-01) (69, 5.44656336307525634766e-01) (70, 4.90605652332305908203e-01) (71, 1.12052383422851562500e+01) (72, 4.62924927473068237305e-01) (73, 1.28019526600837707520e-01) (74, 5.27922034263610839844e-01) (75, 7.77361202239990234375e+00) (76, 7.92834401130676269531e-01) (77, -7.86747276782989501953e-01) (78, -7.15332850813865661621e-02) (79, -1.80465444922447204590e-01) (80, 3.98177933692932128906e+00) (81, 2.60394930839538574219e+00) (82, -4.10962343215942382812e+00) (83, -6.49328589439392089844e-01) (84, -4.58946514129638671875e+00) (85, 4.08529102802276611328e-01) (86, -6.45594644546508789062e+00) (87, 1.89794673919677734375e+01) (88, 2.35873818397521972656e-01) (89, 5.77004015445709228516e-01) (90, 3.19565017707645893097e-03) (91, 6.29251897335052490234e-02) (92, -2.42859244346618652344e+00) (93, -9.75364208221435546875e-01) (94, -4.27796214818954467773e-01) (95, 4.88174289464950561523e-01) (96, 4.01697531342506408691e-02) (97, 5.40041208267211914062e-01) (98, -5.87331867218017578125e+00) (99, 3.45650494098663330078e-01) (100, 4.98806923627853393555e-01) (0, 1.87646842002868652344e+00) (1, 1.11760443542152643204e-03) (2, 1.31694320589303970337e-02) (3, 5.12754058837890625000e+00) (4, 8.34880709648132324219e-01) (5, -9.69700694084167480469e-01) (6, 4.37199354171752929688e+00) (7, -2.68035769462585449219e+00) (8, 1.93667769432067871094e+00) (9, 2.63318687677383422852e-01) (10, 1.02528333663940429688e+00) (11, 3.74345690011978149414e-01) (12, -4.29899334907531738281e-01) (13, 3.83783489465713500977e-01) (14, 6.69971036911010742188e+00) (15, 4.40622091293334960938e-01) (16, 2.87138581275939941406e-01) (17, -1.62810578942298889160e-01) (18, 3.36899459362030029297e-01) (19, 2.43762588500976562500e+00) (20, 7.55613088607788085938e-01) (21, 2.35144853591918945312e-01) (22, 2.86293864250183105469e-01) (23, 2.07567408680915832520e-01) (24, -5.60209321975708007812e+00) (25, -1.96385011076927185059e-01) (26, -1.04585893452167510986e-01) (27, -1.21333484649658203125e+01) (28, -4.88811403512954711914e-01) (29, 1.35846687480807304382e-02) (30, 2.63937056064605712891e-01) (31, 8.92714485526084899902e-02) (32, -1.66098531335592269897e-02) (33, -2.36883020401000976562e+00) (34, 4.41033554077148437500e+00) (35, -4.61426210403442382812e+00) (36, 6.01526379585266113281e-01) (37, 4.68570701777935028076e-02) (38, 5.67299175262451171875e+00) (39, 2.48713210225105285645e-01) (40, -6.64984464645385742188e-01) (41, 1.67928248643875122070e-01) (42, -6.67639821767807006836e-02) (43, -8.13363731140270829201e-05) (44, -2.23801803588867187500e+00) (45, -1.73222079873085021973e-01) (46, 2.28493785858154296875e+00) (47, 3.94970536231994628906e-01) (48, -2.72105839103460311890e-02) (49, -1.42179057002067565918e-01) (50, -1.71438372135162353516e+00) (51, 4.74791347980499267578e-01) (52, -8.97588431835174560547e-01) (53, 7.13624417781829833984e-01) (54, 6.44957423210144042969e-01) (55, -1.79165685176849365234e+00) (56, -1.90747356414794921875e+00) (57, -3.96834224462509155273e-01) (58, 5.60064935684204101562e+00) (59, -1.06003724038600921631e-01) (60, 1.79323554039001464844e+00) (61, 7.63256072998046875000e-01) (62, -6.98623716831207275391e-01) (63, -1.77999448776245117188e+00) (64, -8.70496213436126708984e-01) (65, 6.90455019474029541016e-01) (66, -4.02442514896392822266e-01) (67, -2.21975788474082946777e-01) (68, 1.10097140073776245117e-01) (69, 4.96561676263809204102e-01) (70, 8.70106756687164306641e-01) (71, 3.05342435836791992188e+00) (72, -7.86452740430831909180e-02) (73, 1.85571059584617614746e-01) (74, -8.95095109939575195312e-01) (75, -6.62955999374389648438e-01) (76, -9.61720883846282958984e-01) (77, -2.99253749847412109375e+00) (78, 2.86677956581115722656e-01) (79, 3.53784471750259399414e-01) (80, 7.31885766983032226562e+00) (81, 1.66138514876365661621e-01) (82, 2.83077931404113769531e+00) (83, 3.74786853790283203125e-01) (84, -4.09057028591632843018e-02) (85, 9.85521078109741210938e-01) (86, -1.28444063663482666016e+00) (87, -5.21408128738403320312e+00) (88, 8.86908471584320068359e-01) (89, -1.27128803730010986328e+00) (90, -9.69848260283470153809e-02) (91, 5.66394472122192382812e+00) (92, 1.38030552864074707031e+00) (93, 7.51198589801788330078e-01) (94, 2.37924352288246154785e-01) (95, -2.80384516716003417969e+00) (96, -7.57783460617065429688e+00) (97, -2.90663933753967285156e+00) (98, 5.43510019779205322266e-01) (99, -8.05332958698272705078e-01) (100, 3.02554458379745483398e-01) (0, -4.33291420340538024902e-02) (1, 9.16705310344696044922e-01) (2, 3.89055162668228149414e-01) (3, -4.93322387337684631348e-02) (4, 5.20245373249053955078e-01) (5, 6.95931613445281982422e-01) (6, 4.21172827482223510742e-01) (7, 1.55637669563293457031e+00) (8, -3.93064916133880615234e-02) (9, 6.23816251754760742188e-01) (10, 3.43600749969482421875e-01) (11, 4.34465020895004272461e-01) (12, 7.23851740360260009766e-01) (13, 4.50698286294937133789e-01) (14, 1.12273826599121093750e+01) (15, 5.17514824867248535156e-01) (16, 4.41059559583663940430e-01) (17, 4.35299366712570190430e-01) (18, 3.87226581573486328125e-01) (19, -1.62713184952735900879e-01) (20, 1.06569790840148925781e+00) (21, 6.16742253303527832031e-01) (22, 5.37950873374938964844e-01) (23, 9.68695804476737976074e-02) (24, -4.30367231369018554688e+00) (25, 3.74318882822990417480e-02) (26, 1.76157400012016296387e-01) (27, -4.46824699640274047852e-01) (28, 3.96383404731750488281e-01) (29, 5.70220291614532470703e-01) (30, -8.86391341686248779297e-01) (31, -1.20998537167906761169e-02) (32, 1.57697960734367370605e-01) (33, 4.05985027551651000977e-01) (34, 4.40837764739990234375e+00) (35, 1.35797071456909179688e+00) (36, 4.06628459692001342773e-01) (37, 4.36197996139526367188e-01) (38, -9.29081976413726806641e-01) (39, 3.42171645164489746094e+00) (40, -2.78714251518249511719e+00) (41, 5.02375006675720214844e-01) (42, -4.70451563596725463867e-01) (43, -5.62045526504516601562e+00) (44, 4.30946737527847290039e-01) (45, 5.87420761585235595703e-01) (46, 2.54965931177139282227e-01) (47, 4.41587924957275390625e-01) (48, 3.82150024175643920898e-01) (49, 2.34689101576805114746e-01) (50, -4.17081117630004882812e+00) (51, -3.29056531190872192383e-02) (52, 2.94417917728424072266e-01) (53, 1.68474420905113220215e-01) (54, -5.88644146919250488281e-02) (55, 5.91043770313262939453e-01) (56, 6.18758201599121093750e-01) (57, -4.33027887344360351562e+00) (58, 3.42529356479644775391e-01) (59, 8.45218241214752197266e-01) (60, -2.34524663537740707397e-02) (61, 9.05278265476226806641e-01) (62, -6.10649156570434570312e+00) (63, 4.74585175514221191406e-01) (64, 8.31710517406463623047e-01) (65, 4.87174421548843383789e-01) (66, 4.91378694772720336914e-01) (67, 1.12146712839603424072e-01) (68, 3.84655743837356567383e-01) (69, 2.94623792171478271484e-01) (70, 1.28492563962936401367e-01) (71, 3.46802067756652832031e+00) (72, 5.08549749851226806641e-01) (73, 6.13809764385223388672e-01) (74, 4.57567930221557617188e-01) (75, 1.89405238628387451172e+00) (76, 6.04240417480468750000e-01) (77, -8.54993247985839843750e+00) (78, 2.54055783152580261230e-02) (79, -1.05397991836071014404e-01) (80, -3.16633999347686767578e-01) (81, 5.89024722576141357422e-01) (82, 5.17198848724365234375e+00) (83, 3.72213393449783325195e-01) (84, 1.05569696426391601562e+00) (85, 2.34947577118873596191e-01) (86, 1.91985085606575012207e-01) (87, 2.08830761909484863281e+00) (88, -1.83962225914001464844e-01) (89, 6.68485611677169799805e-02) (90, 4.73670184612274169922e-01) (91, 1.89191311597824096680e-01) (92, 1.27506554126739501953e+00) (93, -2.32567250728607177734e-01) (94, 3.10514986515045166016e-01) (95, 4.69990998506546020508e-01) (96, 6.24241209030151367188e+00) (97, 4.96304750442504882812e-01) (98, 8.84431321173906326294e-03) (99, 5.99858999252319335938e-01) (100, 5.92899322509765625000e-01) (0, -5.34028959274291992188e+00) (1, -1.03035097122192382812e+01) (2, 1.95863628387451171875e+00) (3, -3.71793985366821289062e+00) (4, 6.52044343948364257812e+00) (5, -5.89907598495483398438e+00) (6, -4.56657600402832031250e+00) (7, 1.12286031246185302734e+00) (8, -1.00879132747650146484e+00) (9, 4.31468516588211059570e-01) (10, 7.05582380294799804688e-01) (11, 4.47970896959304809570e-01) (12, -1.79825603961944580078e-01) (13, 6.65083837509155273438e+00) (14, 3.30984890460968017578e-01) (15, 6.55540287494659423828e-01) (16, 4.11388486623764038086e-01) (17, -1.58083009719848632812e+00) (18, 3.74293506145477294922e-01) (19, 2.69512414932250976562e-01) (20, 1.38357269763946533203e+00) (21, 6.46023631095886230469e-01) (22, 5.15909731388092041016e-01) (23, -3.03144067525863647461e-01) (24, -1.20067501068115234375e+01) (25, -2.26627871394157409668e-01) (26, -3.87527048587799072266e-01) (27, -7.09249114990234375000e+00) (28, 9.30474579334259033203e-01) (29, 4.88052785396575927734e-01) (30, 5.16380453109741210938e+00) (31, 9.79846239089965820312e-01) (32, -1.85512691736221313477e-01) (33, -9.38149154186248779297e-01) (34, 3.62440419197082519531e+00) (35, 9.79335689544677734375e+00) (36, 5.66653966903686523438e-01) (37, 3.04211914539337158203e-01) (38, 4.51573991775512695312e+00) (39, -6.50687217712402343750e+00) (40, -9.18210601806640625000e+00) (41, -1.02375531196594238281e+00) (42, -1.73912532627582550049e-02) (43, 2.75918292999267578125e+00) (44, 4.00456309318542480469e-01) (45, 3.45535755157470703125e-01) (46, -3.99657392501831054688e+00) (47, 5.20593881607055664062e-01) (48, 1.76301765441894531250e+00) (49, 4.26643379032611846924e-02) (50, -1.12317037582397460938e+01) (51, -7.65823698043823242188e+00) (52, 9.26871585845947265625e+00) (53, -1.80671858787536621094e+00) (54, -1.53617799282073974609e+00) (55, 9.63906466960906982422e-01) (56, -3.73950690031051635742e-01) (57, 1.44155740737915039062e+01) (58, 2.93276524543762207031e+00) (59, -5.59751838445663452148e-02) (60, -3.46889638900756835938e+00) (61, -1.58018341064453125000e+01) (62, 8.41067123413085937500e+00) (63, -1.25160425901412963867e-01) (64, -1.94657444953918457031e-01) (65, -4.51775836944580078125e+00) (66, 1.39382946491241455078e+00) (67, 1.03763413429260253906e+00) (68, 3.54876637458801269531e+00) (69, -1.52092409133911132812e+00) (70, 5.33490836620330810547e-01) (71, 5.96014261245727539062e+00) (72, 3.28696817159652709961e-01) (73, -2.12671697139739990234e-01) (74, -6.11216798424720764160e-02) (75, -6.82726442813873291016e-01) (76, 9.68442037701606750488e-02) (77, 8.26695632934570312500e+00) (78, 2.51326346397399902344e+00) (79, 1.36238381266593933105e-01) (80, 3.02485615015029907227e-01) (81, 3.98751020431518554688e+00) (82, -2.14441108703613281250e+00) (83, 7.21041679382324218750e-01) (84, -3.91465520858764648438e+00) (85, 5.35237610340118408203e-01) (86, 1.19375848770141601562e+00) (87, 3.58045488595962524414e-01) (88, 4.40133154392242431641e-01) (89, -5.69942283630371093750e+00) (90, 1.12863242626190185547e+00) (91, -7.49187588691711425781e-01) (92, 1.77756047248840332031e+00) (93, -3.17598509788513183594e+00) (94, 5.25319695472717285156e-01) (95, 3.19109821319580078125e+00) (96, -5.31298685073852539062e+00) (97, 5.17927825450897216797e-01) (98, 1.10780382156372070312e+00) (99, -6.32916271686553955078e-01) (100, 1.91406741738319396973e-01) (0, -1.52503108978271484375e+01) (1, 4.37706327438354492188e+00) (2, -1.41469752788543701172e+00) (3, -3.52638155221939086914e-01) (4, 8.17913293838500976562e-01) (5, -8.33059102296829223633e-02) (6, -1.78692889213562011719e+00) (7, -6.11417865753173828125e+00) (8, 9.11185145378112792969e-02) (9, 3.16867470741271972656e-01) (10, -2.73843860626220703125e+00) (11, 5.75508713722229003906e-01) (12, -3.31235766410827636719e-01) (13, -9.08014848828315734863e-02) (14, -8.60152244567871093750e+00) (15, 3.43094944953918457031e-01) (16, 3.74453365802764892578e-01) (17, 5.24597644805908203125e-01) (18, 4.58467453718185424805e-01) (19, 6.69026076793670654297e-01) (20, -4.68087720870971679688e+00) (21, 6.17850720882415771484e-01) (22, 6.03260755538940429688e-01) (23, -1.45700469613075256348e-01) (24, -2.95139431953430175781e+00) (25, 7.56501220166683197021e-03) (26, 5.63347637653350830078e-01) (27, -4.19690132141113281250e+00) (28, -8.66209685802459716797e-01) (29, 4.45235157012939453125e+00) (30, -2.95690226554870605469e+00) (31, 3.37678156793117523193e-02) (32, -8.90518546104431152344e-01) (33, -2.65575194358825683594e+00) (34, 1.87277531623840332031e+00) (35, -2.31345629692077636719e+00) (36, 5.20042419433593750000e-01) (37, 1.58899143338203430176e-01) (38, 2.74771499633789062500e+00) (39, -4.77012443542480468750e+00) (40, 9.02551651000976562500e+00) (41, 5.67329585552215576172e-01) (42, 1.29749089479446411133e-01) (43, -2.04122352600097656250e+00) (44, 2.54787623882293701172e-01) (45, -2.14851808547973632812e+00) (46, 1.68092262744903564453e+00) (47, 4.58446413278579711914e-01) (48, -8.31086158752441406250e-01) (49, -1.09038479626178741455e-01) (50, 1.09963712692260742188e+01) (51, 2.56076812744140625000e-01) (52, 4.53536421060562133789e-01) (53, 2.39022278785705566406e+00) (54, -3.35745126008987426758e-01) (55, 6.13765144348144531250e+00) (56, 1.68094563484191894531e+00) (57, -4.13450336456298828125e+00) (58, 4.04239463806152343750e+00) (59, -4.86140921711921691895e-02) (60, 2.24996495246887207031e+00) (61, 4.48325455188751220703e-01) (62, -2.03099155426025390625e+00) (63, -1.87122380733489990234e+00) (64, 5.09462416172027587891e-01) (65, 5.95286309719085693359e-01) (66, 7.77882719039916992188e+00) (67, 2.22571194171905517578e-02) (68, 4.66871023178100585938e-01) (69, 6.70750260353088378906e-01) (70, 1.42366123199462890625e+00) (71, 4.34024667739868164062e+00) (72, -7.13040828704833984375e-01) (73, -1.66980934143066406250e+00) (74, 1.58774709701538085938e+00) (75, -1.25845402479171752930e-01) (76, -3.70978260040283203125e+00) (77, -3.85273885726928710938e+00) (78, 1.66480839252471923828e-01) (79, 2.00961500406265258789e-01) (80, 4.53842830657958984375e+00) (81, 3.44029515981674194336e-01) (82, -2.12722635269165039062e+00) (83, -1.80775988847017288208e-02) (84, 1.61792480945587158203e+00) (85, 5.28902232646942138672e-01) (86, -3.03352952003479003906e+00) (87, 2.22526907920837402344e-01) (88, 5.59507489204406738281e-01) (89, 1.34060871601104736328e+00) (90, 1.44154191017150878906e+00) (91, 6.09944939613342285156e-01) (92, -1.41480612754821777344e+00) (93, -3.57246041297912597656e+00) (94, 5.49528002738952636719e-01) (95, 8.05277764797210693359e-01) (96, -1.20980539321899414062e+01) (97, 5.20298123359680175781e-01) (98, 2.04387810081243515015e-02) (99, -7.79612004756927490234e-01) (100, 2.40584909915924072266e-01) (0, 1.57286092638969421387e-01) (1, -1.66803586483001708984e+00) (2, 5.10261058807373046875e-01) (3, -1.92220196127891540527e-01) (4, 4.03043717145919799805e-01) (5, 3.34519410133361816406e+00) (6, -1.13585062325000762939e-01) (7, 7.26858198642730712891e-01) (8, 2.45398469269275665283e-02) (9, 4.96213853359222412109e-01) (10, 1.14885807037353515625e-01) (11, 5.72511553764343261719e-01) (12, 1.06774652004241943359e+00) (13, 2.25582942366600036621e-01) (14, 1.29637026786804199219e+00) (15, 4.21337544918060302734e-01) (16, 5.84650158882141113281e-01) (17, 2.21563711762428283691e-01) (18, -4.40529674291610717773e-01) (19, -4.92374211549758911133e-01) (20, -7.72580802440643310547e-02) (21, 4.46449488401412963867e-01) (22, 5.41009366512298583984e-01) (23, -8.06600041687488555908e-03) (24, 2.28178000450134277344e+00) (25, -6.54189586639404296875e-02) (26, 3.92020285129547119141e-01) (27, -1.54136490821838378906e+00) (28, 4.00564789772033691406e-01) (29, 4.62883859872817993164e-01) (30, 2.37824139185249805450e-03) (31, 6.08649611473083496094e-01) (32, 2.36127287149429321289e-01) (33, 4.33469474315643310547e-01) (34, 6.22339487075805664062e+00) (35, 3.35873818397521972656e+00) (36, 3.47689688205718994141e-01) (37, 3.63082855939865112305e-01) (38, 8.11237716674804687500e+00) (39, 5.51265048980712890625e+00) (40, -2.14469864964485168457e-01) (41, 5.67845880985260009766e-01) (42, -2.57327049970626831055e-01) (43, -1.70598208904266357422e+00) (44, 3.66778850555419921875e-01) (45, 3.29386085271835327148e-01) (46, -8.35046958923339843750e+00) (47, 6.51223242282867431641e-01) (48, 4.77758646011352539062e-01) (49, 3.12050461769104003906e-01) (50, 1.66203248500823974609e+00) (51, -3.03848981857299804688e-02) (52, 1.65022209286689758301e-01) (53, -2.12159395217895507812e-01) (54, -3.02224606275558471680e-02) (55, 2.07080125808715820312e-01) (56, 5.97568571567535400391e-01) (57, 4.66991007328033447266e-01) (58, 5.45203626155853271484e-01) (59, 8.69719803333282470703e-01) (60, -1.70506939291954040527e-01) (61, 8.64887714385986328125e-01) (62, -8.32306087017059326172e-01) (63, -5.51629960536956787109e-02) (64, 1.96676802635192871094e+00) (65, 2.74519354104995727539e-01) (66, 5.00881731510162353516e-01) (67, 3.30008447170257568359e-01) (68, 3.82141381502151489258e-01) (69, 4.46746021509170532227e-01) (70, 2.29856088757514953613e-01) (71, 1.38263568878173828125e+01) (72, 2.71097993850708007812e+00) (73, 4.93016004562377929688e-01) (74, 5.21830201148986816406e-01) (75, 2.13043022155761718750e+00) (76, 5.09347796440124511719e-01) (77, 1.05693355202674865723e-01) (78, 5.09292185306549072266e-02) (79, -1.82284072041511535645e-01) (80, 3.64890426397323608398e-01) (81, 5.35641968250274658203e-01) (82, 1.39488232135772705078e+00) (83, 8.37891459465026855469e-01) (84, -2.84633445739746093750e+00) (85, 4.08519148826599121094e-01) (86, 4.97078275680541992188e+00) (87, -2.61906623840332031250e+00) (88, 8.85805189609527587891e-02) (89, 1.33742415904998779297e+00) (90, 3.78732442855834960938e-01) (91, 2.54012465476989746094e-01) (92, -1.19552385807037353516e+00) (93, 2.60469585657119750977e-01) (94, -7.63914406299591064453e-01) (95, 3.62665206193923950195e-01) (96, 9.47280788421630859375e+00) (97, 3.29751968383789062500e-01) (98, 4.46135610342025756836e-01) (99, 1.05353116989135742188e+00) (100, 3.87562423944473266602e-01) (0, 6.90947353839874267578e-01) (1, 2.97215193510055541992e-01) (2, -2.82627105712890625000e-01) (3, 9.75383663177490234375e+00) (4, -4.36948463320732116699e-02) (5, 5.26452660560607910156e-01) (6, 8.98410737514495849609e-01) (7, 1.14734373092651367188e+01) (8, 9.59605515003204345703e-01) (9, -8.14840048551559448242e-02) (10, -1.61260128021240234375e-01) (11, -2.68565490841865539551e-03) (12, 5.03113627433776855469e-01) (13, 5.67349314689636230469e-01) (14, -9.87138938903808593750e+00) (15, -1.40532121062278747559e-01) (16, -1.46883010864257812500e-01) (17, -3.38456004858016967773e-01) (18, -8.77946093678474426270e-02) (19, 3.41494195163249969482e-02) (20, 6.01254999637603759766e-01) (21, -1.74607872962951660156e-01) (22, -2.01658457517623901367e-01) (23, 4.86200600862503051758e-01) (24, 1.09452044963836669922e+00) (25, 7.40780651569366455078e-01) (26, -2.08063781261444091797e-01) (27, 1.12894392013549804688e+01) (28, 7.84677863121032714844e-02) (29, -1.41175174713134765625e+00) (30, 6.13713741302490234375e-01) (31, 5.67343652248382568359e-01) (32, 5.17063200473785400391e-01) (33, -5.38230240345001220703e-01) (34, -5.40647506713867187500e+00) (35, -2.98890066146850585938e+00) (36, -2.88195180892944335938e+00) (37, 4.57375645637512207031e-01) (38, -3.02838540077209472656e+00) (39, 4.22158539295196533203e-01) (40, -8.77595603466033935547e-01) (41, -1.78982317447662353516e-01) (42, 4.30619031190872192383e-01) (43, 1.39780836105346679688e+01) (44, -4.65643787384033203125e+00) (45, -1.31309962272644042969e+00) (46, -3.12902760505676269531e+00) (47, -9.99116227030754089355e-02) (48, 2.62689495086669921875e+00) (49, 7.96090221405029296875e+00) (50, -9.49816763401031494141e-01) (51, 4.07859146595001220703e-01) (52, -1.34472799301147460938e+00) (53, 1.75550226122140884399e-02) (54, 1.34085769653320312500e+01) (55, 5.44012188911437988281e-01) (56, -1.58774697780609130859e+00) (57, 6.54086732864379882812e+00) (58, -4.91498231887817382812e+00) (59, 4.02981758117675781250e-01) (60, -4.87563535571098327637e-02) (61, 1.62396550178527832031e+00) (62, 1.16586282849311828613e-01) (63, 7.00947761535644531250e-01) (64, 5.05402743816375732422e-01) (65, -8.55472609400749206543e-02) (66, -6.52569174766540527344e-01) (67, 3.16837263107299804688e+00) (68, -1.77444577217102050781e-01) (69, -1.16308534145355224609e+00) (70, 9.86313913017511367798e-03) (71, -8.73083972930908203125e+00) (72, 7.09931030869483947754e-02) (73, 5.91358304023742675781e-01) (74, 5.28228282928466796875e-01) (75, 6.07667446136474609375e-01) (76, 4.70492333173751831055e-01) (77, 1.34837865829467773438e+01) (78, 6.29697382450103759766e-01) (79, 5.44854104518890380859e-01) (80, 1.32182693481445312500e+00) (81, -4.99435901641845703125e+00) (82, -1.23004817962646484375e+01) (83, 1.30938351154327392578e+00) (84, 2.95698714256286621094e+00) (85, -7.23097175359725952148e-02) (86, 1.08076295852661132812e+01) (87, -2.30892062187194824219e-01) (88, 2.05956902354955673218e-02) (89, 6.76632761955261230469e-01) (90, 8.12341392040252685547e-01) (91, 7.05457478761672973633e-02) (92, -7.45034933090209960938e+00) (93, -4.44973182678222656250e+00) (94, -2.52734482288360595703e-01) (95, -2.58379727602005004883e-02) (96, 1.46943733096122741699e-01) (97, -8.13841447234153747559e-02) (98, 1.68776810169219970703e+00) (99, 4.81457263231277465820e-01) (100, -2.72523069381713867188e+00) (0, -4.23754513263702392578e-01) (1, 2.40721181035041809082e-01) (2, -5.36296308040618896484e-01) (3, 4.27183508872985839844e-01) (4, -1.08100712299346923828e-01) (5, 3.33298236131668090820e-01) (6, 2.06205677986145019531e+00) (7, 3.91788870096206665039e-01) (8, -2.24588871002197265625e+00) (9, -4.95938882231712341309e-02) (10, -1.71239934861660003662e-02) (11, -9.39587056636810302734e-02) (12, 5.13906300067901611328e-01) (13, 5.62828660011291503906e-01) (14, 3.32009506225585937500e+00) (15, -1.93744373321533203125e+00) (16, -1.04878112673759460449e-01) (17, 2.58565127849578857422e-01) (18, -4.17893677949905395508e-02) (19, 2.09237122535705566406e+00) (20, 3.11460167169570922852e-01) (21, 1.55660286545753479004e-01) (22, -1.37469291687011718750e-01) (23, 4.56822484731674194336e-01) (24, 3.10643047094345092773e-01) (25, 5.03008186817169189453e-01) (26, 2.20674896240234375000e+00) (27, -3.13180661201477050781e+00) (28, 1.82158350944519042969e-01) (29, -7.33892619609832763672e-01) (30, 7.73034214973449707031e-01) (31, -3.82189005613327026367e-01) (32, 5.41653096675872802734e-01) (33, 5.35489845275878906250e+00) (34, -1.72911024093627929688e+00) (35, 3.81948590278625488281e+00) (36, -2.00883224606513977051e-02) (37, 5.05084395408630371094e-01) (38, -8.27046930789947509766e-01) (39, 4.11144703626632690430e-01) (40, -8.11970651149749755859e-01) (41, -2.61229777336120605469e+00) (42, 7.53080725669860839844e-01) (43, -1.99468624591827392578e+00) (44, 5.64117506146430969238e-02) (45, -5.15871763229370117188e-01) (46, -1.79684150218963623047e+00) (47, 1.10490404069423675537e-01) (48, 2.57567465305328369141e-01) (49, 3.59123557806015014648e-01) (50, 1.75039207935333251953e+00) (51, 2.65546977519989013672e-01) (52, 1.96060466766357421875e+00) (53, 2.77953124046325683594e+00) (54, 4.18584257364273071289e-01) (55, 3.34560942649841308594e+00) (56, -1.90554475784301757812e+00) (57, 1.23392593860626220703e+00) (58, -3.69573444128036499023e-01) (59, 3.64168614149093627930e-01) (60, -2.27999305725097656250e+00) (61, 3.41648244857788085938e+00) (62, -4.82689332962036132812e+00) (63, -1.50046765804290771484e-01) (64, 1.20402961969375610352e-01) (65, 2.59068518877029418945e-01) (66, -5.92436432838439941406e-01) (67, 1.01399803161621093750e+00) (68, -1.43025323748588562012e-01) (69, -4.41505834460258483887e-02) (70, 4.19700928032398223877e-02) (71, 8.15075755119323730469e-01) (72, -4.23612296581268310547e-02) (73, 5.18306434154510498047e-01) (74, 4.41443592309951782227e-01) (75, 3.25903803110122680664e-01) (76, 4.92661267518997192383e-01) (77, 6.70149755477905273438e+00) (78, -3.18698257207870483398e-01) (79, 5.80309629440307617188e-01) (80, 6.23676061630249023438e+00) (81, -1.03471554815769195557e-01) (82, -1.29815900325775146484e+00) (83, 4.61304783821105957031e-01) (84, 1.55980932712554931641e+00) (85, -6.23325929045677185059e-02) (86, -3.04288339614868164062e+00) (87, -1.16279685497283935547e+00) (88, 5.09361689910292625427e-03) (89, 4.53263670206069946289e-01) (90, 4.46096372604370117188e+00) (91, -5.25717139244079589844e-01) (92, -3.89617085456848144531e+00) (93, 1.22966909408569335938e+00) (94, 8.59916396439075469971e-03) (95, -3.84877473115921020508e-02) (96, -1.39310479164123535156e+00) (97, -8.64063352346420288086e-02) (98, 7.53211915493011474609e-01) (99, 4.36337292194366455078e-01) (100, 3.67826074361801147461e-02) (0, -9.54369366168975830078e-01) (1, 3.28292608261108398438e-01) (2, -1.16202843189239501953e+00) (3, -8.58835518360137939453e-01) (4, 1.14050418138504028320e-01) (5, 3.99276167154312133789e-01) (6, 6.49914383888244628906e-01) (7, 1.47402536869049072266e+00) (8, 7.96110093593597412109e-01) (9, -1.49422973394393920898e-01) (10, 5.25504956021904945374e-03) (11, -3.14728319644927978516e-02) (12, 4.45839494466781616211e-01) (13, 7.98968315124511718750e-01) (14, 9.05473947525024414062e-01) (15, -2.11634159088134765625e-01) (16, -1.95706278085708618164e-01) (17, 1.45282432436943054199e-01) (18, -1.90699577331542968750e-01) (19, -1.13915644586086273193e-01) (20, 9.62239623069763183594e-01) (21, -1.11138269305229187012e-01) (22, -1.78781822323799133301e-01) (23, 5.04238784313201904297e-01) (24, -1.26221999526023864746e-01) (25, 5.71160852909088134766e-01) (26, -3.91069561243057250977e-01) (27, -4.26965570449829101562e+00) (28, -4.83620166778564453125e-02) (29, -6.97330653667449951172e-01) (30, 4.60781753063201904297e-01) (31, 4.06754016876220703125e-01) (32, 4.77590233087539672852e-01) (33, -6.48065865039825439453e-01) (34, 1.49740219116210937500e+00) (35, 4.52159672975540161133e-01) (36, 1.06664553284645080566e-01) (37, 7.37107545137405395508e-02) (38, 1.14301586151123046875e+00) (39, -1.03254687786102294922e+00) (40, 5.62187612056732177734e-01) (41, 1.67232695966958999634e-02) (42, -1.10487997531890869141e+00) (43, -5.23894190788269042969e-01) (44, -4.15090322494506835938e-02) (45, -2.33445256948471069336e-01) (46, -3.74432635307312011719e+00) (47, -1.54325023293495178223e-01) (48, 2.23632171750068664551e-01) (49, 5.12454748153686523438e-01) (50, 3.34609746932983398438e+00) (51, 4.73565250635147094727e-01) (52, 3.60232442617416381836e-02) (53, 3.92513692378997802734e-01) (54, 1.42276215553283691406e+00) (55, 4.48148220777511596680e-01) (56, -8.27913224697113037109e-01) (57, -3.86911439895629882812e+00) (58, 3.83188202977180480957e-02) (59, 2.76327759027481079102e-01) (60, -6.50414228439331054688e-02) (61, 8.43100070953369140625e-01) (62, -5.88945209980010986328e-01) (63, -8.21658313274383544922e-01) (64, 2.39369884133338928223e-01) (65, -1.53887167572975158691e-01) (66, -7.71567165851593017578e-01) (67, 5.22977828979492187500e-01) (68, -5.16414791345596313477e-02) (69, -8.90653952956199645996e-02) (70, -1.56074613332748413086e-01) (71, -1.75447690486907958984e+00) (72, 8.17571505904197692871e-02) (73, 4.17013406753540039062e-01) (74, 5.89418053627014160156e-01) (75, 1.24648343771696090698e-02) (76, 5.86821258068084716797e-01) (77, -7.42293536663055419922e-01) (78, 4.65837061405181884766e-01) (79, 4.89735960960388183594e-01) (80, 1.06246501207351684570e-01) (81, -1.93162357807159423828e+00) (82, 2.79407548904418945312e+00) (83, 2.06624880433082580566e-01) (84, -6.56694948673248291016e-01) (85, 3.63629944622516632080e-02) (86, 3.78573584556579589844e+00) (87, -9.51853692531585693359e-01) (88, -1.51379609107971191406e+00) (89, 6.59809887409210205078e-01) (90, -1.03424775600433349609e+00) (91, -6.36565208435058593750e-01) (92, 1.66234433650970458984e+00) (93, 6.48764944076538085938e+00) (94, -1.65682625770568847656e+00) (95, -2.40242409706115722656e+00) (96, 2.65122699737548828125e+00) (97, -6.12001493573188781738e-02) (98, -5.18780529499053955078e-01) (99, 3.68441402912139892578e-01) (100, -1.79351359605789184570e-01) (0, 2.36828625202178955078e-01) (1, -1.52764987945556640625e+00) (2, 3.17160822451114654541e-02) (3, 4.37087774276733398438e-01) (4, 1.27770960330963134766e-01) (5, 2.59549468755722045898e-01) (6, 8.80979299545288085938e-01) (7, -1.15705454349517822266e+00) (8, 3.10505032539367675781e-01) (9, -1.53594925999641418457e-01) (10, -3.41007485985755920410e-02) (11, -1.82066652923822402954e-02) (12, 2.68219828605651855469e+00) (13, 8.40875208377838134766e-01) (14, 1.20718784630298614502e-01) (15, -5.67502677440643310547e-02) (16, -1.28196939826011657715e-01) (17, 3.25736522674560546875e-01) (18, -6.48773973807692527771e-03) (19, -6.94193840026855468750e-02) (20, 5.16140401363372802734e-01) (21, 1.38526316732168197632e-02) (22, -1.20730847120285034180e-01) (23, 5.64558684825897216797e-01) (24, 9.18583571910858154297e-01) (25, 5.52078485488891601562e-01) (26, 5.96130967140197753906e-01) (27, 2.68913698196411132812e+00) (28, 8.10418367385864257812e-01) (29, -1.69130396842956542969e+00) (30, 1.94790458679199218750e+00) (31, 6.09953105449676513672e-01) (32, 3.90684694051742553711e-01) (33, 7.24284291267395019531e-01) (34, -1.72171151638031005859e+00) (35, 1.24854934215545654297e+00) (36, -7.49768987298011779785e-02) (37, 5.34252941608428955078e-01) (38, 7.70487666130065917969e-01) (39, -3.57136353850364685059e-02) (40, 1.35587298870086669922e+00) (41, -4.54706549644470214844e-01) (42, 4.16322857141494750977e-01) (43, -1.95679318904876708984e+00) (44, -1.35112106800079345703e-02) (45, -2.17204356193542480469e+00) (46, 5.81521987915039062500e-01) (47, -2.79718607664108276367e-01) (48, 1.03239047527313232422e+00) (49, 4.87340033054351806641e-01) (50, -1.43614125251770019531e+00) (51, -1.42693984508514404297e+00) (52, 1.45680153369903564453e+00) (53, 4.70345467329025268555e-01) (54, 5.90609729290008544922e-01) (55, 6.92733108997344970703e-01) (56, 3.95443826913833618164e-01) (57, -1.25480964779853820801e-01) (58, -5.21593391895294189453e-01) (59, -1.28510379791259765625e+00) (60, -6.54036700725555419922e-02) (61, 2.73492169380187988281e+00) (62, 9.11597669124603271484e-01) (63, 2.84086950123310089111e-02) (64, 3.16875070333480834961e-01) (65, -1.36414670944213867188e+00) (66, -7.80088245868682861328e-01) (67, 4.01181250810623168945e-01) (68, 1.54274050146341323853e-02) (69, -4.93862897157669067383e-01) (70, 1.64263993501663208008e-01) (71, 2.44452238082885742188e+00) (72, -2.72482156753540039062e-01) (73, 4.31195914745330810547e-01) (74, 5.35317480564117431641e-01) (75, 9.64142680168151855469e-01) (76, 4.49002593755722045898e-01) (77, 1.60999131202697753906e+00) (78, -3.24119782447814941406e+00) (79, 3.96695971488952636719e-01) (80, 1.47444948554039001465e-01) (81, -1.53873339295387268066e-01) (82, -1.25554800033569335938e+00) (83, 1.87827154994010925293e-01) (84, 6.29049825668334960938e+00) (85, 3.14032733440399169922e-02) (86, 2.94881033897399902344e+00) (87, 2.61213636398315429688e+00) (88, 4.19219136238098144531e-02) (89, -5.67729187011718750000e+00) (90, -2.46323728561401367188e+00) (91, -4.03348729014396667480e-02) (92, 2.46596765518188476562e+00) (93, 1.18354713916778564453e+00) (94, -4.43679630756378173828e-01) (95, -4.26675748825073242188e+00) (96, 2.53712654113769531250e+00) (97, 9.51559320092201232910e-02) (98, 9.19898509979248046875e-01) (99, 1.16462171077728271484e+00) (100, -8.13493281602859497070e-02) (0, 2.75139212608337402344e-01) (1, 1.28964495658874511719e+00) (2, 8.01120996475219726562e-01) (3, 6.13857269287109375000e-01) (4, -4.03200685977935791016e-02) (5, 2.41715502738952636719e+00) (6, 7.80276656150817871094e-01) (7, -1.79432117938995361328e+00) (8, -1.63907513022422790527e-01) (9, -7.98885747790336608887e-02) (10, -1.05513207614421844482e-01) (11, -1.04453481733798980713e-01) (12, 5.38237392902374267578e-01) (13, -7.49838352203369140625e-01) (14, -1.12207865715026855469e+00) (15, -1.90782934427261352539e-01) (16, -3.37956833839416503906e+00) (17, -1.40129458904266357422e+00) (18, -5.81274181604385375977e-02) (19, 1.76068805158138275146e-02) (20, 4.69814419746398925781e-01) (21, 2.54600960761308670044e-02) (22, -3.49225193262100219727e-01) (23, 4.26644533872604370117e-01) (24, 3.10411024093627929688e+00) (25, 3.80812048912048339844e+00) (26, 4.82296139001846313477e-01) (27, -5.01702547073364257812e+00) (28, -1.00181788206100463867e-01) (29, -1.37302732467651367188e+00) (30, 5.05490303039550781250e-01) (31, 1.73749053478240966797e+00) (32, 5.57734191417694091797e-01) (33, 1.08083510398864746094e+00) (34, 5.47692537307739257812e+00) (35, 6.77653646469116210938e+00) (36, 1.88211388885974884033e-02) (37, -2.70230627059936523438e+00) (38, 3.18424010276794433594e+00) (39, 1.50393855571746826172e+00) (40, -8.91715717315673828125e+00) (41, -1.35315552353858947754e-01) (42, -1.06207740306854248047e+00) (43, -6.40701889991760253906e-01) (44, -6.46673887968063354492e-02) (45, 2.05492973327636718750e+00) (46, -4.10814237594604492188e+00) (47, -2.12522670626640319824e-02) (48, -8.43739330768585205078e-01) (49, 3.95388752222061157227e-01) (50, 1.38071274757385253906e+00) (51, 2.59112358093261718750e-01) (52, -3.29724979400634765625e+00) (53, -3.68074208498001098633e-01) (54, 5.27463436126708984375e-01) (55, 3.46318632364273071289e-01) (56, 2.70370066165924072266e-01) (57, 9.66269135475158691406e-01) (58, 3.25624871253967285156e+00) (59, 9.44415211677551269531e-01) (60, 4.10668589174747467041e-02) (61, -2.54099059104919433594e+00) (62, 2.06505060195922851562e+00) (63, 7.82080984115600585938e+00) (64, 9.50565338134765625000e-02) (65, -1.92351669073104858398e-01) (66, -6.87277913093566894531e-01) (67, 5.43552815914154052734e-01) (68, -1.82478994131088256836e-01) (69, -7.40510880947113037109e-01) (70, -5.28768673539161682129e-02) (71, -1.87857627868652343750e-01) (72, 9.73645374178886413574e-02) (73, 3.94742608070373535156e-01) (74, 5.96901237964630126953e-01) (75, 1.36340034008026123047e+00) (76, 4.84124809503555297852e-01) (77, 5.10415124893188476562e+00) (78, 4.63765770196914672852e-01) (79, 4.41418945789337158203e-01) (80, 9.58002358675003051758e-02) (81, 6.56239449977874755859e-01) (82, 5.58299541473388671875e+00) (83, 3.50242972373962402344e-01) (84, -3.09147298336029052734e-01) (85, -1.38681054115295410156e-01) (86, -4.27361106872558593750e+00) (87, 1.58549571037292480469e+00) (88, 4.52129468321800231934e-02) (89, 8.59274029731750488281e-01) (90, 6.15355849266052246094e-01) (91, 8.29060077667236328125e-02) (92, 2.57803845405578613281e+00) (93, 4.57984894514083862305e-01) (94, -1.27434372901916503906e+00) (95, -1.14181675016880035400e-01) (96, 3.37312722206115722656e+00) (97, 8.39875731617212295532e-03) (98, 1.68721961975097656250e+00) (99, 3.60698163509368896484e-01) (100, -1.52894273400306701660e-01) (0, 6.05130493640899658203e-01) (1, 3.58233785629272460938e+00) (2, -2.86043405532836914062e-01) (3, -2.16980957984924316406e+00) (4, -7.44453584775328636169e-03) (5, 2.09428593516349792480e-01) (6, -2.26067140698432922363e-01) (7, 3.99551916122436523438e+00) (8, 6.91326260566711425781e-01) (9, -2.45933204889297485352e-01) (10, -2.42660832405090332031e+00) (11, -1.77516892552375793457e-01) (12, -6.20726764202117919922e-01) (13, 1.03177356719970703125e+00) (14, -7.40959107875823974609e-01) (15, -1.31914508342742919922e+00) (16, -2.46715590357780456543e-01) (17, 6.40371441841125488281e-02) (18, -4.39925968647003173828e-01) (19, 7.76220336556434631348e-02) (20, -4.44262653589248657227e-01) (21, -1.57662793993949890137e-01) (22, -1.53935241699218750000e+00) (23, 3.95555406808853149414e-01) (24, -1.14974200725555419922e+00) (25, 3.61303269863128662109e-01) (26, 2.50518178939819335938e+00) (27, 5.58881902694702148438e+00) (28, -4.55164700746536254883e-01) (29, -5.02961099147796630859e-01) (30, 5.30419230461120605469e-01) (31, 4.84914928674697875977e-01) (32, 5.70161938667297363281e-01) (33, -1.48898541927337646484e+00) (34, -1.02088010311126708984e+00) (35, 9.52320098876953125000e-01) (36, 7.73212015628814697266e-01) (37, 1.70525431632995605469e+00) (38, 2.47471427917480468750e+00) (39, -3.13711643218994140625e+00) (40, -6.67009544372558593750e+00) (41, 3.13960015773773193359e-01) (42, 3.01698535680770874023e-01) (43, 1.00500955581665039062e+01) (44, -1.32262599468231201172e+00) (45, -3.51107567548751831055e-01) (46, -5.54567050933837890625e+00) (47, 4.50472198426723480225e-02) (48, 4.62558448314666748047e-01) (49, 7.14746639132499694824e-02) (50, -1.47316172719001770020e-01) (51, 3.96704703569412231445e-01) (52, -5.41102811694145202637e-02) (53, -4.91130161285400390625e+00) (54, -2.48304009437561035156e+00) (55, 4.69851136207580566406e-01) (56, -1.71315848827362060547e+00) (57, -7.84747886657714843750e+00) (58, 3.71871614456176757812e+00) (59, 2.04512521624565124512e-01) (60, 1.08221516013145446777e-01) (61, 8.58182251453399658203e-01) (62, 3.42142075300216674805e-01) (63, -2.53394699096679687500e+00) (64, -8.88548716902732849121e-02) (65, 7.29845762252807617188e-02) (66, -6.54193997383117675781e-01) (67, 1.94652095437049865723e-01) (68, -2.18201894313097000122e-03) (69, 3.13628353178501129150e-02) (70, -1.21220909059047698975e-01) (71, -3.24658274650573730469e+00) (72, 2.43309950828552246094e+00) (73, 6.94786548614501953125e-01) (74, 5.63265442848205566406e-01) (75, 3.48618483543395996094e+00) (76, 4.64762210845947265625e-01) (77, -2.28739738464355468750e+00) (78, 6.37884914875030517578e-01) (79, 6.12169921398162841797e-01) (80, -2.82690882682800292969e+00) (81, -3.84580224752426147461e-01) (82, -1.63806229829788208008e-01) (83, -1.16589359939098358154e-01) (84, -6.26388502120971679688e+00) (85, 5.18107339739799499512e-02) (86, -1.52316355705261230469e+00) (87, 3.09134626388549804688e+00) (88, -1.74336507916450500488e-02) (89, 4.65653419494628906250e-01) (90, -2.20346665382385253906e+00) (91, -3.57816219329833984375e-01) (92, -7.64092266559600830078e-01) (93, -1.87261663377285003662e-02) (94, 1.22948348522186279297e+00) (95, 2.63896226882934570312e+00) (96, 4.50097274780273437500e+00) (97, -6.34917259216308593750e-01) (98, 2.44641613960266113281e+00) (99, 4.15291935205459594727e-01) (100, -1.96091830730438232422e-01) (0, 5.95152318477630615234e-01) (1, 2.79667091369628906250e+00) (2, 5.18257951736450195312e+00) (3, 1.29051491618156433105e-01) (4, 5.92311382293701171875e-01) (5, -2.38877221941947937012e-01) (6, 5.77135235071182250977e-02) (7, -5.69644594192504882812e+00) (8, 8.97998750209808349609e-01) (9, 2.09038302302360534668e-01) (10, 5.48791348934173583984e-01) (11, 4.05226200819015502930e-01) (12, -1.70895770192146301270e-01) (13, -1.03240430355072021484e+00) (14, 7.55203819274902343750e+00) (15, 4.28780734539031982422e-01) (16, 3.97143632173538208008e-01) (17, 4.86187547445297241211e-01) (18, 6.55400514602661132812e-01) (19, 9.20761108398437500000e-01) (20, -5.24274222552776336670e-02) (21, 6.50066852569580078125e-01) (22, 6.32262051105499267578e-01) (23, 4.55868337303400039673e-03) (24, -2.57944416999816894531e+00) (25, 1.06150932610034942627e-01) (26, 2.63433527946472167969e+00) (27, -4.29335165023803710938e+00) (28, 4.48993712663650512695e-01) (29, 7.54229009151458740234e-01) (30, 3.51463615894317626953e-01) (31, -6.81094884872436523438e+00) (32, -9.77209582924842834473e-02) (33, 9.55583527684211730957e-02) (34, -6.16716289520263671875e+00) (35, -1.61754436492919921875e+01) (36, 8.39302659034729003906e-01) (37, 3.34130674600601196289e-01) (38, -2.54428362846374511719e+00) (39, 1.94365352392196655273e-01) (40, 2.54614615440368652344e+00) (41, 4.56169068813323974609e-01) (42, -3.19205594062805175781e+00) (43, 3.30995464324951171875e+00) (44, 2.02351951599121093750e+00) (45, 3.69185775518417358398e-01) (46, -5.53773927688598632812e+00) (47, 4.55649048089981079102e-01) (48, 1.16777718067169189453e+00) (49, -4.81868648529052734375e+00) (50, -3.68401765823364257812e+00) (51, -1.22944831848144531250e-01) (52, 1.92064571380615234375e+00) (53, 7.21778213977813720703e-01) (54, 1.90033361315727233887e-01) (55, -4.50132161378860473633e-01) (56, 8.55893611907958984375e-01) (57, 3.59115409851074218750e+00) (58, -6.24437046051025390625e+00) (59, -1.87496677041053771973e-01) (60, 7.39275872707366943359e-01) (61, -3.84366941452026367188e+00) (62, -1.21556019783020019531e+00) (63, -1.64333286285400390625e+01) (64, 1.64240515232086181641e+00) (65, 4.72710222005844116211e-01) (66, 2.34936714172363281250e-01) (67, 1.67723089456558227539e-01) (68, 5.80384910106658935547e-01) (69, 6.40343904495239257812e-01) (70, 6.74109101295471191406e-01) (71, 4.32012557983398437500e+00) (72, -4.38901424407958984375e+00) (73, 5.72381587699055671692e-03) (74, -1.43698722124099731445e-01) (75, 6.17927026748657226562e+00) (76, -3.92063289880752563477e-01) (77, -3.55382013320922851562e+00) (78, 2.47832089662551879883e-02) (79, 1.24002672731876373291e-01) (80, 3.97849559783935546875e-01) (81, 2.63609814643859863281e+00) (82, 1.53799608349800109863e-01) (83, -6.69173717498779296875e-01) (84, -1.48039364814758300781e+00) (85, 6.07086837291717529297e-01) (86, 5.91948080062866210938e+00) (87, -9.92532432079315185547e-01) (88, 6.25012636184692382812e-01) (89, 2.55011224746704101562e+00) (90, 3.43502908945083618164e-01) (91, 6.54006123542785644531e-01) (92, 1.35553054809570312500e+01) (93, -1.48065400123596191406e+00) (94, 8.74546825885772705078e-01) (95, 2.83923029899597167969e+00) (96, 1.00665855407714843750e+00) (97, 5.39640724658966064453e-01) (98, -1.57254219055175781250e+00) (99, -5.99873006343841552734e-01) (100, 2.08005696535110473633e-01) (0, -3.66453155875205993652e-02) (1, 2.17903923988342285156e+00) (2, 4.78728860616683959961e-01) (3, -2.51735717058181762695e-01) (4, 4.82776731252670288086e-01) (5, -2.37193182110786437988e-01) (6, 1.75078642368316650391e+00) (7, -2.22647890448570251465e-01) (8, 2.85328924655914306641e-01) (9, -2.98612308502197265625e+00) (10, 2.14977574348449707031e+00) (11, 4.09630179405212402344e-01) (12, -9.98062193393707275391e-02) (13, -5.25500583648681640625e+00) (14, 1.03083953857421875000e+01) (15, 5.97697257995605468750e-01) (16, 6.80216073989868164062e-01) (17, 2.21776306629180908203e-01) (18, 4.11659598350524902344e-01) (19, 1.42174935340881347656e+00) (20, 1.87863588333129882812e-01) (21, 5.75729966163635253906e-01) (22, 4.07663285732269287109e-01) (23, -1.31925433874130249023e-01) (24, 3.82097196578979492188e+00) (25, 5.65694943070411682129e-02) (26, 4.38112109899520874023e-01) (27, 1.09575772285461425781e+00) (28, 4.56887111067771911621e-02) (29, 5.51695346832275390625e+00) (30, -8.74511748552322387695e-02) (31, 2.57853555679321289062e+00) (32, -1.92502941936254501343e-02) (33, 2.82485514879226684570e-01) (34, -2.46081280708312988281e+00) (35, -1.51169881224632263184e-01) (36, 5.23163199424743652344e-01) (37, 1.01174175739288330078e+00) (38, 2.94568109512329101562e+00) (39, -4.54089015722274780273e-01) (40, 2.38545894622802734375e+00) (41, 5.04754602909088134766e-01) (42, -3.41387614607810974121e-02) (43, -9.44002926349639892578e-01) (44, 4.88764286041259765625e-01) (45, 2.28759109973907470703e-01) (46, -1.43390989303588867188e+00) (47, 2.22402945160865783691e-01) (48, -1.58922094851732254028e-03) (49, -1.30035532638430595398e-02) (50, -1.34993517398834228516e+00) (51, 3.06070894002914428711e-01) (52, 1.80790856480598449707e-01) (53, 3.12773013114929199219e+00) (54, 1.84256866574287414551e-01) (55, 9.88800730556249618530e-03) (56, 1.02714943885803222656e+00) (57, -4.31201601028442382812e+00) (58, 6.44048631191253662109e-01) (59, -2.66378611326217651367e-01) (60, -1.91269361972808837891e+00) (61, -1.71395584940910339355e-01) (62, -2.84195351600646972656e+00) (63, -2.86131286621093750000e+00) (64, -1.99598491191864013672e-01) (65, 4.63004559278488159180e-01) (66, 3.35044413805007934570e-01) (67, 1.34063333272933959961e-01) (68, 3.68174523115158081055e-01) (69, 4.79659587144851684570e-01) (70, 4.74448013305664062500e+00) (71, -1.38098020553588867188e+01) (72, 1.95204958319664001465e-01) (73, -2.03036355972290039062e+00) (74, 4.20480333268642425537e-02) (75, 1.17486238479614257812e+00) (76, -3.89454936981201171875e+00) (77, -6.03956043720245361328e-01) (78, 1.50470985099673271179e-02) (79, 1.34519651532173156738e-01) (80, 4.82562929391860961914e-02) (81, 9.13494884967803955078e-01) (82, 4.00193786621093750000e+00) (83, -2.43337210267782211304e-02) (84, -2.37397742271423339844e+00) (85, 5.45179128646850585938e-01) (86, 5.16858053207397460938e+00) (87, 4.26597446203231811523e-02) (88, 5.86505174636840820312e-01) (89, 9.39691483974456787109e-01) (90, -8.10852944850921630859e-01) (91, 5.38727521896362304688e-01) (92, -3.75594210624694824219e+00) (93, 6.84840142726898193359e-01) (94, -5.26590645313262939453e-02) (95, 4.37330216169357299805e-01) (96, 6.60933113098144531250e+00) (97, 4.45138454437255859375e-01) (98, -1.06380472183227539062e+01) (99, -1.82958245277404785156e-01) (100, 3.97769600152969360352e-01) (0, 2.29589271545410156250e+00) (1, 6.40874743461608886719e-01) (2, -1.05747139453887939453e+00) (3, -1.40755200386047363281e+00) (4, 8.40968787670135498047e-01) (5, 5.97364962100982666016e-01) (6, -2.49028301239013671875e+00) (7, 2.86167860031127929688e+00) (8, 8.46163988113403320312e-01) (9, 1.50115251541137695312e-01) (10, 4.06031191349029541016e-01) (11, 4.29591178894042968750e-01) (12, -1.20564699172973632812e+00) (13, 1.31674455478787422180e-02) (14, -3.53082227706909179688e+00) (15, 5.52327632904052734375e-01) (16, 4.30192649364471435547e-01) (17, 4.00396060943603515625e+00) (18, 2.34805405139923095703e-01) (19, 2.07560241222381591797e-01) (20, -1.96139419078826904297e+00) (21, 4.34921562671661376953e-01) (22, -4.78394299745559692383e-01) (23, -7.83476084470748901367e-02) (24, -3.86041569709777832031e+00) (25, 1.15519836544990539551e-01) (26, 3.02666127681732177734e-01) (27, 4.46561002731323242188e+00) (28, 3.02800297737121582031e+00) (29, 5.90925335884094238281e-01) (30, 4.69406321644783020020e-02) (31, -1.34642735123634338379e-01) (32, -7.68536403775215148926e-02) (33, 2.51740008592605590820e-01) (34, -4.67155933380126953125e+00) (35, -2.08497381210327148438e+00) (36, 4.80401897430419921875e+00) (37, 8.14875125885009765625e+00) (38, -3.24381589889526367188e+00) (39, -3.51670742034912109375e-01) (40, 1.68849170207977294922e+00) (41, 3.57147008180618286133e-01) (42, -1.48933872580528259277e-01) (43, 5.32835435867309570312e+00) (44, 5.73774576187133789062e-01) (45, 5.66329574584960937500e+00) (46, 3.91411399841308593750e+00) (47, -4.27635383605957031250e+00) (48, 2.47891116887331008911e-02) (49, 2.49789810180664062500e+00) (50, -4.82111835479736328125e+00) (51, -4.30409431457519531250e+00) (52, -3.26819396018981933594e+00) (53, 3.27798986434936523438e+00) (54, -7.08219826221466064453e-01) (55, -2.94482350349426269531e-01) (56, 1.24544882774353027344e+00) (57, 1.13310346603393554688e+01) (58, -4.77019786834716796875e+00) (59, -3.02558928728103637695e-01) (60, 1.58157265186309814453e+00) (61, 1.43305528163909912109e+00) (62, -9.14107739925384521484e-01) (63, 2.09734344482421875000e+00) (64, -2.50931590795516967773e-01) (65, -1.28891265392303466797e+00) (66, 2.40553449839353561401e-02) (67, -8.29827263951301574707e-02) (68, 3.78865867853164672852e-01) (69, 9.81519758701324462891e-01) (70, 3.90447556972503662109e-01) (71, 2.57286477088928222656e+00) (72, 3.10571956634521484375e+00) (73, -7.83125543594360351562e+00) (74, -9.00184959173202514648e-02) (75, -8.84978830814361572266e-01) (76, 1.37934088706970214844e+00) (77, -1.35117602348327636719e+00) (78, 6.36148452758789062500e-01) (79, 1.88166797161102294922e-01) (80, -1.48448514938354492188e+00) (81, -1.30490374565124511719e+00) (82, -7.56162285804748535156e-01) (83, -4.61696207523345947266e-01) (84, 1.09214191436767578125e+01) (85, 5.41386425495147705078e-01) (86, -1.31155550479888916016e+00) (87, -3.78388166427612304688e+00) (88, 1.07301779091358184814e-01) (89, 1.99714787304401397705e-02) (90, 1.24976196289062500000e+01) (91, 6.36815130710601806641e-01) (92, -1.44533705711364746094e+00) (93, -5.45798110961914062500e+00) (94, -2.98136830329895019531e+00) (95, 2.73539632558822631836e-01) (96, 1.54150032997131347656e+00) (97, 5.45895099639892578125e-01) (98, 6.15457713603973388672e-01) (99, -2.35694736242294311523e-01) (100, 4.76389706134796142578e-01) (0, -8.63386783748865127563e-03) (1, 9.97093737125396728516e-01) (2, 4.24527049064636230469e-01) (3, -1.42311185598373413086e-01) (4, 3.99789094924926757812e-01) (5, 3.31797266006469726562e+00) (6, 1.49035736918449401855e-01) (7, 1.16798043251037597656e+00) (8, 7.34648108482360839844e-02) (9, 6.14407718181610107422e-01) (10, 1.78599730134010314941e-01) (11, 4.55585867166519165039e-01) (12, 5.87332665920257568359e-01) (13, 3.72757554054260253906e-01) (14, 1.36158800125122070312e+00) (15, 5.48753440380096435547e-01) (16, 4.76906716823577880859e-01) (17, 3.97038400173187255859e-01) (18, 5.32097339630126953125e-01) (19, -1.19495010375976562500e+00) (20, 5.63632920384407043457e-02) (21, 5.20116448402404785156e-01) (22, 4.65022444725036621094e-01) (23, 4.81507275253534317017e-03) (24, -2.80710172653198242188e+00) (25, 8.15744791179895401001e-03) (26, 5.15290975570678710938e-01) (27, -9.40006911754608154297e-01) (28, 3.00187319517135620117e-01) (29, 5.23593127727508544922e-01) (30, 1.13973386585712432861e-01) (31, 2.46430374681949615479e-02) (32, 3.30447077751159667969e-01) (33, 4.72514539957046508789e-01) (34, -4.04704046249389648438e+00) (35, 2.04620623588562011719e+00) (36, 4.47016805410385131836e-01) (37, 2.73428916931152343750e-01) (38, -1.84977233409881591797e+00) (39, 1.28309251740574836731e-02) (40, -3.81497353315353393555e-01) (41, 5.18876969814300537109e-01) (42, 3.49571675062179565430e-01) (43, -1.48252832889556884766e+00) (44, 3.80425512790679931641e-01) (45, 5.27339935302734375000e-01) (46, 3.45048248767852783203e-01) (47, 4.64247852563858032227e-01) (48, 4.74504113197326660156e-01) (49, 4.70765501260757446289e-01) (50, 1.03121840953826904297e+00) (51, -6.35184124112129211426e-02) (52, 2.40918815135955810547e-01) (53, -9.68022644519805908203e-02) (54, -1.07109703123569488525e-01) (55, 1.45753379911184310913e-02) (56, 5.89991688728332519531e-01) (57, -7.85577630996704101562e+00) (58, -6.83293759822845458984e-01) (59, 1.40152394771575927734e+00) (60, -1.14887964725494384766e+00) (61, 1.26042056083679199219e+00) (62, -1.20041869580745697021e-01) (63, 7.94550836086273193359e-01) (64, 9.61920678615570068359e-01) (65, 5.23226439952850341797e-01) (66, 4.60711628198623657227e-01) (67, 7.49764442443847656250e-01) (68, 4.35072481632232666016e-01) (69, 5.24187147617340087891e-01) (70, 1.22516900300979614258e-01) (71, -5.80378627777099609375e+00) (72, 3.89559000730514526367e-01) (73, 4.81520295143127441406e-01) (74, 9.81683611869812011719e-01) (75, 5.44159952551126480103e-03) (76, 6.33141040802001953125e-01) (77, 1.94701492786407470703e+00) (78, 2.94745061546564102173e-02) (79, -9.75743234157562255859e-02) (80, 5.62031209468841552734e-01) (81, 4.75126892328262329102e-01) (82, 8.63962352275848388672e-01) (83, 9.86073732376098632812e-01) (84, -4.19017362594604492188e+00) (85, 3.17868351936340332031e-01) (86, 2.87047177553176879883e-01) (87, 3.42104136943817138672e-01) (88, -9.36819911003112792969e-02) (89, 1.36707007884979248047e-01) (90, 5.75706899166107177734e-01) (91, 6.55525326728820800781e-02) (92, 5.42454540729522705078e-01) (93, 8.42150002717971801758e-02) (94, 2.68961071968078613281e-01) (95, 4.90936428308486938477e-01) (96, -7.01479136943817138672e-01) (97, 4.89427357912063598633e-01) (98, 2.80783504247665405273e-01) (99, 1.14997947216033935547e+00) (100, 4.07854646444320678711e-01) (0, 3.76104623079299926758e-01) (1, 5.57992272078990936279e-02) (2, -3.91391396522521972656e-01) (3, -2.62795042991638183594e+00) (4, 1.75892353057861328125e+00) (5, 3.34144532680511474609e-01) (6, -1.36909890174865722656e+00) (7, 4.06258869171142578125e+00) (8, 9.47959780693054199219e-01) (9, -1.20095029473304748535e-01) (10, 1.09430074691772460938e+00) (11, -5.71528959274291992188e+00) (12, 4.96793150901794433594e-01) (13, 2.15189838409423828125e+00) (14, -8.27352333068847656250e+00) (15, -8.39295759797096252441e-02) (16, -1.27441823482513427734e-01) (17, 1.73598736524581909180e-01) (18, -4.01593983173370361328e-01) (19, -2.57137084007263183594e+00) (20, 7.05535531044006347656e-01) (21, -1.19724825024604797363e-01) (22, -2.32520222663879394531e-01) (23, 3.46275806427001953125e-01) (24, 1.03092250823974609375e+01) (25, 6.53694581985473632812e+00) (26, 5.22699467837810516357e-02) (27, -2.61670589447021484375e+00) (28, -8.55830237269401550293e-02) (29, 1.50844469666481018066e-01) (30, -1.69160950183868408203e+00) (31, 2.92816758155822753906e-01) (32, 3.80961120128631591797e-01) (33, -9.52913475036621093750e+00) (34, -1.12627875804901123047e+00) (35, 1.77709090709686279297e+00) (36, -1.19881421327590942383e-01) (37, 8.87140989303588867188e-01) (38, 1.01344072818756103516e+00) (39, -1.16451151669025421143e-01) (40, 2.83581042289733886719e+00) (41, -1.39975011348724365234e-01) (42, -1.86354744434356689453e+00) (43, 5.54374647140502929688e+00) (44, 4.68196272850036621094e-01) (45, -3.72763603925704956055e-01) (46, 1.18419246673583984375e+01) (47, 8.61684978008270263672e-01) (48, 1.86727130413055419922e+00) (49, 4.75592315196990966797e-01) (50, 1.25428962707519531250e+00) (51, 1.05045162141323089600e-01) (52, -9.65903186798095703125e+00) (53, 3.25634211301803588867e-01) (54, -3.78682911396026611328e-02) (55, 5.47036170959472656250e-01) (56, -4.85231906175613403320e-01) (57, -1.20927953720092773438e+01) (58, 1.51137971878051757812e+00) (59, -1.58172905445098876953e+00) (60, -1.46153554320335388184e-01) (61, 2.55390667915344238281e+00) (62, 1.34007418155670166016e+00) (63, -8.74557113647460937500e+00) (64, -7.04024285078048706055e-02) (65, -7.36008118838071823120e-03) (66, -5.74998080730438232422e-01) (67, 2.27014660835266113281e+00) (68, -1.69539190828800201416e-02) (69, 3.93507117405533790588e-03) (70, -4.53643649816513061523e-02) (71, -3.66994357109069824219e+00) (72, -1.94531977176666259766e+00) (73, 4.55828249454498291016e-01) (74, 4.02200281620025634766e-01) (75, 1.55079770088195800781e+00) (76, 5.30135691165924072266e-01) (77, 8.91229915618896484375e+00) (78, 5.24162113666534423828e-01) (79, 4.73641872406005859375e-01) (80, -6.52049779891967773438e+00) (81, -1.00324189662933349609e+00) (82, -2.88222837448120117188e+00) (83, 8.61114144325256347656e-01) (84, 3.39064574241638183594e+00) (85, -3.00018116831779479980e-02) (86, -1.06607637405395507812e+01) (87, 1.27256298065185546875e+00) (88, 1.97407588362693786621e-01) (89, 3.21415019035339355469e+00) (90, -3.02963908761739730835e-02) (91, -1.19127251207828521729e-01) (92, -9.14611244201660156250e+00) (93, -2.13110661506652832031e+00) (94, -4.72632312774658203125e+00) (95, 1.10952563583850860596e-01) (96, -3.15021491050720214844e+00) (97, 2.06144396215677261353e-02) (98, -1.52788794040679931641e+00) (99, 4.51840281486511230469e-01) (100, -9.15463507175445556641e-01) (0, 1.33251305669546127319e-02) (1, -1.93329285830259323120e-02) (2, -9.47840034961700439453e-01) (3, -1.35463273525238037109e+00) (4, -5.41739702224731445312e+00) (5, -2.35026732087135314941e-01) (6, -3.11564469337463378906e+00) (7, 4.22965079545974731445e-01) (8, 1.93049982190132141113e-01) (9, 3.23286801576614379883e-01) (10, 1.16701073944568634033e-01) (11, 5.13877689838409423828e-01) (12, -2.61918842792510986328e-01) (13, -2.86995387077331542969e+00) (14, -2.79432392120361328125e+00) (15, 6.47785425186157226562e-01) (16, 4.98941451311111450195e-01) (17, 6.27299964427947998047e-01) (18, 5.17043530941009521484e-01) (19, 1.03231048583984375000e+00) (20, -1.45123705267906188965e-01) (21, 2.01506519317626953125e+00) (22, 5.61318576335906982422e-01) (23, -1.05088070034980773926e-01) (24, -3.62771749496459960938e-01) (25, -2.89863777160644531250e+00) (26, 2.53238946199417114258e-01) (27, 2.49829009175300598145e-01) (28, 5.64949393272399902344e-01) (29, 1.46695628762245178223e-01) (30, -1.49842476844787597656e+00) (31, -3.24619483947753906250e+00) (32, -6.67608752846717834473e-02) (33, 8.45075702667236328125e+00) (34, 5.82793188095092773438e+00) (35, -8.94707143306732177734e-01) (36, 4.71874952316284179688e-01) (37, 3.06464016437530517578e-01) (38, 3.12804245948791503906e+00) (39, -4.45626169443130493164e-01) (40, -6.15638256072998046875e+00) (41, -7.82267868518829345703e-01) (42, 1.99425899982452392578e+00) (43, 7.75899553298950195312e+00) (44, 5.95166385173797607422e-01) (45, 4.95150238275527954102e-01) (46, 3.66443610191345214844e+00) (47, 5.27322590351104736328e-01) (48, 3.17931473255157470703e-01) (49, 9.61344838142395019531e-01) (50, -1.09881448745727539062e+01) (51, 1.94715723395347595215e-01) (52, 4.39404773712158203125e+00) (53, 8.15289974212646484375e-01) (54, -3.97581458091735839844e+00) (55, -3.61856669187545776367e-02) (56, 5.87489485740661621094e-01) (57, -6.16092443466186523438e+00) (58, 1.21688559651374816895e-01) (59, -2.75084882974624633789e-01) (60, 5.57882845401763916016e-01) (61, 3.37117075920104980469e+00) (62, -5.67792224884033203125e+00) (63, 2.80757212638854980469e+00) (64, -9.22801792621612548828e-02) (65, 8.57156455516815185547e-01) (66, 4.60818976163864135742e-01) (67, 3.65277439355850219727e-01) (68, 5.60289919376373291016e-01) (69, 5.61189770698547363281e-01) (70, -3.21929645538330078125e+00) (71, -4.39836645126342773438e+00) (72, 5.44779717922210693359e-01) (73, -3.15774418413639068604e-03) (74, -1.94124560803174972534e-02) (75, -7.83885538578033447266e-01) (76, -4.95017841458320617676e-02) (77, 2.44297647476196289062e+00) (78, -3.67580652236938476562e-02) (79, 5.71776628494262695312e-01) (80, -7.13756847381591796875e+00) (81, 3.42341399192810058594e+00) (82, 7.35411596298217773438e+00) (83, -3.85631299018859863281e+00) (84, -6.59106683731079101562e+00) (85, 5.40516257286071777344e-01) (86, -6.47457313537597656250e+00) (87, 6.14429473876953125000e+00) (88, 7.20386862754821777344e-01) (89, -1.22135150432586669922e+00) (90, -1.60677504539489746094e+00) (91, 6.00066900253295898438e-01) (92, 3.54064750671386718750e+00) (93, -2.51554417610168457031e+00) (94, 3.01959604024887084961e-01) (95, 4.04175668954849243164e-01) (96, -1.21348524093627929688e+01) (97, 1.06711280345916748047e+00) (98, 3.42790842056274414062e+00) (99, 2.88907456398010253906e+00) (100, 4.72883880138397216797e-01) (0, -1.52359426021575927734e-01) (1, 1.07293176651000976562e+00) (2, 3.35506796836853027344e-01) (3, -2.86379829049110412598e-02) (4, 6.72897756099700927734e-01) (5, 1.74349761009216308594e+00) (6, 1.11548192799091339111e-01) (7, 1.08744561672210693359e+00) (8, -2.50790789723396301270e-02) (9, 5.10170698165893554688e-01) (10, 5.64607024192810058594e-01) (11, 5.14645278453826904297e-01) (12, 1.75332918763160705566e-01) (13, 7.23497211933135986328e-01) (14, 5.43149089813232421875e+00) (15, 5.77961325645446777344e-01) (16, 5.95159113407135009766e-01) (17, 3.50320070981979370117e-01) (18, 3.68810534477233886719e-01) (19, -7.05537438392639160156e-01) (20, 1.00454412400722503662e-01) (21, 5.43281078338623046875e-01) (22, 5.72890758514404296875e-01) (23, 3.44594754278659820557e-02) (24, -5.20737791061401367188e+00) (25, -6.03929981589317321777e-02) (26, 3.54693382978439331055e-01) (27, -2.52430820465087890625e+00) (28, 4.35495913028717041016e-01) (29, 5.41909515857696533203e-01) (30, -1.42078354954719543457e-01) (31, 1.30986273288726806641e-01) (32, 8.98839458823204040527e-02) (33, 4.79248017072677612305e-01) (34, -5.88574409484863281250e+00) (35, 1.74824714660644531250e+00) (36, 5.01460611820220947266e-01) (37, 3.53627592325210571289e-01) (38, 3.07585668563842773438e+00) (39, 4.81914356350898742676e-02) (40, 2.85237646102905273438e+00) (41, 5.08559703826904296875e-01) (42, 3.11249256134033203125e-01) (43, 1.24287195205688476562e+01) (44, 6.11752331256866455078e-01) (45, 5.02742767333984375000e-01) (46, -1.60495603084564208984e+00) (47, 5.93604564666748046875e-01) (48, 5.17444252967834472656e-01) (49, 2.31299459934234619141e-01) (50, -1.61342608928680419922e+00) (51, 2.65829086303710937500e+00) (52, 3.50719004869461059570e-01) (53, -3.10193926095962524414e-01) (54, -1.39110967516899108887e-01) (55, 6.06129243969917297363e-02) (56, 5.22030711174011230469e-01) (57, -1.47140932083129882812e+00) (58, -1.69251191616058349609e+00) (59, 1.87191498279571533203e+00) (60, 4.70373034477233886719e-02) (61, 1.01129698753356933594e+00) (62, -3.64940851926803588867e-01) (63, 7.12139606475830078125e-01) (64, 9.82519686222076416016e-01) (65, 4.48782771825790405273e-01) (66, 5.33960163593292236328e-01) (67, 3.08651030063629150391e-01) (68, 4.82731759548187255859e-01) (69, 3.87765079736709594727e-01) (70, 5.06854832172393798828e-01) (71, -4.00511074066162109375e+00) (72, 6.58946931362152099609e-01) (73, 1.93904936313629150391e-01) (74, 8.53719234466552734375e-01) (75, 2.61454492807388305664e-01) (76, 7.71829545497894287109e-01) (77, 1.67250767350196838379e-01) (78, 5.26970718055963516235e-03) (79, -9.39710587263107299805e-02) (80, 5.98952136933803558350e-02) (81, 4.58690047264099121094e-01) (82, 5.32844305038452148438e+00) (83, 2.40122228860855102539e-01) (84, -5.53592348098754882812e+00) (85, 3.08477163314819335938e-01) (86, 9.03309059143066406250e+00) (87, 6.55286014080047607422e-01) (88, 1.08749590814113616943e-01) (89, 4.32531386613845825195e-01) (90, 6.00497841835021972656e-01) (91, 2.33426377177238464355e-01) (92, -4.33217018842697143555e-01) (93, -2.26796597242355346680e-01) (94, 4.29855048656463623047e-01) (95, 1.23755180835723876953e+00) (96, 1.96475744247436523438e-01) (97, 4.55503284931182861328e-01) (98, 2.72800803184509277344e-01) (99, 5.64229846000671386719e-01) (100, 5.79015254974365234375e-01) (0, 5.24802366271615028381e-03) (1, 1.24841058254241943359e+00) (2, 5.33284246921539306641e-01) (3, -9.24683585762977600098e-02) (4, 4.79038476943969726562e-01) (5, 1.38547754287719726562e+00) (6, 3.60056459903717041016e-01) (7, 1.25173723697662353516e+00) (8, -7.01789334416389465332e-02) (9, 6.61828398704528808594e-01) (10, 4.35021936893463134766e-01) (11, 5.20475625991821289062e-01) (12, 6.32467329502105712891e-01) (13, 1.27359390258789062500e-01) (14, 1.90333366394042968750e+00) (15, 6.42974495887756347656e-01) (16, 5.65730035305023193359e-01) (17, 3.35602730512619018555e-01) (18, 3.91632437705993652344e-01) (19, -1.11306405067443847656e+00) (20, 1.95340719074010848999e-02) (21, 4.22073870897293090820e-01) (22, 6.56206011772155761719e-01) (23, -1.31946811452507972717e-02) (24, -7.67192506790161132812e+00) (25, 1.00595526397228240967e-01) (26, 3.97724330425262451172e-01) (27, -5.76500177383422851562e+00) (28, 2.48730868101119995117e-01) (29, 5.10565102100372314453e-01) (30, -1.73617616295814514160e-01) (31, 4.21342700719833374023e-02) (32, 2.04104721546173095703e-01) (33, 6.35354697704315185547e-01) (34, 3.28009223937988281250e+00) (35, 1.58403062820434570312e+00) (36, 4.58892345428466796875e-01) (37, 2.86788105964660644531e-01) (38, 1.23402714729309082031e+00) (39, -6.63627758622169494629e-02) (40, 4.17615994811058044434e-02) (41, 5.99358379840850830078e-01) (42, 1.71915829181671142578e-01) (43, 1.72265544533729553223e-01) (44, 4.82188433408737182617e-01) (45, 6.55734241008758544922e-01) (46, -4.27481317520141601562e+00) (47, 6.44818246364593505859e-01) (48, 3.97259593009948730469e-01) (49, 4.63214278221130371094e-01) (50, -3.50939702987670898438e+00) (51, 4.55415919423103332520e-02) (52, 3.44530761241912841797e-01) (53, 1.07200078666210174561e-01) (54, 3.07127796113491058350e-02) (55, -5.73775544762611389160e-02) (56, 4.81722861528396606445e-01) (57, 2.01573705673217773438e+00) (58, 2.43849866092205047607e-02) (59, 1.39508497714996337891e+00) (60, -1.57011210918426513672e-01) (61, 1.16299712657928466797e+00) (62, -1.44003880023956298828e+00) (63, 6.53272509574890136719e-01) (64, 7.33230769634246826172e-01) (65, 5.48300921916961669922e-01) (66, 5.43823540210723876953e-01) (67, 1.38424360752105712891e+00) (68, 3.90660881996154785156e-01) (69, 3.67232799530029296875e-01) (70, 3.44353139400482177734e-01) (71, 6.28138494491577148438e+00) (72, 6.35429143905639648438e-01) (73, 8.82137179374694824219e-01) (74, 9.39550518989562988281e-01) (75, 3.48877012729644775391e-01) (76, 6.70586585998535156250e-01) (77, -1.44960045814514160156e+00) (78, 8.05371329188346862793e-02) (79, -1.21680617332458496094e-01) (80, 4.91563171148300170898e-01) (81, 6.00231766700744628906e-01) (82, -3.70643615722656250000e+00) (83, 3.72038960456848144531e-01) (84, -3.29538536071777343750e+00) (85, 3.51777851581573486328e-01) (86, 9.82821360230445861816e-03) (87, -9.98339474201202392578e-01) (88, -7.45733529329299926758e-02) (89, 3.71313542127609252930e-01) (90, 5.11320650577545166016e-01) (91, 2.93352991342544555664e-01) (92, 2.12304115295410156250e+00) (93, -2.21353217959403991699e-01) (94, 2.75613814592361450195e-01) (95, 5.24132847785949707031e-01) (96, 2.33868861198425292969e+00) (97, 5.34557759761810302734e-01) (98, 2.20552116632461547852e-01) (99, 9.98155176639556884766e-01) (100, 4.33014333248138427734e-01) (0, 6.56168043613433837891e-01) (1, -2.61041726917028427124e-02) (2, -5.48594522476196289062e+00) (3, -2.52827239036560058594e+00) (4, 3.67145657539367675781e-01) (5, 2.55787700414657592773e-01) (6, -4.80566293001174926758e-01) (7, -1.94138377904891967773e-01) (8, -4.71195280551910400391e-02) (9, -2.46828436851501464844e+00) (10, -2.09117722511291503906e+00) (11, 4.92585420608520507812e-01) (12, -1.20257253646850585938e+01) (13, -7.42989256978034973145e-02) (14, -5.59548616409301757812e+00) (15, 5.00780344009399414062e-01) (16, 3.21407675743103027344e-01) (17, 5.15528440475463867188e-01) (18, -1.79070389270782470703e+00) (19, -2.10874629020690917969e+00) (20, 1.02300815284252166748e-01) (21, 4.85859513282775878906e-01) (22, 5.45108437538146972656e-01) (23, -1.04617983102798461914e-01) (24, -1.21910166740417480469e+00) (25, -4.99676279723644256592e-02) (26, 2.99416124820709228516e-01) (27, 6.08526039123535156250e+00) (28, 4.86193209886550903320e-01) (29, 3.05916368961334228516e-01) (30, -5.75483292341232299805e-02) (31, -1.43457025289535522461e-01) (32, -3.47934514284133911133e-02) (33, 7.56693959236145019531e-01) (34, 9.95473194122314453125e+00) (35, 5.06073646247386932373e-02) (36, 6.43095076084136962891e-01) (37, 2.48640224337577819824e-01) (38, 8.68185997009277343750e-01) (39, -2.89384007453918457031e+00) (40, -7.27370619773864746094e-01) (41, -1.00216364860534667969e+00) (42, 1.95232369005680084229e-02) (43, -1.80830421447753906250e+01) (44, 4.59459066390991210938e-01) (45, -3.03264021873474121094e-01) (46, 7.78975772857666015625e+00) (47, 5.35671174526214599609e-01) (48, -2.09860348701477050781e+00) (49, 4.20735701918601989746e-02) (50, -2.04662966728210449219e+00) (51, -1.02816253900527954102e-01) (52, 2.91595792770385742188e+00) (53, 7.39970207214355468750e-01) (54, -1.70396298170089721680e-01) (55, -4.39821247709915041924e-04) (56, 4.05796319246292114258e-01) (57, 6.27963542938232421875e+00) (58, -4.89324522018432617188e+00) (59, -1.78903698921203613281e-01) (60, 6.87279462814331054688e-01) (61, 5.51486849784851074219e-01) (62, 5.20179331302642822266e-01) (63, 3.28899741172790527344e+00) (64, -3.75114083290100097656e+00) (65, 4.42311257123947143555e-01) (66, 5.66819787025451660156e-01) (67, -1.01964223384857177734e+00) (68, 2.00194954872131347656e-01) (69, 6.31820499897003173828e-01) (70, -3.85914385318756103516e-01) (71, 2.67282915115356445312e+00) (72, 4.19148266315460205078e-01) (73, 3.77109348773956298828e-01) (74, -2.81703257560729980469e+00) (75, 6.04705274105072021484e-01) (76, -8.26545953750610351562e-01) (77, -5.72773981094360351562e+00) (78, 4.71374504268169403076e-02) (79, 2.71676480770111083984e-01) (80, -3.26214814186096191406e+00) (81, -7.93300342559814453125e+00) (82, -7.30572128295898437500e+00) (83, -3.33478510379791259766e-01) (84, -3.39870381355285644531e+00) (85, 6.62926554679870605469e-01) (86, 2.77639341354370117188e+00) (87, 1.41257375478744506836e-01) (88, 6.53948783874511718750e-01) (89, -1.22441387176513671875e+00) (90, 7.94862985610961914062e-01) (91, 6.20988547801971435547e-01) (92, 3.96843981742858886719e+00) (93, 6.14366114139556884766e-01) (94, 6.03356063365936279297e-01) (95, 4.61597108840942382812e+00) (96, 2.95776820182800292969e+00) (97, 4.94162917137145996094e-01) (98, -4.68342483043670654297e-01) (99, 1.80718576908111572266e+00) (100, 4.09591615200042724609e-01) (0, -5.82439613342285156250e+00) (1, 2.80900895595550537109e-01) (2, -2.80550241470336914062e-01) (3, 4.80457872152328491211e-01) (4, 1.36184822767972946167e-02) (5, 5.50209105014801025391e-01) (6, 4.10690689086914062500e+00) (7, 2.65651607513427734375e+00) (8, 4.82728421688079833984e-01) (9, -6.83737471699714660645e-02) (10, 1.07233896255493164062e+01) (11, -5.56875094771385192871e-02) (12, 3.27367752790451049805e-01) (13, 4.94396358728408813477e-01) (14, 2.28169536590576171875e+00) (15, -7.43993744254112243652e-02) (16, -4.16374981403350830078e-01) (17, 2.51159131526947021484e-01) (18, -5.12947514653205871582e-02) (19, 4.48561847209930419922e-01) (20, 4.42048251628875732422e-01) (21, -9.14264470338821411133e-02) (22, -9.11803096532821655273e-02) (23, 4.27981615066528320312e-01) (24, -2.06631827354431152344e+00) (25, 3.61177623271942138672e-01) (26, -1.53256580233573913574e-01) (27, -1.10597734451293945312e+01) (28, -2.61944010853767395020e-02) (29, -4.96113032102584838867e-01) (30, -1.07062220573425292969e+00) (31, 1.87335804104804992676e-01) (32, 3.47551912069320678711e-01) (33, 6.56059789657592773438e+00) (34, 1.15679445266723632812e+01) (35, -1.27573513984680175781e+00) (36, 1.04451738297939300537e-01) (37, 1.71853625774383544922e+00) (38, 1.16938197612762451172e+00) (39, 4.54753607511520385742e-01) (40, -1.19358005523681640625e+01) (41, 1.30743071436882019043e-01) (42, -2.21170735359191894531e+00) (43, 3.93671107292175292969e+00) (44, 1.50348711013793945312e+00) (45, -1.85230478644371032715e-01) (46, -1.58441448211669921875e+01) (47, -4.86146062612533569336e-01) (48, 6.21473118662834167480e-02) (49, 4.65128868818283081055e-01) (50, -4.46300888061523437500e+00) (51, 5.73924362659454345703e-01) (52, 4.69980612397193908691e-02) (53, 3.00335377454757690430e-01) (54, 1.55021822452545166016e+00) (55, 3.66927593946456909180e-01) (56, -3.81815701723098754883e-01) (57, 5.64779138565063476562e+00) (58, -6.71214103698730468750e+00) (59, 4.04735356569290161133e-01) (60, -1.16122412681579589844e+00) (61, 2.76484084129333496094e+00) (62, -1.85760664939880371094e+00) (63, -3.37575173377990722656e+00) (64, -1.38565063476562500000e-01) (65, 1.66235312819480895996e-01) (66, -3.65743879228830337524e-04) (67, 3.51154208183288574219e-01) (68, -9.33457314968109130859e-02) (69, -1.66798725128173828125e+01) (70, -1.06494508683681488037e-01) (71, -4.23478221893310546875e+00) (72, 9.12176322937011718750e+00) (73, 2.80879169702529907227e-01) (74, 5.53141832351684570312e-01) (75, -3.18967556953430175781e+00) (76, 4.33864444494247436523e-01) (77, -9.96802616119384765625e+00) (78, -1.35894855484366416931e-02) (79, 6.15949630737304687500e-01) (80, 8.16928297281265258789e-02) (81, -9.55381011962890625000e+00) (82, 1.71922528743743896484e+00) (83, 2.78343856334686279297e-01) (84, -3.16665697097778320312e+00) (85, -3.15987020730972290039e-02) (86, -4.05863380432128906250e+00) (87, -1.05998506546020507812e+01) (88, 5.05878701806068420410e-02) (89, -1.37411579489707946777e-01) (90, 3.15468215942382812500e+00) (91, 1.32343620061874389648e-01) (92, 5.26028299331665039062e+00) (93, 3.90204095840454101562e+00) (94, -6.45792436599731445312e+00) (95, 8.76081511378288269043e-02) (96, 1.07214794158935546875e+01) (97, -6.97869360446929931641e-02) (98, -1.67928063869476318359e+00) (99, 1.64281606674194335938e-01) (100, 5.56485578417778015137e-02) (101, 6.20103240013122558594e-01) (102, 2.42060780525207519531e-01) (103, 3.63376677036285400391e-01) (104, -2.14548185467720031738e-01) (105, -5.51662385463714599609e-01) (106, 3.84985893964767456055e-01) (107, 6.10243141651153564453e-01) (108, 6.04798197746276855469e-01) (109, 4.22242343425750732422e-01) (110, 2.55901992321014404297e-01) (111, 2.15638950467109680176e-01) (112, 2.30401635169982910156e-01) (113, 3.87125015258789062500e-01) (114, 2.14690163731575012207e-01) (115, 4.31375175714492797852e-01) (116, 4.53352600336074829102e-01) (117, 5.31460165977478027344e-01) (118, 2.78129249811172485352e-01) (119, 4.41533654928207397461e-01) (120, -2.01694115996360778809e-01) (121, 5.30471265316009521484e-01) (122, 2.75413870811462402344e-01) (123, 2.25748002529144287109e-01) (124, 5.90391457080841064453e-01) (125, 3.32216531038284301758e-01) (126, 4.36015397310256958008e-01) (127, 6.24334156513214111328e-01) (128, 3.89959603548049926758e-01) (129, 5.20862758159637451172e-01) (130, 3.99107575416564941406e-01) (131, 2.40913569927215576172e-01) (132, 3.92349481582641601562e-01) (133, 4.13908332586288452148e-01) (134, 3.21385592222213745117e-01) (135, 4.21831518411636352539e-01) (136, 5.54885208606719970703e-01) (137, 2.32666283845901489258e-01) (138, 3.63679736852645874023e-01) (139, 4.63150173425674438477e-01) (140, -1.74265950918197631836e-01) (141, 3.95882874727249145508e-01) (142, 4.10332560539245605469e-01) (143, 2.72713840007781982422e-01) (144, -2.45348975062370300293e-01) (145, -1.84497162699699401855e-01) (146, 3.81353646516799926758e-01) (147, 5.18728971481323242188e-01) (148, 2.13518083095550537109e-01) (149, 3.18443298339843750000e-01) (150, 5.72439253330230712891e-01) (151, 3.81928533315658569336e-01) (152, -4.44915801286697387695e-01) (153, 4.03878450393676757812e-01) (154, 1.99471041560173034668e-01) (155, 4.25839602947235107422e-01) (156, -2.40897402167320251465e-01) (157, 6.29036307334899902344e-01) (158, 3.98665189743041992188e-01) (159, 4.28043603897094726562e-01) (160, 3.94905745983123779297e-01) (161, 4.33076977729797363281e-01) (162, -2.86760538816452026367e-01) (163, 4.48663771152496337891e-01) (164, 5.67213535308837890625e-01) (165, 4.08629119396209716797e-01) (166, 5.42863786220550537109e-01) (167, 4.29264992475509643555e-01) (168, 2.29457810521125793457e-01) (169, 5.62152981758117675781e-01) (170, 2.05481663346290588379e-01) (171, 4.04158234596252441406e-01) (172, 2.12074294686317443848e-01) (173, 3.56712371110916137695e-01) (174, 3.47273856401443481445e-01) (175, -4.00921940803527832031e-01) (176, 2.79750972986221313477e-01) (177, 6.19960546493530273438e-01) (178, 4.75170999765396118164e-01) (179, -2.34306231141090393066e-01) (180, 3.30304205417633056641e-01) (181, -3.96359294652938842773e-01) (182, 4.22996580600738525391e-01) (183, 4.07283425331115722656e-01) (184, -4.10948604345321655273e-01) (185, 6.21888995170593261719e-01) (186, 5.53968906402587890625e-01) (187, 5.43149411678314208984e-01) (188, 6.58389270305633544922e-01) (189, 6.05692982673645019531e-01) (190, 6.13915324211120605469e-01) (191, 4.03159469366073608398e-01) (192, 3.99821162223815917969e-01) (193, 4.07245576381683349609e-01) (194, -5.23899793624877929688e-01) (195, 5.88416278362274169922e-01) (196, 4.32591021060943603516e-01) (197, -3.88922750949859619141e-01) (198, -3.09383571147918701172e-01) (199, 4.17187660932540893555e-01) (200, 2.63594150543212890625e-01) (201, 6.24126914772205054760e-05) 
